{"Ā": 0, "ā": 1, "Ă": 2, "ă": 3, "Ą": 4, "ą": 5, "Ć": 6, "ć": 7, "Ĉ": 8, "ĉ": 9, "Ċ": 10, "ċ": 11, "Č": 12, "č": 13, "Ď": 14, "ď": 15, "Đ": 16, "đ": 17, "Ē": 18, "ē": 19, "Ĕ": 20, "ĕ": 21, "Ė": 22, "ė": 23, "Ę": 24, "ę": 25, "Ě": 26, "ě": 27, "Ĝ": 28, "ĝ": 29, "Ğ": 30, "ğ": 31, "Ġ": 32, "!": 33, "\"": 34, "#": 35, "$": 36, "%": 37, "&": 38, "'": 39, "(": 40, ")": 41, "*": 42, "+": 43, ",": 44, "-": 45, ".": 46, "/": 47, "0": 48, "1": 49, "2": 50, "3": 51, "4": 52, "5": 53, "6": 54, "7": 55, "8": 56, "9": 57, ":": 58, ";": 59, "<": 60, "=": 61, ">": 62, "?": 63, "@": 64, "A": 65, "B": 66, "C": 67, "D": 68, "E": 69, "F": 70, "G": 71, "H": 72, "I": 73, "J": 74, "K": 75, "L": 76, "M": 77, "N": 78, "O": 79, "P": 80, "Q": 81, "R": 82, "S": 83, "T": 84, "U": 85, "V": 86, "W": 87, "X": 88, "Y": 89, "Z": 90, "[": 91, "\\": 92, "]": 93, "^": 94, "_": 95, "`": 96, "a": 97, "b": 98, "c": 99, "d": 100, "e": 101, "f": 102, "g": 103, "h": 104, "i": 105, "j": 106, "k": 107, "l": 108, "m": 109, "n": 110, "o": 111, "p": 112, "q": 113, "r": 114, "s": 115, "t": 116, "u": 117, "v": 118, "w": 119, "x": 120, "y": 121, "z": 122, "{": 123, "|": 124, "}": 125, "~": 126, "ġ": 127, "Ģ": 128, "ģ": 129, "Ĥ": 130, "ĥ": 131, "Ħ": 132, "ħ": 133, "Ĩ": 134, "ĩ": 135, "Ī": 136, "ī": 137, "Ĭ": 138, "ĭ": 139, "Į": 140, "į": 141, "İ": 142, "ı": 143, "Ĳ": 144, "ĳ": 145, "Ĵ": 146, "ĵ": 147, "Ķ": 148, "ķ": 149, "ĸ": 150, "Ĺ": 151, "ĺ": 152, "Ļ": 153, "ļ": 154, "Ľ": 155, "ľ": 156, "Ŀ": 157, "ŀ": 158, "Ł": 159, "ł": 160, "¡": 161, "¢": 162, "£": 163, "¤": 164, "¥": 165, "¦": 166, "§": 167, "¨": 168, "©": 169, "ª": 170, "«": 171, "¬": 172, "Ń": 173, "®": 174, "¯": 175, "°": 176, "±": 177, "²": 178, "³": 179, "´": 180, "µ": 181, "¶": 182, "·": 183, "¸": 184, "¹": 185, "º": 186, "»": 187, "¼": 188, "½": 189, "¾": 190, "¿": 191, "À": 192, "Á": 193, "Â": 194, "Ã": 195, "Ä": 196, "Å": 197, "Æ": 198, "Ç": 199, "È": 200, "É": 201, "Ê": 202, "Ë": 203, "Ì": 204, "Í": 205, "Î": 206, "Ï": 207, "Ð": 208, "Ñ": 209, "Ò": 210, "Ó": 211, "Ô": 212, "Õ": 213, "Ö": 214, "×": 215, "Ø": 216, "Ù": 217, "Ú": 218, "Û": 219, "Ü": 220, "Ý": 221, "Þ": 222, "ß": 223, "à": 224, "á": 225, "â": 226, "ã": 227, "ä": 228, "å": 229, "æ": 230, "ç": 231, "è": 232, "é": 233, "ê": 234, "ë": 235, "ì": 236, "í": 237, "î": 238, "ï": 239, "ð": 240, "ñ": 241, "ò": 242, "ó": 243, "ô": 244, "õ": 245, "ö": 246, "÷": 247, "ø": 248, "ù": 249, "ú": 250, "û": 251, "ü": 252, "ý": 253, "þ": 254, "ÿ": 255, "<|endoftext|>": 256, "Ġt": 257, "Ġa": 258, "he": 259, "in": 260, "re": 261, "Ġthe": 262, "on": 263, "er": 264, "Ġs": 265, "Ġw": 266, "at": 267, "Ġo": 268, "en": 269, "Ġc": 270, "it": 271, "is": 272, "an": 273, "or": 274, "Ġb": 275, "es": 276, "ed": 277, "Ġf": 278, "ing": 279, "Ġp": 280, "ou": 281, "Ġan": 282, "Ġto": 283, "al": 284, "ar": 285, "Ġm": 286, "Ġin": 287, "Ġof": 288, "Ġd": 289, "Ġh": 290, "âĢ": 291, "as": 292, "Ġand": 293, "ic": 294, "Ġth": 295, "le": 296, "om": 297, "ion": 298, "ll": 299, "ent": 300, "Ġl": 301, "Ġn": 302, "Ġre": 303, "st": 304, "ve": 305, "ly": 306, "Ġe": 307, "Ġbe": 308, "ro": 309, "Ġg": 310, "id": 311, "ut": 312, "ot": 313, "ac": 314, "ĠT": 315, "Ġthat": 316, "Ġon": 317, "ĠI": 318, "ay": 319, "ĠS": 320, "Ġis": 321, "et": 322, "im": 323, "ad": 324, "am": 325, "ow": 326, "âĢĻ": 327, "se": 328, "ig": 329, "Ġfor": 330, "ver": 331, "ĠA": 332, "ld": 333, "ur": 334, "ct": 335, "ĠC": 336, "Ġu": 337, "Ġst": 338, "Ġy": 339, "Ġhe": 340, "Ġit": 341, "ir": 342, "ation": 343, "ith": 344, "Ġwh": 345, "ĠM": 346, "ce": 347, "ter": 348, "Ġwe": 349, "ol": 350, "il": 351, "Ġwith": 352, "Ġas": 353, "ch": 354, "ill": 355, "ĠB": 356, "nd": 357, "Ġyou": 358, "ĠâĢ": 359, "Ġwas": 360, "ers": 361, "ĠP": 362, "ke": 363, "Ġde": 364, "Ġcon": 365, "her": 366, "if": 367, "Ġr": 368, "ate": 369, "Ġat": 370, "ag": 371, "Ġha": 372, "ĠH": 373, "ĠW": 374, "Ġse": 375, "Ġpro": 376, "ore": 377, "pp": 378, "ri": 379, "ul": 380, "ment": 381, "ĠD": 382, "Ġare": 383, "Ġcom": 384, "and": 385, "us": 386, "est": 387, "ain": 388, "ist": 389, "Ġ1": 390, "op": 391, "ĠR": 392, "ĠThe": 393, "igh": 394, "Ġ2": 395, "rom": 396, "th": 397, "od": 398, "Ġne": 399, "ĠF": 400, "âĢĿ": 401, "un": 402, "um": 403, "Ġ(": 404, "res": 405, "Ġex": 406, "ĠN": 407, "ab": 408, "Ġv": 409, "em": 410, "ity": 411, "Ġnot": 412, "ess": 413, "Ġhave": 414, "ould": 415, "os": 416, "Ġor": 417, "ort": 418, "Ġby": 419, "ant": 420, "ĠG": 421, "'s": 422, "ive": 423, "Ġal": 424, "Ġfrom": 425, "el": 426, "art": 427, "Ġsu": 428, "ĠL": 429, "oc": 430, "Ġsh": 431, "qu": 432, "nt": 433, "Ġthis": 434, "pe": 435, "ight": 436, "ust": 437, "Ġle": 438, "ies": 439, "ĠE": 440, "Ġsa": 441, "end": 442, "Ġch": 443, "ie": 444, "Ġab": 445, "out": 446, "ĠâĢľ": 447, "The": 448, "00": 449, "all": 450, "Ġpl": 451, "red": 452, "ack": 453, "Ġhas": 454, "ally": 455, "ĠJ": 456, "Ġgo": 457, "ard": 458, "Ġhis": 459, "our": 460, "ome": 461, "iv": 462, "Ġj": 463, "gh": 464, "ost": 465, "ear": 466, "ap": 467, "Ġtr": 468, "ud": 469, "ak": 470, "ĠO": 471, "ast": 472, "Ġdo": 473, "Ġwor": 474, "Ġthey": 475, "Ġbut": 476, "Ġsaid": 477, "Ġwhe": 478, "Ġwill": 479, "Ġcan": 480, "rou": 481, "ĠU": 482, "ge": 483, "Ġk": 484, "ok": 485, "ich": 486, "Ġwho": 487, "Ġall": 488, "ide": 489, "Ġint": 490, "Ġ\"": 491, "ther": 492, "Ġout": 493, "ame": 494, "ial": 495, "ans": 496, "Ġtheir": 497, "ice": 498, "ff": 499, "ect": 500, "ong": 501, "age": 502, "pl": 503, "ure": 504, "ike": 505, "one": 506, "pt": 507, "Ġmore": 508, "Ġme": 509, "Ġup": 510, "ions": 511, "ous": 512, "act": 513, "Ġad": 514, "ine": 515, "Ġabout": 516, "ber": 517, "ĠK": 518, "Ġwere": 519, "ia": 520, "Ġso": 521, "ated": 522, "Ġone": 523, "ra": 524, "og": 525, "Ġhad": 526, "ime": 527, "ub": 528, "ep": 529, "Ġcl": 530, "Ġus": 531, "are": 532, "ue": 533, "ake": 534, "Ġ20": 535, "Ġwould": 536, "cc": 537, "ind": 538, "Ġag": 539, "very": 540, "Ġoff": 541, "Ġim": 542, "Ġte": 543, "Ġwhich": 544, "Ġun": 545, "Ġcont": 546, "Ġcomp": 547, "iz": 548, "Ġbeen": 549, "Ġen": 550, "so": 551, "au": 552, "ĠSt": 553, "per": 554, "ign": 555, "ip": 556, "ace": 557, "ary": 558, "Ġyear": 559, "ĠTh": 560, "ew": 561, "ven": 562, "ook": 563, "Ġlike": 564, "ere": 565, "ays": 566, "ose": 567, "ry": 568, "Ġpe": 569, "Ġman": 570, "Ġres": 571, "Ġinc": 572, "ass": 573, "ire": 574, "Ġsp": 575, "ord": 576, "Ġper": 577, "able": 578, "ite": 579, "ib": 580, "Ġother": 581, "ile": 582, "ĠIn": 583, "Ġsome": 584, "mer": 585, "ople": 586, "ence": 587, "Ġ201": 588, "Ġover": 589, "ations": 590, "Ġthere": 591, "ress": 592, "ks": 593, "ance": 594, "Ġdis": 595, "Ġalso": 596, "int": 597, "Ġthan": 598, "Ġbec": 599, "Ġnew": 600, "ult": 601, "ough": 602, "Ġar": 603, "ical": 604, "ount": 605, "own": 606, "ru": 607, "ail": 608, "Ġwhen": 609, "Ġyour": 610, "Ġthem": 611, "Ġapp": 612, "ond": 613, "Ġwhat": 614, "Ġqu": 615, "ree": 616, "Ġpart": 617, "port": 618, "Ġpeople": 619, "fter": 620, "Ġjust": 621, "av": 622, "orm": 623, "Ġany": 624, "ase": 625, "Ġsc": 626, "ĠY": 627, "Ġher": 628, "Ġits": 629, "ĠCh": 630, "Ġkn": 631, "lic": 632, "Ġtime": 633, ".âĢĿ": 634, "ach": 635, "ĠIt": 636, "Ġif": 637, "ens": 638, "Ġrec": 639, "ove": 640, "Ġmy": 641, "ian": 642, "Ġget": 643, "Ġtw": 644, "Ġinto": 645, "reat": 646, "irst": 647, "ction": 648, "ound": 649, "ob": 650, "Ġwork": 651, "ĠV": 652, "du": 653, "ings": 654, "Ġ3": 655, "ors": 656, "ident": 657, "ick": 658, "ory": 659, "ition": 660, "Ġpre": 661, "vel": 662, "Ġplay": 663, "Ġour": 664, "ang": 665, ",âĢĿ": 666, "ink": 667, "wn": 668, "ause": 669, "hing": 670, "Ġshe": 671, "Ġro": 672, "ade": 673, "ates": 674, "Ġno": 675, "ĠHe": 676, "itt": 677, "ark": 678, "vers": 679, "'t": 680, "Ġafter": 681, "Ġcould": 682, "ne": 683, "Ġpol": 684, "amp": 685, "nder": 686, "ons": 687, "ious": 688, "Ġfirst": 689, "Ġhow": 690, "Ġ19": 691, "Ġco": 692, "Ġfe": 693, "Ġhim": 694, "Ġacc": 695, "aw": 696, "ild": 697, "Ġatt": 698, "âĢľ": 699, "Ġ-": 700, "Ġpo": 701, "erv": 702, "ict": 703, "hed": 704, "Ġonly": 705, "Ġtwo": 706, "ov": 707, "Ġpr": 708, "ck": 709, "we": 710, "ish": 711, "Ġspe": 712, "form": 713, "Ġcomm": 714, "Ġact": 715, "Ġbet": 716, "Ġbl": 717, ".\"": 718, "ĠâĢĵ": 719, "ft": 720, "Ġback": 721, "te": 722, "Ġmost": 723, "ning": 724, ",\"": 725, "Ġdec": 726, "ater": 727, "ces": 728, "ood": 729, "iff": 730, "round": 731, "rough": 732, "oy": 733, "Ġagain": 734, "Ġdid": 735, "Ġam": 736, "ise": 737, "iss": 738, "Ġunder": 739, "Ġ[": 740, "ual": 741, "ull": 742, "ents": 743, "ĠâĢĶ": 744, "ublic": 745, "lud": 746, "Ġdes": 747, "Ġbecause": 748, "day": 749, "Ġknow": 750, "Ġwant": 751, "sel": 752, "Ġyears": 753, "tern": 754, "Ġnow": 755, "Ġneed": 756, "Ġcons": 757, "rit": 758, "man": 759, "Ġeven": 760, "Ġinv": 761, "ments": 762, "ec": 763, "Ġsec": 764, "ĠWe": 765, "Ġsee": 766, "Ġ4": 767, "Ġadd": 768, "fore": 769, "Ġevery": 770, "Ġind": 771, "ced": 772, "old": 773, "urn": 774, "..": 775, "Ġsupp": 776, "Ġwhere": 777, "uch": 778, "pect": 779, "Ġmake": 780, "ject": 781, "Ġdon": 782, "ĠUn": 783, "oll": 784, "ock": 785, "In": 786, "Ġem": 787, "Ġ$": 788, "Ġlook": 789, "ump": 790, "Ġthese": 791, "Ġ5": 792, "Ġbeing": 793, "Th": 794, "Ġway": 795, "Ġmay": 796, "vern": 797, "ĠTr": 798, "oss": 799, "ng": 800, "ily": 801, "ating": 802, "ĠAnd": 803, "Ġev": 804, "Ġbu": 805, "ational": 806, "xt": 807, "ied": 808, "ĠBut": 809, "Ġmany": 810, "iew": 811, "row": 812, "Ġright": 813, "ont": 814, "Ġrel": 815, ").": 816, "ason": 817, "Ġrem": 818, "Ġinclud": 819, "Ġdef": 820, "Ġthink": 821, "Ġthen": 822, "Ġdiff": 823, "Ġreg": 824, "rib": 825, "Ġcall": 826, "aking": 827, "Ġthrough": 828, "ited": 829, "ased": 830, "Ġsay": 831, "Ġph": 832, "other": 833, "Ġthose": 834, "Ġshow": 835, "Ġpres": 836, "Ġbr": 837, "Ġshould": 838, "Ġsy": 839, "Ġvery": 840, "Ġlast": 841, "Ġfl": 842, "ell": 843, "ities": 844, "Ġimp": 845, "uring": 846, "lect": 847, "Ġ200": 848, "ss": 849, "ower": 850, "ath": 851, "meric": 852, "ty": 853, "Ġmuch": 854, "ative": 855, "Ġstate": 856, "Ġmon": 857, "les": 858, "und": 859, "hen": 860, "Ġdown": 861, "Ġdoes": 862, "ific": 863, "oth": 864, "Ġass": 865, "ĠWh": 866, "Ġbel": 867, "omet": 868, "arly": 869, "ĠThis": 870, "ting": 871, "als": 872, "Ġwell": 873, "ward": 874, "Ġcount": 875, "Ġown": 876, "ters": 877, "Ġbefore": 878, "Ġend": 879, "ible": 880, "arg": 881, "ics": 882, "ues": 883, "Ġstart": 884, "gr": 885, "Ġuse": 886, "ange": 887, "ren": 888, "oun": 889, "Ġlong": 890, "ĠNew": 891, "ince": 892, "ife": 893, "Ġke": 894, "up": 895, "Ġgovern": 896, "ts": 897, "ĠAmeric": 898, "Ġreport": 899, "Ġstud": 900, "ek": 901, "Ġfin": 902, "Ġteam": 903, "ble": 904, "Ġmade": 905, "olog": 906, "erson": 907, "Ġent": 908, "Ġgoing": 909, "lp": 910, "Ġworld": 911, "ful": 912, "Ġsm": 913, "Ġsur": 914, "Ġsub": 915, "ys": 916, "ix": 917, "ism": 918, "Ġgood": 919, "ility": 920, "Ġsuch": 921, "com": 922, "Ġagainst": 923, "ually": 924, "âĢĶ": 925, "It": 926, "ier": 927, "),": 928, "Ġgu": 929, "tain": 930, "Ġprov": 931, "Ġlead": 932, "Ġpoint": 933, "ener": 934, "Ġeff": 935, "ork": 936, "its": 937, "Ġac": 938, "Ġwhile": 939, "ists": 940, "Ġset": 941, "Ġgame": 942, "000": 943, "stem": 944, "ars": 945, "Ġsays": 946, "Ġstill": 947, "Ġhelp": 948, "ax": 949, "illion": 950, "ween": 951, "Ġgr": 952, "gan": 953, "uss": 954, "ool": 955, "Ġinter": 956, "cy": 957, "ah": 958, "Ġmin": 959, "roup": 960, "imes": 961, "Ġob": 962, "air": 963, "Ġtake": 964, "cess": 965, "Ġprodu": 966, "ef": 967, "ms": 968, "Ġstr": 969, "Ġconf": 970, "Ġinst": 971, "self": 972, "ures": 973, "Ġoffic": 974, "Ġsim": 975, "ank": 976, "alk": 977, "Ġdiffere": 978, "ner": 979, "Ġbetween": 980, "Ġ6": 981, "Ġthough": 982, "atch": 983, "Ġdisc": 984, "ollow": 985, "ever": 986, "led": 987, "way": 988, "Ġsign": 989, "Ġcol": 990, "Ġsame": 991, "any": 992, "Ġnum": 993, "Ġlaw": 994, "Ġhigh": 995, "io": 996, "Ġsomet": 997, "land": 998, "gg": 999, "Ġed": 1000, "ather": 1001, "Ġcr": 1002, "Ġter": 1003, "hes": 1004, "arch": 1005, "ution": 1006, "We": 1007, "Ġop": 1008, "Ġthree": 1009, "hip": 1010, "Ġhere": 1011, "read": 1012, "ouse": 1013, "ĠRe": 1014, "Ġaround": 1015, "ĠLe": 1016, "Ġreal": 1017, "ĠYou": 1018, "ave": 1019, "Ġser": 1020, "Ġfound": 1021, "ives": 1022, "Ġgovernment": 1023, "velop": 1024, "Ġrun": 1025, "Ġcour": 1026, "Ġsystem": 1027, "oot": 1028, "ames": 1029, "Ġref": 1030, "Ġpublic": 1031, "Ġ10": 1032, "ets": 1033, "Ġreally": 1034, "ci": 1035, "ĠAr": 1036, "Ġins": 1037, "riv": 1038, "ices": 1039, "cept": 1040, "cent": 1041, "Ġserv": 1042, "Ġtrans": 1043, "Ġmod": 1044, "Ġwom": 1045, "oh": 1046, "Ġexp": 1047, "cer": 1048, "az": 1049, "ĠAl": 1050, "Ġsupport": 1051, "pr": 1052, "Ġfam": 1053, "irect": 1054, "Ġfact": 1055, "Ġhand": 1056, "ĠCl": 1057, "ying": 1058, "Ġmed": 1059, "Ġmem": 1060, "ĠTrump": 1061, "ton": 1062, "con": 1063, "Ġused": 1064, "min": 1065, "ph": 1066, "Ġmonth": 1067, "Ġcar": 1068, "alth": 1069, "Ġexper": 1070, "Ġdet": 1071, "ins": 1072, "Ġgroup": 1073, "ale": 1074, "ense": 1075, "Ġboth": 1076, "Ġsl": 1077, "Ġhapp": 1078, "Ġcur": 1079, "Ġfind": 1080, "Ġspec": 1081, "Ġret": 1082, "ĠCom": 1083, "Ġgreat": 1084, "Ġread": 1085, "Ġrep": 1086, "Ġext": 1087, ".[": 1088, "Ġday": 1089, "ĠThey": 1090, "ivers": 1091, "ered": 1092, "Ġperson": 1093, "Ġcap": 1094, "Ġfr": 1095, "ages": 1096, "ex": 1097, "ision": 1098, "Ġtold": 1099, "__": 1100, "Ġaut": 1101, "Ġduring": 1102, "ĠAs": 1103, "Ġbig": 1104, "ular": 1105, "Ġ7": 1106, "akes": 1107, "Ġweek": 1108, "Ġfollow": 1109, "ĠIs": 1110, "ee": 1111, "Ġcent": 1112, "Ġdevelop": 1113, "ared": 1114, "Ġiss": 1115, "chool": 1116, "--": 1117, "ĠSh": 1118, "Ġwar": 1119, "Ġresp": 1120, "ines": 1121, "ved": 1122, "Ġopp": 1123, "ording": 1124, "med": 1125, "the": 1126, "ically": 1127, "ield": 1128, "Ġsince": 1129, "Ġfew": 1130, "Wh": 1131, "Ġcle": 1132, "Ġtoo": 1133, "Ġche": 1134, "Ġrequ": 1135, "Ġcre": 1136, "Ġlot": 1137, "rent": 1138, "Ġleg": 1139, "ash": 1140, "Ġexpl": 1141, "Ġcamp": 1142, "aj": 1143, "ĠIf": 1144, "Ġbelie": 1145, "Ġprot": 1146, "Ġsomething": 1147, "Ġ0": 1148, "Ġcontin": 1149, "get": 1150, "Ġcor": 1151, "ata": 1152, "Ġdifferent": 1153, "ention": 1154, "ness": 1155, "anc": 1156, "Ġpolit": 1157, "ĠDe": 1158, "Ġanother": 1159, "uc": 1160, "Ġgener": 1161, "Ġlife": 1162, "Ġput": 1163, "der": 1164, "Ġinf": 1165, "ik": 1166, "Ġhead": 1167, "Ġloc": 1168, "ody": 1169, "Ġ8": 1170, "Ġthings": 1171, "ross": 1172, "Ġinvest": 1173, "Ġpower": 1174, "Ġask": 1175, "bers": 1176, "ned": 1177, "Ġplan": 1178, "Ġrele": 1179, "ĠFr": 1180, "thing": 1181, "ox": 1182, "ving": 1183, "Ġfil": 1184, "ves": 1185, "ants": 1186, "Ġmight": 1187, "Ġposs": 1188, "Ġmet": 1189, "Ġnever": 1190, "ized": 1191, "This": 1192, "Ġdep": 1193, "ric": 1194, "Ġfar": 1195, "ute": 1196, "iet": 1197, "Ġvot": 1198, "Ġcome": 1199, "Ġpass": 1200, "ient": 1201, "arl": 1202, "arge": 1203, "ret": 1204, "Ġfeel": 1205, "Ġsecond": 1206, "erest": 1207, "Ġsoc": 1208, "Ġcommun": 1209, "att": 1210, "Ġadv": 1211, "Ġeach": 1212, "son": 1213, "Ġchild": 1214, "ience": 1215, "Ġgot": 1216, "Ġbus": 1217, "ĠSe": 1218, "Ġbest": 1219, "20": 1220, "Ġnext": 1221, "Ġart": 1222, "ĠUS": 1223, "Ġpost": 1224, "iness": 1225, "ired": 1226, "Ġseem": 1227, "Ġquest": 1228, "view": 1229, "Ġ.": 1230, "Ġ'": 1231, "ittle": 1232, "ling": 1233, "Ġdirect": 1234, "orn": 1235, "Ġhome": 1236, "ĠAn": 1237, "ple": 1238, "ize": 1239, "Ġmark": 1240, "rat": 1241, "Ġdist": 1242, "Ġopen": 1243, "ital": 1244, "ĠThat": 1245, "ug": 1246, "Ġ9": 1247, "osed": 1248, "ĠâĢĺ": 1249, "ten": 1250, "Ġallow": 1251, "Ġplace": 1252, "nce": 1253, "Ġdem": 1254, "ĠFor": 1255, "Ġel": 1256, "Ġmillion": 1257, "Ġwr": 1258, "Ġav": 1259, "ĠPro": 1260, "Ġhard": 1261, "Ġincluding": 1262, "chn": 1263, "ĠBl": 1264, "Ġtop": 1265, "ately": 1266, "Ġcare": 1267, "Ġimport": 1268, "aim": 1269, "Ġpercent": 1270, "Ġhum": 1271, "ways": 1272, "gram": 1273, "Ġinform": 1274, "Ġcontro": 1275, "riend": 1276, "Ġnumber": 1277, "Ġgl": 1278, "ĠRep": 1279, "ably": 1280, "Ġfour": 1281, "Ġtri": 1282, "Ġresult": 1283, "Ġcomple": 1284, "less": 1285, "Ġproble": 1286, "Ġbetter": 1287, "Ġturn": 1288, "Ġide": 1289, "10": 1290, "ral": 1291, "tt": 1292, "Ġbuild": 1293, "Ġappro": 1294, "uro": 1295, "app": 1296, "Ġlittle": 1297, "leg": 1298, "Ġbro": 1299, "ead": 1300, "Ġbeh": 1301, "Ġwithout": 1302, "Ġlet": 1303, "Ġmil": 1304, "Ġcountry": 1305, "But": 1306, "Ġrest": 1307, "Ġrecent": 1308, "Ġschool": 1309, "Ġincre": 1310, "ration": 1311, "conom": 1312, "ished": 1313, "Ġinterest": 1314, "Ġcase": 1315, "Ġseason": 1316, "oney": 1317, "Ġmov": 1318, "Ġless": 1319, "ering": 1320, "Ġmove": 1321, "cl": 1322, "Ġann": 1323, "Ġfun": 1324, "ode": 1325, "ĠZ": 1326, "Ġleft": 1327, "Ġattack": 1328, "ina": 1329, "me": 1330, "ama": 1331, "Ġstand": 1332, "Ġdr": 1333, "Ġkeep": 1334, "gy": 1335, "line": 1336, "Ġ=": 1337, "ised": 1338, "Ġpartic": 1339, "ract": 1340, "ature": 1341, "Ġcalled": 1342, "ency": 1343, "uck": 1344, "Ġfull": 1345, "ĠThere": 1346, "ĠInd": 1347, "co": 1348, "Ġdidn": 1349, "Ġusing": 1350, "Ġtest": 1351, "Ġmain": 1352, "Ġwomen": 1353, "âĢ¦": 1354, "Ġprev": 1355, "Ġwin": 1356, "'re": 1357, "Ġpop": 1358, "ohn": 1359, "Ġpolice": 1360, "He": 1361, "ains": 1362, "be": 1363, "Ġpay": 1364, "ology": 1365, "Ġform": 1366, "aign": 1367, "ided": 1368, "ott": 1369, "Ġeffect": 1370, "inal": 1371, "ajor": 1372, "Ġprogram": 1373, "iver": 1374, "iving": 1375, "Ġpos": 1376, "Ġchar": 1377, "Ġalways": 1378, "Ġnews": 1379, "Ġval": 1380, "Ġdata": 1381, "ready": 1382, "hor": 1383, "Ġcompany": 1384, "Ġbook": 1385, "ĠSo": 1386, "Ġprocess": 1387, "Ġcurrent": 1388, "Ġrece": 1389, "ird": 1390, "Ġeconom": 1391, "orth": 1392, "ined": 1393, "ĠAmerican": 1394, "Ġlist": 1395, "Ġsmall": 1396, "Ġlater": 1397, "ger": 1398, "iversity": 1399, "Ġeas": 1400, "Ġpresident": 1401, "Ġclass": 1402, "atter": 1403, "ĠShe": 1404, "used": 1405, "ĠCan": 1406, "Ġprom": 1407, "ruct": 1408, "Ġbre": 1409, "Ġcampaign": 1410, "Ġsol": 1411, "Ġchange": 1412, "ians": 1413, "Ġwhy": 1414, "Ġbo": 1415, "Ġclaim": 1416, "aff": 1417, "Ġpast": 1418, "Ġalready": 1419, "Ġfree": 1420, "Ġunt": 1421, "ards": 1422, "Ġthing": 1423, "Ġofficial": 1424, "Ġcity": 1425, "ney": 1426, "Ġtechn": 1427, "reen": 1428, "Ġview": 1429, "ĠGo": 1430, "Ġlevel": 1431, "Ġstory": 1432, "rap": 1433, "Ġsk": 1434, "wit": 1435, "iven": 1436, "Ġkill": 1437, "ĠPh": 1438, "Ġhealth": 1439, "...": 1440, "ases": 1441, "Ġprof": 1442, "Ġjob": 1443, "ission": 1444, "Ġmoney": 1445, "ĠHow": 1446, "Ġoper": 1447, "Ġest": 1448, "ural": 1449, "Ġrese": 1450, "ĠUnited": 1451, "to": 1452, "Ġtalk": 1453, "Ġable": 1454, "Ġhist": 1455, "Ġold": 1456, "Ġbusiness": 1457, "Ġexpect": 1458, "lection": 1459, "side": 1460, "ior": 1461, "Ġhappen": 1462, "Ġvis": 1463, "ploy": 1464, "Ġinformation": 1465, "Ġchang": 1466, "Ġproject": 1467, "sc": 1468, "stand": 1469, "Ġaway": 1470, "ption": 1471, "Ġpur": 1472, "ron": 1473, "ertain": 1474, "here": 1475, "Ġtell": 1476, "ĠBe": 1477, "Ġfamily": 1478, "Ġdoesn": 1479, "ley": 1480, "Ġorgan": 1481, "Ġstre": 1482, "Ġty": 1483, "outh": 1484, "Ġmust": 1485, "Ġmajor": 1486, "ted": 1487, "resident": 1488, "Ġmen": 1489, "Ġleast": 1490, "ides": 1491, "by": 1492, "Ġhop": 1493, "Ġmar": 1494, "Ġenough": 1495, "Ġimportant": 1496, "Ġconst": 1497, "ury": 1498, "ĠAd": 1499, "Ġmaking": 1500, "Ġ18": 1501, "Ġdays": 1502, "Ġsit": 1503, "Ġ--": 1504, "Ġkind": 1505, "urity": 1506, "ained": 1507, "Ġrecord": 1508, "ider": 1509, "Ġpat": 1510, "ĠJohn": 1511, "ĠOb": 1512, "Ġfriend": 1513, "Ġcost": 1514, "Ġ12": 1515, "ĠQ": 1516, "50": 1517, "ured": 1518, "Ġdeal": 1519, "gu": 1520, "Ġaff": 1521, "Ġcame": 1522, "ending": 1523, "Ġdel": 1524, "ern": 1525, "ample": 1526, "ified": 1527, "Ġline": 1528, "pped": 1529, "eral": 1530, "acy": 1531, "ality": 1532, "Ġla": 1533, "els": 1534, "Ġes": 1535, "Ġworking": 1536, "Ġgrow": 1537, "Ġvar": 1538, "ĠRuss": 1539, "ising": 1540, "ror": 1541, "ister": 1542, "ann": 1543, "augh": 1544, "Ġdesign": 1545, "Ġpolic": 1546, "arent": 1547, "ccess": 1548, "Ġformer": 1549, "St": 1550, "ries": 1551, "ĠSp": 1552, "Ġuntil": 1553, "Ġtax": 1554, "Ġdev": 1555, "ived": 1556, "ush": 1557, "Ġlarge": 1558, "ional": 1559, "Ġfore": 1560, "Ġve": 1561, "ony": 1562, "Ġtook": 1563, "rist": 1564, "work": 1565, "Ġmean": 1566, "aps": 1567, "ĠEuro": 1568, "Ġvide": 1569, "Ġbecome": 1570, "Ġelect": 1571, "Ġedit": 1572, "As": 1573, "Ġgive": 1574, "alf": 1575, "Ġoften": 1576, "Ġwon": 1577, "ember": 1578, "iol": 1579, "br": 1580, "ocrat": 1581, "If": 1582, "Ġ199": 1583, "Ġfund": 1584, "Ġactually": 1585, "bs": 1586, "Ġintern": 1587, "Ġaccording": 1588, "Ġfac": 1589, "ĠComm": 1590, "aring": 1591, "oad": 1592, "ĠRepublic": 1593, "Ġever": 1594, "Ġpolitical": 1595, "ĠMc": 1596, "aining": 1597, "ator": 1598, "ĠÐ": 1599, "ison": 1600, "Ġbas": 1601, "ats": 1602, "ĠMay": 1603, "oint": 1604, "iqu": 1605, "Ġhuman": 1606, "most": 1607, "Ġra": 1608, "Ġwater": 1609, "wh": 1610, "Ġwhether": 1611, "Ġair": 1612, "ched": 1613, "Ġsever": 1614, "ĠMar": 1615, "ither": 1616, "ĠSy": 1617, "year": 1618, "Ġplayers": 1619, "ware": 1620, "Ġequ": 1621, "Ġpress": 1622, "Ġchildren": 1623, "Ġname": 1624, "artment": 1625, "ĠPl": 1626, "idd": 1627, "iber": 1628, "ĠSc": 1629, "mber": 1630, "Ġshort": 1631, "ĠMr": 1632, "There": 1633, "ĠAll": 1634, "ĠDem": 1635, "arn": 1636, "ane": 1637, "ĠPresident": 1638, "Ġearly": 1639, "Ġnight": 1640, "Ġtimes": 1641, "Ġcharac": 1642, "Ġdeb": 1643, "Ġhaving": 1644, "ĠYork": 1645, "Ġprop": 1646, "ER": 1647, "Ġgames": 1648, "Ġorder": 1649, "Ġword": 1650, "ĠOr": 1651, "idence": 1652, "Ġmedia": 1653, "vert": 1654, "ands": 1655, "aken": 1656, "icle": 1657, "Ġreturn": 1658, "gin": 1659, "ĠCol": 1660, "Ġdri": 1661, "ended": 1662, "Ġ11": 1663, "Ġfive": 1664, "Ġseveral": 1665, "eng": 1666, "Ġdoing": 1667, "Ġbit": 1668, "Ġsing": 1669, "let": 1670, "inc": 1671, "iously": 1672, "ĠAt": 1673, "Ġmeet": 1674, "sh": 1675, "Ġyoung": 1676, "uture": 1677, "Ġmonths": 1678, "Ġmarket": 1679, "ourn": 1680, "Ġperform": 1681, "ortun": 1682, "raft": 1683, "ĠCon": 1684, "Ġalong": 1685, "rop": 1686, "for": 1687, "Ġmilit": 1688, "Ġcrit": 1689, "ĠBr": 1690, "Ġinvol": 1691, "ories": 1692, "Ġcourse": 1693, "Ġdone": 1694, "Ġfight": 1695, "Ġsure": 1696, "Ġappear": 1697, "Ġseen": 1698, "ization": 1699, "Ġevent": 1700, "Ġsocial": 1701, "ĠEurope": 1702, "book": 1703, "Ġsex": 1704, "Ġtoday": 1705, "Ġhour": 1706, "ially": 1707, "Ġcertain": 1708, "Ġwent": 1709, "Ġant": 1710, "ĠState": 1711, "iting": 1712, "Ġpot": 1713, "iam": 1714, "Ġside": 1715, "Ġquestion": 1716, "Ġlikely": 1717, "uff": 1718, "enn": 1719, "ague": 1720, "Ġcontrol": 1721, "Ġben": 1722, "Ġdesc": 1723, "Ġ2016": 1724, "imate": 1725, "Ġ15": 1726, "ential": 1727, "ald": 1728, "ots": 1729, "Ġsuccess": 1730, "Ġonce": 1731, "Ġavail": 1732, "ium": 1733, "You": 1734, "une": 1735, "ball": 1736, "Ġpossible": 1737, "Ġcho": 1738, "Ġactiv": 1739, "Ġasked": 1740, "Ġ/": 1741, "Ġinvestig": 1742, "ĠStates": 1743, "empt": 1744, "Ġexample": 1745, "ubl": 1746, "nect": 1747, "Ġyet": 1748, "Ġpriv": 1749, "Ġocc": 1750, "And": 1751, "Ġconcer": 1752, "Ġvers": 1753, "Ġmembers": 1754, "Ġviol": 1755, "ggest": 1756, "11": 1757, "Ġproduct": 1758, "orld": 1759, "gress": 1760, "Ġprotect": 1761, "Ġamong": 1762, "urs": 1763, "Ġproblem": 1764, "Ġlocal": 1765, "Ġ,": 1766, "rew": 1767, "ails": 1768, "Ġthought": 1769, "Ġhold": 1770, "Ġlight": 1771, "ler": 1772, "ivid": 1773, "Ġgiven": 1774, "lf": 1775, "Ġprob": 1776, "ued": 1777, "Ġannoun": 1778, "Ġmakes": 1779, "ĠWhen": 1780, "Ġsuggest": 1781, "Ġreason": 1782, "Ã©": 1783, "ober": 1784, "Ġeng": 1785, "Ġpar": 1786, "Ġauthor": 1787, "ĠOn": 1788, "Ġunderstand": 1789, "Ġfuture": 1790, "ones": 1791, "ster": 1792, "'ve": 1793, "Ġmeans": 1794, "verage": 1795, "Ġknown": 1796, "Ġwithin": 1797, "Ġacross": 1798, "Ġlove": 1799, "ensive": 1800, "ĠUniversity": 1801, "por": 1802, "Ġwrit": 1803, "af": 1804, "Ġstrong": 1805, "Ġclose": 1806, "ulation": 1807, "itive": 1808, "Ġphot": 1809, "Ġsent": 1810, "Ġnon": 1811, "ĠNo": 1812, "lement": 1813, "Ġcond": 1814, "inton": 1815, "ĠHouse": 1816, "Ġ]": 1817, "19": 1818, "Ġlim": 1819, "12": 1820, "ĠMin": 1821, "Ġ2015": 1822, "Ġbelieve": 1823, "ĠObama": 1824, "Ġorig": 1825, "oci": 1826, "itions": 1827, "ĠTe": 1828, "Ġcommunity": 1829, "Ġothers": 1830, "ai": 1831, "Ġavailable": 1832, ".,": 1833, "ederal": 1834, "aged": 1835, "back": 1836, "ource": 1837, "Ġcut": 1838, "Ġreported": 1839, "Ġstarted": 1840, "**": 1841, "ored": 1842, "Ġsaf": 1843, "not": 1844, "Ġvideo": 1845, "my": 1846, "Ġbased": 1847, "uly": 1848, "orts": 1849, "Ġgetting": 1850, "Ġclear": 1851, "urther": 1852, "cher": 1853, "Ġindust": 1854, "Ġident": 1855, "ĠDemocrat": 1856, "Ġcreat": 1857, "of": 1858, "ĠX": 1859, "Ġtrying": 1860, "Ġlow": 1861, "ĠCo": 1862, "arr": 1863, "Ġmom": 1864, "Ġidea": 1865, "AT": 1866, "Ġfollowing": 1867, "aster": 1868, "Ġago": 1869, "Ġland": 1870, "ances": 1871, "ief": 1872, "Ġfail": 1873, "'m": 1874, "Ġdeath": 1875, "ĠCanad": 1876, "ene": 1877, "ashing": 1878, "Ġexperience": 1879, "iety": 1880, "Ġ30": 1881, "Ġnet": 1882, "rict": 1883, "ged": 1884, "Ġi": 1885, "Ġhig": 1886, "Ġcomes": 1887, "resent": 1888, "Ġfoc": 1889, "utes": 1890, "iron": 1891, "reed": 1892, "Ġparty": 1893, "eb": 1894, "For": 1895, "ĠChrist": 1896, "Ġsix": 1897, "Ġseries": 1898, "ming": 1899, "Ġalmost": 1900, "ĠCent": 1901, "ograp": 1902, "Ġ16": 1903, "ream": 1904, "Ġnational": 1905, "rug": 1906, "Ġissue": 1907, "itional": 1908, "Ġvict": 1909, "selves": 1910, "Ġsaying": 1911, "use": 1912, "What": 1913, "ĠWhat": 1914, "Ġlooking": 1915, "minist": 1916, "Ġanything": 1917, "Ġz": 1918, "Ġanal": 1919, "Ġisn": 1920, "though": 1921, "Ġrul": 1922, "Ġaccess": 1923, "Ġaccount": 1924, "Ġ&": 1925, "ĠAm": 1926, "____": 1927, "ocu": 1928, "rest": 1929, "Ġadded": 1930, "witter": 1931, "ĠSen": 1932, "ination": 1933, "Ġindivid": 1934, "30": 1935, "Ġcompet": 1936, "ĠFl": 1937, "Ġdiscuss": 1938, "Ġhalf": 1939, "ote": 1940, "Ġservice": 1941, "ĠEx": 1942, "RE": 1943, "Ġca": 1944, "Ġmor": 1945, "Ġlive": 1946, "Ġjo": 1947, "ĠClinton": 1948, "Ġhistory": 1949, "Ġer": 1950, "Ġbehind": 1951, "Ġpresent": 1952, "Ġmus": 1953, "osp": 1954, "ilar": 1955, "pro": 1956, "Ġmiss": 1957, "ability": 1958, "Ġproper": 1959, "cially": 1960, "wards": 1961, "ĠPr": 1962, "Ġnear": 1963, "ĠOne": 1964, "Ġtaken": 1965, "Ġbad": 1966, "Ġtoget": 1967, "Ġtogether": 1968, "erence": 1969, "Ġcomplete": 1970, "Ġcourt": 1971, "Ġquick": 1972, "Ġfav": 1973, "ĠBro": 1974, "Ġris": 1975, "ien": 1976, "ert": 1977, "Ġsecurity": 1978, "Ġimpro": 1979, "Ġentire": 1980, "Ġemploy": 1981, "aid": 1982, "IN": 1983, "aper": 1984, "Ġfoot": 1985, "Ġtrad": 1986, "ev": 1987, "ps": 1988, "Ġpract": 1989, "ĠSec": 1990, "ustom": 1991, "ify": 1992, "Ġtry": 1993, "Ġfall": 1994, "Ġtre": 1995, "Ġthreat": 1996, "ĠAmerica": 1997, "Ġcomb": 1998, "play": 1999, "Ġmilitary": 2000, "ĠCal": 2001, "Ġindividual": 2002, "ators": 2003, "ĠDon": 2004, "ĠGr": 2005, "uge": 2006, "Ġmess": 2007, "unch": 2008, "ĠPol": 2009, "Ġfront": 2010, "Ġmult": 2011, "AN": 2012, "Ġarea": 2013, "raw": 2014, "Ġ14": 2015, "ĠNorth": 2016, "off": 2017, "ĠAust": 2018, "Ġtot": 2019, "Ġsum": 2020, "par": 2021, "Ġcoun": 2022, "Ġpubl": 2023, "âĢĵ": 2024, "Ġplayer": 2025, "Ġbill": 2026, "ĠTo": 2027, "erman": 2028, "Ġsus": 2029, "ĠEng": 2030, "lling": 2031, "Ġpoints": 2032, "Ġbring": 2033, "atic": 2034, "Ġsomeone": 2035, "Ġtaking": 2036, "yn": 2037, "ows": 2038, "On": 2039, "Ġface": 2040, "Ġrather": 2041, "Ġpolicy": 2042, "ĠIm": 2043, "ĠCity": 2044, "Ġsingle": 2045, "Ġcompan": 2046, "arm": 2047, "Ġstudents": 2048, "Ġbody": 2049, "An": 2050, "Ġelse": 2051, "15": 2052, "Ġ2014": 2053, "Ġprobably": 2054, "ches": 2055, "arter": 2056, "Ġcand": 2057, "Ġattempt": 2058, "Ġdecision": 2059, "irc": 2060, "Ġsw": 2061, "Ġcompl": 2062, "Ġfilm": 2063, "ĠNational": 2064, "ĠDep": 2065, "ĠWorld": 2066, "irl": 2067, "rael": 2068, "Ġspecial": 2069, "Ad": 2070, "Ġpret": 2071, "When": 2072, "mb": 2073, "Ġsal": 2074, "Ġleaders": 2075, "Ġfeat": 2076, "reme": 2077, "Ġeither": 2078, "sw": 2079, "amed": 2080, "ids": 2081, "Ġcult": 2082, "Ġstudy": 2083, "ply": 2084, "Ġwanted": 2085, "acebook": 2086, "Ġmind": 2087, ".)": 2088, "Ġnothing": 2089, "Ġmeas": 2090, "Ġfig": 2091, "oon": 2092, "Ġey": 2093, "16": 2094, "Ġdescrib": 2095, "rote": 2096, "//": 2097, "go": 2098, "That": 2099, "pping": 2100, "ault": 2101, "aces": 2102, "Ġconnect": 2103, "Ġcou": 2104, "Ġhouse": 2105, "Ġcoming": 2106, "Ġdocu": 2107, "ully": 2108, "Ġhowever": 2109, "Ġconv": 2110, "Ġrights": 2111, "ĠMan": 2112, "Ġkey": 2113, "ively": 2114, "ĠÂ": 2115, "ĠBrit": 2116, "Ġfield": 2117, "ĠWar": 2118, "Ġresearch": 2119, "Ð°": 2120, "Ġchall": 2121, "ON": 2122, "ĠJan": 2123, "ĠEn": 2124, "Ġimm": 2125, "Ġfood": 2126, "Ġsignific": 2127, "Ġargu": 2128, "Ġredu": 2129, "icult": 2130, "Ġissues": 2131, "nes": 2132, "Ġrelations": 2133, "Ġwa": 2134, "over": 2135, "olution": 2136, "ĠDav": 2137, "ently": 2138, "Ġbenef": 2139, "ibility": 2140, "sy": 2141, "viron": 2142, "cing": 2143, "\":": 2144, "ried": 2145, "ring": 2146, "Ġofficials": 2147, "Ġstep": 2148, "elt": 2149, "Ġseems": 2150, "Ġroom": 2151, "Ġcompanies": 2152, "ung": 2153, "Ġmass": 2154, "eal": 2155, "ĠAf": 2156, "Ġdam": 2157, "ĠEd": 2158, "Ġblack": 2159, "ashington": 2160, "Ġeverything": 2161, "aut": 2162, "uation": 2163, "Ġtra": 2164, "Ġrole": 2165, "Ġwrote": 2166, "Ġhit": 2167, "pecially": 2168, "Ġenc": 2169, "ĠWith": 2170, "BC": 2171, "Ġjud": 2172, "asing": 2173, "Ġdrug": 2174, "Ġspace": 2175, "ades": 2176, "Ġsimilar": 2177, "ĠGu": 2178, "ources": 2179, "head": 2180, "Ġopt": 2181, "Ġ2013": 2182, "14": 2183, "Ġtarg": 2184, "itted": 2185, "Ġ#": 2186, "Ġfurther": 2187, "Ġoutside": 2188, "ĠAss": 2189, "umb": 2190, "iday": 2191, "Ġbreak": 2192, "Ġinterview": 2193, "Ġbegin": 2194, "Ġcharacter": 2195, "'ll": 2196, "rodu": 2197, "Ġstop": 2198, "Ġprovide": 2199, "ana": 2200, "Ġstatement": 2201, "So": 2202, "ĠApp": 2203, "Ġstat": 2204, "Ġ17": 2205, "Ġwhole": 2206, "Ġoffice": 2207, "pite": 2208, "like": 2209, "ivil": 2210, "Ġbegan": 2211, "Ġthird": 2212, "Ġexist": 2213, "Ġreleased": 2214, "Ġcop": 2215, "amer": 2216, "ĠIntern": 2217, "sec": 2218, "://": 2219, "Ġwatch": 2220, "Ġexec": 2221, "ĠHowever": 2222, "Ġfire": 2223, "Ġinit": 2224, "Ch": 2225, "Ġ2017": 2226, "Ġ13": 2227, "ĠIsrael": 2228, "ĠInst": 2229, "Ġban": 2230, "Ġfinal": 2231, "Ġwoman": 2232, "Ġtrue": 2233, "Ġsuper": 2234, "aced": 2235, "Ġrepl": 2236, "Ġdevelopment": 2237, "Ġ100": 2238, "Ð¾": 2239, "Ġneg": 2240, "Ġposition": 2241, "Ġfederal": 2242, "Ġdue": 2243, "Ġ2012": 2244, "Ġstates": 2245, "Ġhours": 2246, "Ġabove": 2247, "ran": 2248, "Ġrespons": 2249, "Ġphys": 2250, "Ġevidence": 2251, "ournal": 2252, "ĠSu": 2253, "ograph": 2254, "Ġlab": 2255, "Ġcandid": 2256, "ĠPart": 2257, "now": 2258, "lu": 2259, "Ġadminist": 2260, "bo": 2261, "ĠJust": 2262, "Ġ25": 2263, "reg": 2264, "ape": 2265, "ĠGe": 2266, "Ġcustom": 2267, "Ġbecame": 2268, "Ġground": 2269, "Ġself": 2270, "Ġcountries": 2271, "ĠWashington": 2272, "Ġcreate": 2273, "Ġpick": 2274, "Ġmatter": 2275, "Ġhimself": 2276, "ĠBar": 2277, "Ġshows": 2278, "eks": 2279, "Ġamount": 2280, "Ġep": 2281, "Ġrepresent": 2282, "Ġsound": 2283, "Ġspecific": 2284, "Ġaction": 2285, "ilt": 2286, "Ġaddress": 2287, "Ġprofess": 2288, "ĠSouth": 2289, "arlier": 2290, "Ġtreat": 2291, "Ġdi": 2292, "Ġalleg": 2293, "Ġ198": 2294, "Ġmot": 2295, "lam": 2296, "isc": 2297, "attle": 2298, "Ġsignificant": 2299, "Ġservices": 2300, "Ġexc": 2301, "oid": 2302, "Ġwasn": 2303, "Ġinclude": 2304, "Ġthemselves": 2305, "Ġcontinue": 2306, "IS": 2307, "Ġdou": 2308, "lim": 2309, "----": 2310, "ery": 2311, "lish": 2312, "Ġabs": 2313, "cil": 2314, "iod": 2315, "Ġgen": 2316, "Ġstri": 2317, "Ġdom": 2318, "Ġbuilding": 2319, "Ġred": 2320, "ĠOct": 2321, "ogn": 2322, "Ġrunning": 2323, "Ġener": 2324, "angu": 2325, "Ġitself": 2326, "vironment": 2327, "oph": 2328, "Ġbelow": 2329, "Ġgun": 2330, "Ġdeter": 2331, "ribut": 2332, "Ġsimply": 2333, "Ġplayed": 2334, "Ġhost": 2335, "urch": 2336, "arth": 2337, "Ġtyp": 2338, "Ġpretty": 2339, "iddle": 2340, "Ġrelease": 2341, "Ġindustry": 2342, "Ġlarg": 2343, "Ġgeneral": 2344, "right": 2345, "Ġversion": 2346, "13": 2347, "Ġdeep": 2348, "che": 2349, "Ġdifficult": 2350, "obal": 2351, "LE": 2352, "Ġ50": 2353, "ask": 2354, "Ġagree": 2355, "omm": 2356, "Ġplaying": 2357, "Ġhom": 2358, "bor": 2359, "atur": 2360, "ĠChina": 2361, "ogle": 2362, "Ġneeds": 2363, "Ġtem": 2364, "Ġfriends": 2365, "Ġball": 2366, "Ġneeded": 2367, "Ġforward": 2368, "Ġ<": 2369, "Ġsense": 2370, "AS": 2371, "where": 2372, "Ġpri": 2373, "Ġeveryone": 2374, "Ġ)": 2375, "Ġespecially": 2376, "Ġcharg": 2377, "How": 2378, "aul": 2379, "Ġrecently": 2380, "ique": 2381, "Ġweeks": 2382, "Ġopportun": 2383, "Ġlate": 2384, "Ġsaw": 2385, "Ġdest": 2386, "ift": 2387, "Ġeduc": 2388, "Ġcred": 2389, "ender": 2390, "Ġlegal": 2391, "AR": 2392, "Ġpain": 2393, "Ġmag": 2394, "Ġaccept": 2395, "Ġgroups": 2396, "ĠRes": 2397, "Ġquite": 2398, "itting": 2399, "ager": 2400, "onse": 2401, "lev": 2402, "ĠTwitter": 2403, "ccording": 2404, "Ġelection": 2405, "epend": 2406, "Ġinj": 2407, "ĠNews": 2408, "ĠAM": 2409, "Ġtrack": 2410, "uary": 2411, "Ġap": 2412, "ĠSyri": 2413, "icro": 2414, "ental": 2415, "17": 2416, "Ġcheck": 2417, "oe": 2418, "ĠAfter": 2419, "Ġple": 2420, "urd": 2421, "Ġsoon": 2422, "Ġbar": 2423, "Ġcommon": 2424, "18": 2425, "Ġsold": 2426, "Ġwrong": 2427, "su": 2428, "Ġlost": 2429, "ww": 2430, "ĠSept": 2431, "Ġsubject": 2432, "ĠHis": 2433, "istic": 2434, "Ġobject": 2435, "Ġanim": 2436, "ĠMed": 2437, "Ġdead": 2438, "ĠFacebook": 2439, "Ġhope": 2440, "hod": 2441, "ĠWest": 2442, "ĠDepartment": 2443, "ĠCour": 2444, "Ġblock": 2445, "Ġonline": 2446, "Ġlo": 2447, "osing": 2448, "oke": 2449, "ĠWhite": 2450, "medi": 2451, "Ġce": 2452, "Ġbillion": 2453, "Ġenergy": 2454, "Ġparent": 2455, "irt": 2456, "Ġtechnology": 2457, "Ġmoment": 2458, "Ġapplic": 2459, "Ġled": 2460, "oto": 2461, "Ġperiod": 2462, "Ġsuff": 2463, "ĠWill": 2464, "Ġrad": 2465, "Ġstay": 2466, "Ġheld": 2467, "Ġchanges": 2468, "Ġtal": 2469, "ole": 2470, "Ġrelig": 2471, "Ġpersonal": 2472, "ris": 2473, "cial": 2474, "Ġmusic": 2475, "Ġstaff": 2476, "time": 2477, "ili": 2478, "Ph": 2479, "Ġvalue": 2480, "irm": 2481, "Ġshare": 2482, "Ġmat": 2483, "Ġ24": 2484, "ĠMe": 2485, "ĠGerman": 2486, "Ġwhite": 2487, "Ġfocus": 2488, "itution": 2489, "Ġvote": 2490, "Ġprim": 2491, "ners": 2492, "Ġansw": 2493, "Ġcirc": 2494, "ached": 2495, "Ġinstead": 2496, "Ġconsider": 2497, "ĠMich": 2498, "Ġpred": 2499, "Ġreve": 2500, "Ġsite": 2501, "Ġrespect": 2502, "eed": 2503, "overed": 2504, "ĠAb": 2505, "25": 2506, "ĠJuly": 2507, "Ġhigher": 2508, "ĠAustral": 2509, "fect": 2510, "Ġresults": 2511, "Ġrev": 2512, "ĠMarch": 2513, "Ġeconomic": 2514, "pril": 2515, "Ġlear": 2516, "ĠRepublican": 2517, "Ġstru": 2518, "duct": 2519, "Ġworks": 2520, "Ġkilled": 2521, "Ġpotential": 2522, "Ġdecl": 2523, "iding": 2524, "Ġcomput": 2525, "ills": 2526, "ĠSm": 2527, "Ġshoot": 2528, "Ġlonger": 2529, "asons": 2530, "Ġprivate": 2531, "ĠDr": 2532, "Ġmother": 2533, "ude": 2534, "Ġupd": 2535, "Ġnecess": 2536, "Ġanyone": 2537, "Ġtotal": 2538, "aging": 2539, "illed": 2540, "ights": 2541, "Ġannounced": 2542, "ij": 2543, "ĠAug": 2544, "Ġ:": 2545, "rain": 2546, "ĠHar": 2547, "Ġregul": 2548, "ĠCar": 2549, "Ġresponse": 2550, "Ġexpress": 2551, "ĠCong": 2552, "Ġwords": 2553, "fer": 2554, "Ġden": 2555, "key": 2556, "They": 2557, "ĠMy": 2558, "ĠMus": 2559, "ival": 2560, "ĠRussia": 2561, "Ġsurpr": 2562, "Ġtit": 2563, "ript": 2564, "Ġpie": 2565, "Ġpack": 2566, "Ġrisk": 2567, "haps": 2568, "Ġ2011": 2569, "ees": 2570, "okes": 2571, "ule": 2572, "Ġcapt": 2573, "Ġoffer": 2574, "lege": 2575, "ancial": 2576, "unt": 2577, "onday": 2578, "Ġconsum": 2579, "ĠJune": 2580, "reet": 2581, "Ġreceived": 2582, "Ġbase": 2583, "lt": 2584, "ĠThese": 2585, "put": 2586, "oring": 2587, "Ġcases": 2588, "Ġeasy": 2589, "Ġcontract": 2590, "ilities": 2591, "iter": 2592, "cast": 2593, "Ġwind": 2594, "Ġconcern": 2595, "Ġscient": 2596, "ĠPe": 2597, "Ġways": 2598, "Ġsen": 2599, "Ġproblems": 2600, "anger": 2601, "Ġshot": 2602, "Ġfunction": 2603, "Ġclub": 2604, "Ġarticle": 2605, "aving": 2606, "hood": 2607, "ams": 2608, "Ġquestions": 2609, "Ġrelationship": 2610, "Ġterror": 2611, "Ġ{": 2612, "Ġexact": 2613, "lear": 2614, "ples": 2615, "Ġearlier": 2616, "ateg": 2617, "ires": 2618, "Ġanti": 2619, "OR": 2620, "Ġexecut": 2621, "Ġcomment": 2622, "ĠPal": 2623, "Ġlangu": 2624, "ĠGoogle": 2625, "Ġleave": 2626, "ĠNot": 2627, "Ġwebs": 2628, "Ġminutes": 2629, "At": 2630, "ients": 2631, "Ġrespond": 2632, "iple": 2633, "aterial": 2634, "eter": 2635, "Ġfavor": 2636, "Ġport": 2637, "ĠApril": 2638, "Ġinside": 2639, "ends": 2640, "vertise": 2641, "Ġhy": 2642, "Ġgoal": 2643, "mit": 2644, "ging": 2645, "Ġdiv": 2646, "Ġphone": 2647, "hern": 2648, "Ġexpected": 2649, "ĠMonday": 2650, "Ġur": 2651, "Ġenvironment": 2652, "Ġvol": 2653, "yle": 2654, "Ġreview": 2655, "Ġwalk": 2656, "body": 2657, "Ġaud": 2658, "onst": 2659, "Ġoil": 2660, "Ðµ": 2661, "ĠSte": 2662, "Ġpopular": 2663, "Ġroad": 2664, "Ġcivil": 2665, "ĠFriday": 2666, "atural": 2667, "Ġfans": 2668, "Ġinvolved": 2669, "Ġability": 2670, "Ġage": 2671, "ĠAct": 2672, "isl": 2673, "Ġnearly": 2674, "Ġcode": 2675, "ech": 2676, "Al": 2677, "ham": 2678, "Ġheart": 2679, "ittee": 2680, "ĠCongress": 2681, "ĠSch": 2682, "Ġsource": 2683, "Ġchance": 2684, "Ġcreated": 2685, "Ġoriginal": 2686, "Ġ2010": 2687, "ĠNove": 2688, "hel": 2689, "Ġbecom": 2690, "Ġnation": 2691, "Ġdirector": 2692, "uel": 2693, "Ġgirl": 2694, "Ġspeak": 2695, "ĠDavid": 2696, "Ġworked": 2697, "Ġbroad": 2698, "ological": 2699, "uesday": 2700, "ĠCalif": 2701, "To": 2702, "Ġtarget": 2703, "itiz": 2704, "Ġimpact": 2705, "EN": 2706, "Ġcurrently": 2707, "Ġaverage": 2708, "ĠRed": 2709, "Ġprice": 2710, "ĠJanuary": 2711, "ĠCount": 2712, "ĠEm": 2713, "Ġevents": 2714, "apan": 2715, "Ġworth": 2716, "Ġdefin": 2717, "ED": 2718, "Ġapproach": 2719, "bit": 2720, "Ġfather": 2721, "Ġcal": 2722, "oor": 2723, "Ġlack": 2724, "ino": 2725, "action": 2726, "Ġsqu": 2727, "rem": 2728, "Ġestab": 2729, "ought": 2730, "clus": 2731, "rel": 2732, "Ġvictim": 2733, "Ġ197": 2734, "lex": 2735, "Ġforce": 2736, "ĠCourt": 2737, "Ġgave": 2738, "uth": 2739, "Ġtakes": 2740, "Ġlat": 2741, "omb": 2742, "Ġpublished": 2743, "Ġplans": 2744, "Ġcell": 2745, "lled": 2746, "ellig": 2747, "Ġimmedi": 2748, "Ġrequest": 2749, "Ġlog": 2750, "Ġmeeting": 2751, "ĠSan": 2752, "Ġsoft": 2753, "Ġhappened": 2754, "Ġrate": 2755, "Ġmodel": 2756, "Ġliving": 2757, "Ġlives": 2758, "Ġtou": 2759, "ĠWed": 2760, "Ġdecided": 2761, "40": 2762, "joy": 2763, "Ġreports": 2764, "ĠSome": 2765, "ĠGod": 2766, "Ġsituation": 2767, "oved": 2768, "Ġrequire": 2769, "Ġcontent": 2770, "ctor": 2771, "Ġterms": 2772, "Ġweap": 2773, "?âĢĿ": 2774, "Ġpict": 2775, "Ġmid": 2776, "Ġcannot": 2777, "Ġforeign": 2778, "ĠDo": 2779, "ĠSund": 2780, "ĠTuesday": 2781, "osition": 2782, "rought": 2783, "Ġarrest": 2784, "atives": 2785, "ĠEl": 2786, "Ġinternational": 2787, "itten": 2788, "Ġste": 2789, "ĠCanada": 2790, "Ġincrease": 2791, "ĠGl": 2792, "Ġmember": 2793, "fully": 2794, "Ġturned": 2795, "Ġinflu": 2796, "Ġgoes": 2797, "ael": 2798, "\".": 2799, "Ġet": 2800, "Ġcoll": 2801, "field": 2802, "ext": 2803, "Ġwhose": 2804, "Ġrace": 2805, "Ġcareer": 2806, "ĠOff": 2807, "ĠGeor": 2808, "na": 2809, "Ġquickly": 2810, "ĠWhile": 2811, "ĠAmericans": 2812, "ctions": 2813, "based": 2814, "Ġtrade": 2815, "Ġfem": 2816, "Ġvia": 2817, "Ġboard": 2818, "ĠTV": 2819, "bl": 2820, "Ġpull": 2821, "Ġnetwork": 2822, "Ġbuy": 2823, "60": 2824, "ips": 2825, "Ġemer": 2826, "Ġobs": 2827, "Ġ|": 2828, "orters": 2829, "ession": 2830, "Ġfinancial": 2831, "ises": 2832, "Ġdig": 2833, "estern": 2834, "ops": 2835, "Ġspent": 2836, "order": 2837, "Ġusers": 2838, "ĠSeptember": 2839, "ornia": 2840, "Ġmethod": 2841, "ĠIslam": 2842, "Ġneigh": 2843, "Ġglobal": 2844, "ST": 2845, "ĠPer": 2846, "dd": 2847, "Ġemail": 2848, "ursday": 2849, "izing": 2850, "ĠAng": 2851, "Ġteams": 2852, "rown": 2853, "ĠFeb": 2854, "ese": 2855, "ened": 2856, "Ġhon": 2857, "raz": 2858, "Ġmaterial": 2859, "ruction": 2860, "Ġtype": 2861, "Ġaffect": 2862, "ites": 2863, "Ġord": 2864, "ĠEuropean": 2865, "ety": 2866, "Ġcouple": 2867, "Ġadministration": 2868, "ĠNovember": 2869, "Ġfre": 2870, "ĠNow": 2871, "Ġintrodu": 2872, "icated": 2873, "Ġnumbers": 2874, "Ġregard": 2875, "uses": 2876, "Ġhands": 2877, "ĠBy": 2878, "nesday": 2879, "iers": 2880, "Ġstore": 2881, "ĠCor": 2882, "Ġassoci": 2883, "Ġvisit": 2884, "ett": 2885, "Ġprep": 2886, "Ġleader": 2887, "atory": 2888, "âĢĿ.": 2889, "Ġsecret": 2890, "Ġrecogn": 2891, "ĠOctober": 2892, "One": 2893, "200": 2894, "Ġpers": 2895, "ĠKore": 2896, "Ġ40": 2897, "aur": 2898, "Ġsimple": 2899, "Ġhuge": 2900, "val": 2901, "ĠJapan": 2902, "ky": 2903, "Ġareas": 2904, "Ġnorm": 2905, "Ġtown": 2906, "Ġthous": 2907, "Ġsn": 2908, "Ġill": 2909, "Ġincluded": 2910, "ĠSunday": 2911, "Ġtravel": 2912, "Ġcollect": 2913, "chie": 2914, "Ġbi": 2915, "ĠThursday": 2916, "ĠHill": 2917, "Ġperfect": 2918, "Ġgets": 2919, "ĠAugust": 2920, "ĠAg": 2921, "Ġworkers": 2922, "Ġstruct": 2923, "ĠRussian": 2924, "ishing": 2925, "Ġmatch": 2926, "ha": 2927, "ĠCalifornia": 2928, "Ġcover": 2929, "cember": 2930, "Ġlooks": 2931, "Ġboy": 2932, "Ġreveal": 2933, "Ġknew": 2934, "ĠWednesday": 2935, "Ġ21": 2936, "agement": 2937, "ray": 2938, "Ġ}": 2939, "ĠUK": 2940, "Ġwants": 2941, "Ġcy": 2942, "Ġvo": 2943, "Ġbehav": 2944, "aily": 2945, "Ġtool": 2946, "face": 2947, "gest": 2948, "imin": 2949, "ences": 2950, "Ġenjoy": 2951, "Ġloss": 2952, "Ġpage": 2953, "Ġcapital": 2954, "Ġmis": 2955, "Ġbud": 2956, "Ġeconomy": 2957, "Ġlower": 2958, "Ġheard": 2959, "mon": 2960, "Ġ...": 2961, "ico": 2962, "Ġfair": 2963, "Ġcause": 2964, "omp": 2965, "ume": 2966, "ani": 2967, "Ġsens": 2968, "oud": 2969, "avy": 2970, ");": 2971, "Ġrules": 2972, "Ġmorning": 2973, "Ġforces": 2974, "With": 2975, "Ġproduction": 2976, "Ġattention": 2977, "Ġparticular": 2978, "After": 2979, "ges": 2980, "Ġimprove": 2981, "Ġlegisl": 2982, "ope": 2983, "Ġperformance": 2984, "Ġparticip": 2985, "Ġwide": 2986, "][": 2987, "Ġson": 2988, "Ġfear": 2989, "OM": 2990, "alled": 2991, "Ġfelt": 2992, "Ġallowed": 2993, "\",": 2994, "down": 2995, "ÂŃ": 2996, "yond": 2997, "chers": 2998, "'d": 2999, "ondon": 3000, "Re": 3001, "hold": 3002, "Ġtext": 3003, "rect": 3004, "arily": 3005, "apt": 3006, "Ġhear": 3007, "Ġwond": 3008, "load": 3009, "Ġpoll": 3010, "Ġbrought": 3011, "idents": 3012, "Ġsepar": 3013, "cement": 3014, "ĠPar": 3015, "ero": 3016, "AC": 3017, "Ġvarious": 3018, "Ġprogress": 3019, "Ġbuilt": 3020, "Ġtried": 3021, "ĠSw": 3022, "ĠDecember": 3023, "ining": 3024, "While": 3025, "vertisement": 3026, "Ġmovement": 3027, "ĠRom": 3028, "Ġstrugg": 3029, "ĠBlack": 3030, "Ġjournal": 3031, "Ġengine": 3032, "Ġaddition": 3033, "alt": 3034, "Ġprevious": 3035, "undred": 3036, "come": 3037, "ĠAfric": 3038, "anks": 3039, "Ġreach": 3040, "ĠStreet": 3041, "Ġindepend": 3042, "ĠJew": 3043, "Ġ@": 3044, "ening": 3045, "cies": 3046, "Ġspeed": 3047, "Ġlearn": 3048, "Ġdied": 3049, "Ġfeatures": 3050, "Ġwebsite": 3051, "aker": 3052, "aries": 3053, "Ġsort": 3054, "ecause": 3055, "Ġsurve": 3056, "idered": 3057, "Ġround": 3058, "ĠCont": 3059, "Ġpaper": 3060, "uk": 3061, "Ġ23": 3062, "ze": 3063, "Ġepis": 3064, "inks": 3065, "Ġreb": 3066, "Ġtraining": 3067, "ledge": 3068, "Ġseven": 3069, "Ġlatest": 3070, "ĠTimes": 3071, "sych": 3072, "ibly": 3073, "Ġliber": 3074, "Ġimage": 3075, "Ġcontact": 3076, "ysis": 3077, "Ġsexual": 3078, "Ġmention": 3079, "Ġveh": 3080, "Ġparents": 3081, "van": 3082, "ularly": 3083, "Ġseek": 3084, "Ġopportunity": 3085, "wo": 3086, "Sh": 3087, "Ġhor": 3088, "Im": 3089, "ceed": 3090, "ament": 3091, "Ġsong": 3092, "Ġdemand": 3093, "ification": 3094, "Ġ22": 3095, "Ġcritic": 3096, "Ġtalking": 3097, "Ġbott": 3098, "ĠCounty": 3099, "rench": 3100, "ÑĤ": 3101, "imately": 3102, "Ġrepe": 3103, "Ġens": 3104, "eth": 3105, "Ġinn": 3106, "Ġrequired": 3107, "ĠKing": 3108, "Ġlink": 3109, "ibr": 3110, "Ġsearch": 3111, "Ġdocument": 3112, "Ġfell": 3113, "Ġpan": 3114, "Ġadm": 3115, "ĠBritish": 3116, "aturday": 3117, "Ġinvestigation": 3118, "ille": 3119, "sequ": 3120, "Ġspokes": 3121, "tr": 3122, "Ġachie": 3123, "ground": 3124, "Ġpopulation": 3125, "idge": 3126, "Ġbank": 3127, "Tr": 3128, "ĠPaul": 3129, "ĠLondon": 3130, "cle": 3131, "Ġdog": 3132, "Ġsett": 3133, "Ġprevent": 3134, "Ġcard": 3135, "Ġanswer": 3136, "elligence": 3137, "?\"": 3138, "Ġconsidered": 3139, "Ð¸": 3140, "unk": 3141, "Ġclimate": 3142, "She": 3143, "Ġess": 3144, "Ġserious": 3145, "Ġconc": 3146, "asc": 3147, "Ġbox": 3148, "Ġil": 3149, "oo": 3150, "men": 3151, "Ġguy": 3152, "ĠPark": 3153, "Ġclaims": 3154, "ĠSand": 3155, "ĠÎ": 3156, "Ġmessage": 3157, "Ġlanguage": 3158, "set": 3159, "ruary": 3160, "iant": 3161, "ication": 3162, "ĠParty": 3163, "*]": 3164, "Ġones": 3165, "ĠSer": 3166, "Ġmodern": 3167, "Ġdamage": 3168, "eared": 3169, "ida": 3170, "urning": 3171, "iction": 3172, "Ġprior": 3173, "Ġ[*]": 3174, "Ġeffort": 3175, "vent": 3176, "pper": 3177, "Ġeight": 3178, "Ġcitiz": 3179, "Ġhot": 3180, "ĠMcC": 3181, "Ġviolence": 3182, "Ġrout": 3183, "Ġincreasing": 3184, "Ġgas": 3185, "Ġcoach": 3186, "Ġund": 3187, "Ġstudent": 3188, "room": 3189, "Ġshowed": 3190, "ĠTex": 3191, "Ġprovided": 3192, "Ġupon": 3193, "Ġpaid": 3194, "Ġgrowth": 3195, "Ġimmig": 3196, "ĠIndia": 3197, "Ġslow": 3198, "Ġproducts": 3199, "ĠKe": 3200, "Ġsafe": 3201, "Ġpen": 3202, "itch": 3203, "Ġexam": 3204, "Ġ2009": 3205, "ĠEast": 3206, "Ġreality": 3207, "Ġexactly": 3208, "Ġsometimes": 3209, "Ġmedical": 3210, "light": 3211, "Ġfast": 3212, "Ġexcept": 3213, "Ġquality": 3214, "acher": 3215, "IC": 3216, "Ġprotest": 3217, "Ġremains": 3218, "Ġregion": 3219, "ospital": 3220, "Ġsystems": 3221, "Ġfix": 3222, "Ġjobs": 3223, "Ġeducation": 3224, "ĠQu": 3225, "Ġaren": 3226, "Ġleading": 3227, "Ġcompletely": 3228, "Ġconduct": 3229, "Ġobv": 3230, "reedom": 3231, "Ġcenter": 3232, "de": 3233, "Ġextreme": 3234, "ĠSenate": 3235, "Ġinteresting": 3236, "ĠChe": 3237, "Ġvoters": 3238, "icles": 3239, "aves": 3240, "Ġbiggest": 3241, "Ġdefense": 3242, "Ġmovie": 3243, "aint": 3244, "Ġdoub": 3245, "Ġconvers": 3246, "bed": 3247, "Ġsize": 3248, "Ġassist": 3249, "ĠDonald": 3250, "Ġchief": 3251, "abor": 3252, "ĠSaturday": 3253, "ervative": 3254, "Ġhtt": 3255, "iment": 3256, "erve": 3257, "Ġfinally": 3258, "rowd": 3259, "Ġwouldn": 3260, "Ġconsist": 3261, "Ġresear": 3262, "Ġdro": 3263, "99": 3264, "Ġ2008": 3265, "lying": 3266, "Ġnatural": 3267, "Ġexperien": 3268, "Ġdoll": 3269, "add": 3270, "ĠMark": 3271, "Ġchanged": 3272, "ously": 3273, "aught": 3274, "Ġhundred": 3275, "oses": 3276, "Ġplat": 3277, "ĠTur": 3278, "ĠPat": 3279, "Ġextra": 3280, "ĠCenter": 3281, "ari": 3282, "ĠCoun": 3283, "ression": 3284, "Ġnamed": 3285, "Ġdespite": 3286, "Ġrac": 3287, "Ġblood": 3288, "entially": 3289, "Ġaw": 3290, "rast": 3291, "enge": 3292, "Ġpoor": 3293, "oul": 3294, "ĠFebruary": 3295, "Ġdraw": 3296, "Ġdevice": 3297, "Ġdetails": 3298, "ma": 3299, "istan": 3300, "IT": 3301, "Ġmajority": 3302, "ĠMore": 3303, "Ġmaintain": 3304, "22": 3305, "Ġwritten": 3306, "Ġarriv": 3307, "yl": 3308, "Ġstories": 3309, "aph": 3310, "Ġreading": 3311, "ĠPost": 3312, "ension": 3313, "Ġcorpor": 3314, "Ġlevels": 3315, "Ġcamer": 3316, "inese": 3317, "ES": 3318, "Ġrange": 3319, "uf": 3320, "ems": 3321, "het": 3322, "AL": 3323, "sp": 3324, "Ġcertainly": 3325, "ĠLeague": 3326, "):": 3327, "Ġattacks": 3328, "ĠRich": 3329, "ĠCons": 3330, "hib": 3331, "egr": 3332, "Ġcontinued": 3333, "Ġ+": 3334, "Ġdescribed": 3335, "Ġmiddle": 3336, "Ġparticularly": 3337, "ĠFirst": 3338, "Ġunf": 3339, "ĠServ": 3340, "ago": 3341, "Ġcosts": 3342, "Ġterm": 3343, "obile": 3344, "Ġwife": 3345, "Ġsummer": 3346, "Ġpurp": 3347, "ĠIran": 3348, "icks": 3349, "Ġmill": 3350, "Ġgiving": 3351, "Ġconcept": 3352, "Ġprison": 3353, "ny": 3354, "erry": 3355, "iles": 3356, "Ġscreen": 3357, "Ġavoid": 3358, "Ġefforts": 3359, "Ġcarry": 3360, "oper": 3361, "Ġsociety": 3362, "Ġdanger": 3363, "ĠMor": 3364, "inally": 3365, "Ġstarting": 3366, "Ġgrowing": 3367, "Ġfile": 3368, "fort": 3369, "Ġlay": 3370, "Ġchoice": 3371, "Ġmultiple": 3372, "Ġfootball": 3373, "Ġ*": 3374, "wise": 3375, "Ġofficers": 3376, "ĠEven": 3377, "Ġ60": 3378, "isions": 3379, "80": 3380, "erc": 3381, "Ġwrite": 3382, "ĠMinister": 3383, "Ġsle": 3384, "Ġfigure": 3385, "Ġquarter": 3386, "ĠDes": 3387, "ĠMuslim": 3388, "nces": 3389, "Ġculture": 3390, "Ġrob": 3391, "Ġrecomm": 3392, "Ġpath": 3393, "Ġimag": 3394, "Ġ=>": 3395, "Ġtoward": 3396, "Ġlooked": 3397, "ux": 3398, "iring": 3399, "Ġremember": 3400, "Ġproperty": 3401, "Ġusually": 3402, "Ġstuff": 3403, "Ġcomplex": 3404, "Ġpressure": 3405, "Ġparts": 3406, "Ġthinking": 3407, "Ġhistor": 3408, "ĠInt": 3409, "Ġscience": 3410, "Ġdemonst": 3411, "Ġcele": 3412, "eff": 3413, "Ġsurv": 3414, "Ġpurch": 3415, "Ġbeyond": 3416, "Ġcat": 3417, "akers": 3418, "Ġspeech": 3419, "Ġpark": 3420, "ĠMex": 3421, "ford": 3422, "airs": 3423, "Ġoccur": 3424, "Ġthroughout": 3425, "inary": 3426, "Ġsafety": 3427, "Ġpractice": 3428, "Ġdate": 3429, "ĠSyria": 3430, "aming": 3431, "Ġtour": 3432, "Ġremain": 3433, "ĠJames": 3434, "Ġadditional": 3435, "ĠDemocratic": 3436, "utions": 3437, "Ġcouldn": 3438, "Ġult": 3439, "onent": 3440, "Ġlaws": 3441, "Ð»": 3442, "berg": 3443, "Ġdeg": 3444, "urg": 3445, "amb": 3446, "Ġcandidate": 3447, "ĠSoc": 3448, "Ġreceive": 3449, "uclear": 3450, "FL": 3451, "Ġuser": 3452, "Ġletter": 3453, "Ġtable": 3454, "Ġcomputer": 3455, "Ġcopy": 3456, "Ġstreng": 3457, "Ġ26": 3458, "Ġtowards": 3459, "Ġstar": 3460, "Ġcounter": 3461, "urt": 3462, "ban": 3463, "Ġalthough": 3464, "ara": 3465, "ĠIS": 3466, "Ġclos": 3467, "ications": 3468, "zz": 3469, "omen": 3470, "Ġmeant": 3471, "Ġmach": 3472, "Ġcalls": 3473, "Ġblog": 3474, "Ġready": 3475, "Ġbrain": 3476, "24": 3477, "ĠNet": 3478, "ĠTexas": 3479, "iminal": 3480, "olute": 3481, "ĠNe": 3482, "roy": 3483, "arian": 3484, "Advertisement": 3485, "Ġcross": 3486, "Ġsil": 3487, "Ġstage": 3488, "using": 3489, "Ġimplement": 3490, "Ġchalleng": 3491, "Ġsuspect": 3492, "ĠIndian": 3493, "Ġcomments": 3494, "Ġarm": 3495, "board": 3496, "Ġperhaps": 3497, "ĠSpe": 3498, "Ġthousands": 3499, "________": 3500, "Ġincludes": 3501, "Ġwriting": 3502, "ĠÃ": 3503, "Ġalone": 3504, "ĠSim": 3505, "astic": 3506, "Ġeyes": 3507, "lin": 3508, "itute": 3509, "itness": 3510, "imum": 3511, "Ġdark": 3512, "Ġconditions": 3513, "Ġcrowd": 3514, "Ġalleged": 3515, "ĠApple": 3516, "ports": 3517, "chan": 3518, "Ġdisapp": 3519, "ĠRepublicans": 3520, "ĠTor": 3521, "Ġguys": 3522, "Ġ27": 3523, "ilies": 3524, "ĠFrench": 3525, "ĠMichael": 3526, "Ġopin": 3527, "itor": 3528, "Ġpresidential": 3529, "Ġoption": 3530, "Ġeffects": 3531, "ĠGener": 3532, "No": 3533, "Ġenem": 3534, "Ġofficer": 3535, "Ġimmediately": 3536, "35": 3537, "Ġkids": 3538, "ables": 3539, "Ġsubst": 3540, "Ġsell": 3541, "Ġhous": 3542, "ĠAustralia": 3543, "Ġtwe": 3544, "Ġsat": 3545, "mp": 3546, "ales": 3547, "band": 3548, "Ġencour": 3549, "ĠChinese": 3550, "Ġdebate": 3551, "Ġahead": 3552, "Ġmyself": 3553, "ĠMon": 3554, "AP": 3555, "ado": 3556, "Ġdirectly": 3557, "Ġreasons": 3558, "OP": 3559, "Ġyourself": 3560, "Ġwall": 3561, "ĠStar": 3562, "All": 3563, "ester": 3564, "hest": 3565, "fl": 3566, "Ġfan": 3567, "atever": 3568, "Ġswe": 3569, "Ġhar": 3570, "ĠHer": 3571, "enty": 3572, "Ġ>": 3573, "rupt": 3574, "Ġscene": 3575, "lick": 3576, "Ġsusp": 3577, "Ġselect": 3578, "Ġband": 3579, "Ġsmart": 3580, "Ġplatform": 3581, "ĠBen": 3582, "aches": 3583, "ĠMart": 3584, "ĠDemocrats": 3585, "Ġsoftware": 3586, "Ġdoor": 3587, "Ġver": 3588, "ston": 3589, "Ġaim": 3590, "ĠInternet": 3591, "Ġ(@": 3592, "Ġstandard": 3593, "Ġprec": 3594, "Ġbooks": 3595, "Ġarch": 3596, "ĠVal": 3597, "Ġilleg": 3598, "Ġbeaut": 3599, "Ġappears": 3600, "icient": 3601, "aughter": 3602, "ĠWilliam": 3603, "Ġleague": 3604, "ĠBill": 3605, "raq": 3606, "part": 3607, "cient": 3608, "OT": 3609, "Ġut": 3610, "BI": 3611, "Ġforced": 3612, "roll": 3613, "anced": 3614, "Ġgone": 3615, "Ġcommand": 3616, "Ġâ": 3617, "Ġnature": 3618, "Ġhappy": 3619, "Ġ28": 3620, "ĠJack": 3621, "Ñģ": 3622, "Ġfa": 3623, "ĠGovern": 3624, "Ġmoved": 3625, "ĠCr": 3626, "orney": 3627, "OS": 3628, "rs": 3629, "Ġschools": 3630, "Ġrelative": 3631, "Ġanalysis": 3632, "rief": 3633, "ĠBo": 3634, "new": 3635, "AM": 3636, "Ġtouch": 3637, "Now": 3638, "Ġincreased": 3639, "Ġmoving": 3640, "Ġesc": 3641, "anch": 3642, "US": 3643, "Ð½": 3644, "Ġmaybe": 3645, "Ġclean": 3646, "ocked": 3647, "Ġrock": 3648, "just": 3649, "Ġnote": 3650, "Ġhelped": 3651, "Ġbudget": 3652, "ĠMac": 3653, "irection": 3654, "Ġten": 3655, "Ġdesigned": 3656, "Ġpsych": 3657, "Ġconference": 3658, "iders": 3659, "Ġdifference": 3660, "ĠThen": 3661, "ĠAssoci": 3662, "yan": 3663, "iance": 3664, "Ġphysical": 3665, "Ġeventually": 3666, "Ġshown": 3667, "Ġpowerful": 3668, "Ġnecessary": 3669, "Ġcontribut": 3670, "Ġdisp": 3671, "ĠII": 3672, "cul": 3673, "Ġthrow": 3674, "more": 3675, "ĠRober": 3676, "ĠSmith": 3677, "aud": 3678, "Ġcentury": 3679, "Ġagency": 3680, "lease": 3681, "Ġfailed": 3682, "Ġreligious": 3683, "aly": 3684, "Ġsenior": 3685, "ĠHere": 3686, "Ġpiece": 3687, "Ġfrequ": 3688, "Ġcredit": 3689, "adem": 3690, "Ġlic": 3691, "Ex": 3692, "Ġbrother": 3693, "rated": 3694, "mine": 3695, "Ġstra": 3696, "Ġeasily": 3697, "Ġdrive": 3698, "Ġprices": 3699, "Ġdetail": 3700, "ĠDay": 3701, "Ġunique": 3702, "Ġtrust": 3703, "Ġcharacters": 3704, "Ġpositive": 3705, "Ġmeaning": 3706, "Ġestim": 3707, "ĠEU": 3708, "wood": 3709, "Ġcompared": 3710, "Ġcharge": 3711, "Ġsigned": 3712, "100": 3713, "Ġaware": 3714, "ĠFlor": 3715, "Pro": 3716, "Ġlimited": 3717, "Ġenfor": 3718, "Ġconfir": 3719, "itation": 3720, "ĠGreen": 3721, "ser": 3722, "Ġfamilies": 3723, "Ġdeveloped": 3724, "Ġbattle": 3725, "ĠIraq": 3726, "riage": 3727, "Ġsche": 3728, "Ġpus": 3729, "Ġcris": 3730, "Ġcities": 3731, "Ġbal": 3732, "Ġattract": 3733, "Ġnoted": 3734, "Ġfirm": 3735, "Ġdisplay": 3736, "Ġdriv": 3737, "rol": 3738, "venue": 3739, "Ġfeature": 3740, "irth": 3741, "Ġrefer": 3742, "Ġdecades": 3743, "Ġbeginning": 3744, "ĠStud": 3745, "encies": 3746, "Ġcast": 3747, "23": 3748, "Ġautom": 3749, "Ġcollege": 3750, "Ġ196": 3751, "Be": 3752, "Ġsun": 3753, "Ġorganization": 3754, "Ġchallenge": 3755, "Ġpromot": 3756, "Ġappeared": 3757, "Ġreform": 3758, "ores": 3759, "ampions": 3760, "Ġnom": 3761, "oti": 3762, "Ġtruth": 3763, "ĠBay": 3764, "Ġcentral": 3765, "Ġplaces": 3766, "ĠDis": 3767, "Ġemb": 3768, "Ġcitizens": 3769, "Le": 3770, "45": 3771, "Ġanaly": 3772, "ki": 3773, "Ġpassed": 3774, "Ġweapons": 3775, "Ġang": 3776, "Ġexecutive": 3777, "ivity": 3778, "istry": 3779, "According": 3780, "âĢĿ,": 3781, "inger": 3782, "Ġfollowed": 3783, "ĠSuper": 3784, "Ġlargest": 3785, "Ġlaunch": 3786, "Ġdetermin": 3787, "Ġdraft": 3788, "Ġcustomers": 3789, "Ġadvant": 3790, "uty": 3791, "Ġplant": 3792, "Ġgives": 3793, "bum": 3794, "resh": 3795, "Ġnice": 3796, "iny": 3797, "while": 3798, "secut": 3799, "Ġtreatment": 3800, "ounds": 3801, "Ġactions": 3802, "onents": 3803, "Ġspending": 3804, "Ġborn": 3805, "Un": 3806, "Ġdise": 3807, "ĠGeorge": 3808, "Ġspot": 3809, "Ġmeasure": 3810, "ĠSchool": 3811, "ĠâĢ¦": 3812, "org": 3813, "Ġkept": 3814, "AD": 3815, "ÑĢ": 3816, "coin": 3817, "Ġactivity": 3818, "itely": 3819, "Ġpredict": 3820, "pre": 3821, "Ġsto": 3822, "Ġconflic": 3823, "ĠEnglish": 3824, "ressed": 3825, "Ġprimary": 3826, ".âĢĻ": 3827, "Ġindividuals": 3828, "Ġclearly": 3829, "Ġintegr": 3830, "Ġign": 3831, "My": 3832, "Ġdrop": 3833, "ya": 3834, "Ġnuclear": 3835, "Ġfeed": 3836, "Ġrelated": 3837, "mar": 3838, "New": 3839, "Ġbeat": 3840, "ĠOf": 3841, "orks": 3842, "orter": 3843, "Ġseemed": 3844, "Ġbenefits": 3845, "Ġmist": 3846, "ĠUnion": 3847, "Ġneighbor": 3848, "Ġtitle": 3849, "Ġgrand": 3850, "inn": 3851, "HE": 3852, "ĠHigh": 3853, "Ġx": 3854, "ona": 3855, "Ġknows": 3856, "Ġgrad": 3857, "Ar": 3858, "Ġfeet": 3859, "ĠFranc": 3860, "ube": 3861, "Ġmanager": 3862, "Ġrap": 3863, "Ġpeace": 3864, "NA": 3865, "Ġcolor": 3866, "ĠEarth": 3867, "ĠCouncil": 3868, "Ġoverall": 3869, "Ġpreviously": 3870, "Ġlaun": 3871, "ĠRob": 3872, "Ġemot": 3873, "Ġspread": 3874, "Some": 3875, "Ġuses": 3876, "Ġoptions": 3877, "Ġcontinues": 3878, "soft": 3879, "Ġspend": 3880, "Ġrule": 3881, "Ġhighly": 3882, "ĠFlorida": 3883, "Ġsend": 3884, "Ġfully": 3885, "Ġapparent": 3886, "que": 3887, "etro": 3888, "IA": 3889, "Ġabsolute": 3890, "inated": 3891, "Ġtraff": 3892, "Ġpolitics": 3893, "Ġideas": 3894, "lements": 3895, "Ġfighting": 3896, "owers": 3897, "ufact": 3898, "Ġepisode": 3899, "==": 3900, "ĠEngland": 3901, "craft": 3902, "Ġtrial": 3903, "Ġprem": 3904, "Ġallows": 3905, "Ġ2000": 3906, "Ġvoice": 3907, "Ġhaven": 3908, "Ġcool": 3909, "ĠAngel": 3910, "\":\"": 3911, "Ġsuccessful": 3912, "Ġmix": 3913, "ken": 3914, "Ġresearchers": 3915, "ares": 3916, "Ġstraight": 3917, "iable": 3918, "SP": 3919, "Ġoffered": 3920, "olic": 3921, "Don": 3922, "Ġknowledge": 3923, "Ġgoals": 3924, "Ġrare": 3925, "Ġended": 3926, "ĠUp": 3927, "Ġmostly": 3928, "icit": 3929, "Ġincident": 3930, "ĠTom": 3931, "Ġclaimed": 3932, "Ġpush": 3933, "alse": 3934, "Ġdriver": 3935, "Ġexpand": 3936, "nown": 3937, "Ġreached": 3938, "Ġlines": 3939, "ection": 3940, "Ġaltern": 3941, "Ġintelligence": 3942, "Ġauthorities": 3943, "Ġsales": 3944, "Ġliter": 3945, "agon": 3946, "By": 3947, "Ġunc": 3948, "ĠPort": 3949, "ingly": 3950, "ean": 3951, "Ġlawy": 3952, "agn": 3953, "Ġfine": 3954, "ĠInternational": 3955, "âĢ¦âĢ¦": 3956, "Ġminor": 3957, "Ġcalling": 3958, "Ġlif": 3959, "Ġcommer": 3960, "ategy": 3961, "Ġcriminal": 3962, "ils": 3963, "Ġmission": 3964, "levision": 3965, "Ġincome": 3966, "ĠChristian": 3967, "90": 3968, "Ġstreet": 3969, "ih": 3970, "Ġalbum": 3971, "ĠPolice": 3972, "antly": 3973, "Ġhospital": 3974, "ĠDef": 3975, "Image": 3976, "Ġowners": 3977, "Ġcrisis": 3978, "Ġshut": 3979, "Ġsave": 3980, "Ġresources": 3981, "RA": 3982, "EO": 3983, "Ġactual": 3984, "Ġcorrect": 3985, "box": 3986, "ĠAir": 3987, "Ġ2007": 3988, "Ġtro": 3989, "Ġstudies": 3990, "Ġcrime": 3991, "Ġweb": 3992, "Ġshooting": 3993, "Ġjudge": 3994, "wide": 3995, "etic": 3996, "Ġbeg": 3997, "Ġsupposed": 3998, "Ġlarger": 3999, "ĠLa": 4000, "erved": 4001, "aks": 4002, "Ġrecords": 4003, "Ġhappens": 4004, "Ġdistrict": 4005, "ĠBel": 4006, "ota": 4007, "itude": 4008, "htt": 4009, "Ġscen": 4010, "Ġdrink": 4011, "ville": 4012, "umn": 4013, "Ġrates": 4014, "Ġdevices": 4015, "ĠWind": 4016, "Ġpun": 4017, "bon": 4018, "Ġstatus": 4019, "Ġrank": 4020, "Ġir": 4021, "vere": 4022, "pir": 4023, "Ġminister": 4024, "Ġlose": 4025, "ĠMicro": 4026, "ica": 4027, "Ġeye": 4028, "Ġfemale": 4029, "Ġpolicies": 4030, "Ġfavorite": 4031, "Ġacqu": 4032, "ĠPhil": 4033, "osh": 4034, "ÏĦ": 4035, "Is": 4036, "Ġconcerns": 4037, "Get": 4038, "Ġvirt": 4039, "Ġwonder": 4040, "PA": 4041, "Ġtrou": 4042, "Ġteacher": 4043, "Ġseeing": 4044, "Ġassault": 4045, "icate": 4046, "Ġregular": 4047, "iled": 4048, "Ġdirection": 4049, "ĠPlay": 4050, "ĠFrom": 4051, "ĠComp": 4052, "****": 4053, "Ġcommit": 4054, "oes": 4055, "Ġpicture": 4056, "Ġspir": 4057, "ĠMost": 4058, "Ġpatients": 4059, "ĠEvery": 4060, "Ġraised": 4061, "Ġmechan": 4062, "Ġdocuments": 4063, "Ġcry": 4064, "ĠWell": 4065, "Ġnormal": 4066, "Ġborder": 4067, "ĠGermany": 4068, "term": 4069, "Ġwilling": 4070, "Ġgreater": 4071, "Ġresponsible": 4072, "ĠScott": 4073, "26": 4074, "icago": 4075, "Ġprovides": 4076, "Ġoffers": 4077, "Ġwild": 4078, "Ġpropos": 4079, "Ġfreedom": 4080, "ocks": 4081, "28": 4082, "Ġdefend": 4083, "ĠJohnson": 4084, "gen": 4085, "Ġcharges": 4086, "Ġcaused": 4087, "Ġbelieved": 4088, "iced": 4089, "ipped": 4090, "Here": 4091, "Ġsources": 4092, "Ġrevealed": 4093, "Ġgreen": 4094, "27": 4095, "Ġorganiz": 4096, "Ġnegoti": 4097, "ĠSecret": 4098, "ĠGold": 4099, "rian": 4100, "ĠRE": 4101, "ĠGeneral": 4102, "Ġprojects": 4103, "ĠFrance": 4104, "ĠÂ£": 4105, "mark": 4106, "Ġjump": 4107, "Ġensure": 4108, "Ġlearned": 4109, "Ġinfluence": 4110, "ĠHealth": 4111, "ĠArab": 4112, "Cl": 4113, "Ġperm": 4114, "Î±": 4115, "ugg": 4116, "Ġprograms": 4117, "see": 4118, "Ġexch": 4119, "Ġbehavior": 4120, "Ġappl": 4121, "ĠUk": 4122, "Ġfit": 4123, "Ġslight": 4124, "Ġque": 4125, "Ġdepartment": 4126, "ĠAnt": 4127, "Ġwait": 4128, "ĠWestern": 4129, "ented": 4130, "Ġcars": 4131, "ĠRec": 4132, "dom": 4133, "ĠAccording": 4134, "Ġapplication": 4135, "oday": 4136, "Ġbur": 4137, "roid": 4138, "Ġreflect": 4139, "500": 4140, "Ġqual": 4141, "Ġmount": 4142, "ĠSanders": 4143, "ta": 4144, "Ġfeeling": 4145, "ĠLou": 4146, "ĠBre": 4147, "SA": 4148, "Ġmap": 4149, "Ġadult": 4150, "ĠMany": 4151, "Ġlik": 4152, "ĠBrown": 4153, "ĠCap": 4154, "Ġ29": 4155, "Not": 4156, "Ġenter": 4157, "Ġleaving": 4158, "Ġnames": 4159, "Ġcelebr": 4160, "sey": 4161, "Ġbasic": 4162, "Ġwat": 4163, "\",\"": 4164, "ront": 4165, "Ġwhatever": 4166, "Ġresidents": 4167, "Ġsleep": 4168, "uana": 4169, "iverse": 4170, "Ġstation": 4171, "Ġmarriage": 4172, "ĠMP": 4173, "Ġmanufact": 4174, "Ġindependent": 4175, "Ġadop": 4176, "ifying": 4177, "Ġtraditional": 4178, "Ġfunding": 4179, "rant": 4180, "usion": 4181, "ength": 4182, "--------": 4183, "Ġruns": 4184, "ĠMil": 4185, "uild": 4186, "Ġstrategy": 4187, "ĠTrans": 4188, "ios": 4189, "Ġrise": 4190, "Ġagreement": 4191, "Ð¾Ð": 4192, "rav": 4193, "earch": 4194, "Ġshowing": 4195, "ĠOther": 4196, "ĠLab": 4197, "aked": 4198, "Ġmur": 4199, "Ġbrief": 4200, "iful": 4201, "Sc": 4202, "Ġleadership": 4203, "Ġice": 4204, "ription": 4205, "ĠHam": 4206, "ĠFrancis": 4207, "ijuana": 4208, "ĠWil": 4209, "ĠPress": 4210, "Ġcards": 4211, "ĠKorea": 4212, "Ġparties": 4213, "ĠAlex": 4214, "Ġadding": 4215, "asy": 4216, "21": 4217, "Ġpartners": 4218, "ĠSam": 4219, "ĠJud": 4220, "icial": 4221, "ING": 4222, "Ġarg": 4223, "Our": 4224, "Ġopening": 4225, "ĠAP": 4226, "iation": 4227, ".'": 4228, "Ġconfirmed": 4229, "ĠPeople": 4230, "ĠNor": 4231, "ĠCommission": 4232, "ĠAtt": 4233, "ius": 4234, "Ġfat": 4235, "ĠMike": 4236, "ĠGet": 4237, "spect": 4238, "Ġstrength": 4239, "Ġadvantage": 4240, "spe": 4241, "Ġposted": 4242, "Ġtend": 4243, "Ġbasis": 4244, "Ġarrested": 4245, "ĠOh": 4246, "Ġcamera": 4247, "well": 4248, "ĠDel": 4249, "Ġtemper": 4250, "Ġoperations": 4251, "Ġmax": 4252, "ĠLet": 4253, "ags": 4254, "Ġwhom": 4255, "Ġrat": 4256, "Ġinstall": 4257, "Ġear": 4258, "coming": 4259, "Ġphoto": 4260, "Ġdream": 4261, "ĠReg": 4262, "ĠHillary": 4263, "Ġsolution": 4264, "Ġchoose": 4265, "Ġasking": 4266, "Ġagreed": 4267, "ĠChicago": 4268, "Ġonto": 4269, "Ġcreating": 4270, "Ġrestrict": 4271, "Ġdigital": 4272, "iller": 4273, "ram": 4274, "ga": 4275, "eline": 4276, "Ġproduced": 4277, "ipp": 4278, "point": 4279, "Ġchurch": 4280, "urance": 4281, "acing": 4282, "DA": 4283, "Ġvalues": 4284, "Ġmanagement": 4285, "Ġmer": 4286, "Ġimpl": 4287, "igned": 4288, "illing": 4289, "ady": 4290, "Ġaccused": 4291, "ading": 4292, "scrib": 4293, "cont": 4294, "Ġmillions": 4295, "Ġscientists": 4296, "Ġemployees": 4297, "ibrary": 4298, "Ġmassive": 4299, "level": 4300, "lant": 4301, "Ġoccas": 4302, "ĠChurch": 4303, "ribution": 4304, "Ġweekend": 4305, "Ġdrugs": 4306, "ĠCanadian": 4307, "mat": 4308, "Ġillegal": 4309, "Ġeffective": 4310, "Ġestabl": 4311, "Ġcatch": 4312, "Ġbirth": 4313, "However": 4314, "Ġprint": 4315, "Ġbecomes": 4316, "Ġsection": 4317, "Ġhundreds": 4318, "za": 4319, "ography": 4320, "icip": 4321, "Ġbed": 4322, "Ġproduce": 4323, "ĠUkrain": 4324, "cience": 4325, "Ġtrain": 4326, "Ġspoke": 4327, "Ġreturned": 4328, "Ġcommunities": 4329, "Ġchair": 4330, "vest": 4331, "oom": 4332, "Ġtelevision": 4333, "Ġplot": 4334, "75": 4335, "29": 4336, "Ġinterested": 4337, "rial": 4338, "odies": 4339, "Ġopened": 4340, "ĠSun": 4341, "ander": 4342, "Ġserved": 4343, "Ġeth": 4344, "Ġcru": 4345, "Ġadvoc": 4346, "Ġexplained": 4347, "Ġdollars": 4348, "Ġbrand": 4349, "orial": 4350, "Ġvill": 4351, "ĠSl": 4352, "ties": 4353, "Ġcompetition": 4354, "Mr": 4355, "Ġtick": 4356, "Ġelectric": 4357, "Ġamb": 4358, "Ġgold": 4359, "uries": 4360, "These": 4361, "Ġworse": 4362, "Ġtypes": 4363, "ĠWall": 4364, "Ã¡": 4365, "ipe": 4366, "ET": 4367, "Ġbenefit": 4368, "no": 4369, "estic": 4370, "arliam": 4371, "Ġlearning": 4372, "ĠLike": 4373, "cell": 4374, "azing": 4375, "33": 4376, "Ġachieve": 4377, "Ġviews": 4378, "ĠSup": 4379, "rants": 4380, "acity": 4381, "ĠJustice": 4382, "Ġreject": 4383, "ĠWhy": 4384, "âĢĺ": 4385, "Ġbab": 4386, "70": 4387, "Ġincred": 4388, "ste": 4389, "Ġopposition": 4390, "ĠCommittee": 4391, "rate": 4392, "Ġunlike": 4393, "Ġstrik": 4394, "Ġhighest": 4395, "Ġhearing": 4396, "Ġprofessional": 4397, "isher": 4398, "Ġproposed": 4399, "Ġcritical": 4400, "ĠJose": 4401, "ĠBer": 4402, "inct": 4403, "Ġdaily": 4404, "ĠBecause": 4405, "Ġvs": 4406, "Ġimages": 4407, "ĠAut": 4408, "Ġpurpose": 4409, "Ġpattern": 4410, "arliament": 4411, "Ġcomfort": 4412, "Ġbecoming": 4413, "Ġ2006": 4414, "Ġteach": 4415, "Ġchem": 4416, "Ġassum": 4417, "Ġobtain": 4418, "Ġitems": 4419, "ĠFox": 4420, "ords": 4421, "esh": 4422, "BA": 4423, "Ġetc": 4424, "phone": 4425, "Ġinitial": 4426, "Ġheavy": 4427, "Ġnine": 4428, "ĠMod": 4429, "Ġtelling": 4430, "Ġopinion": 4431, "ĠYour": 4432, "Ġship": 4433, "Ġbelief": 4434, "Ġexplain": 4435, "ĠMag": 4436, "Ġweight": 4437, "Ġsurround": 4438, "ĠNFL": 4439, "Ġstated": 4440, "uman": 4441, "ulate": 4442, "Ġwatching": 4443, "Ġsupporters": 4444, "ĠInc": 4445, "ĠPalest": 4446, "Ġpolitic": 4447, "Ġhero": 4448, "bing": 4449, "awn": 4450, "ctors": 4451, "Ġnegative": 4452, "ĠAdd": 4453, "Ġ80": 4454, "ĠMicrosoft": 4455, "Ġlaunched": 4456, "Ġ90": 4457, "win": 4458, "Ġvictims": 4459, "Ġstyle": 4460, "Ġlocation": 4461, "ĠInstitute": 4462, "Ġphotos": 4463, "ĠLeg": 4464, "Ġmiles": 4465, "house": 4466, "ario": 4467, "Ġlimit": 4468, "Ġactive": 4469, "kin": 4470, "Ġcontrovers": 4471, "ĠLiber": 4472, "rad": 4473, "NN": 4474, "Ġinvestment": 4475, "Ġissued": 4476, "ĠConst": 4477, "orthern": 4478, "oles": 4479, "Ġsurface": 4480, "ĠMo": 4481, "Ġgenerally": 4482, "Ġcondition": 4483, "Ġ2005": 4484, "outhern": 4485, "Ġcommittee": 4486, "Ġfresh": 4487, "Ġdefinitely": 4488, "Ġbomb": 4489, "Ġshared": 4490, "Ġdoubt": 4491, "Ġcoal": 4492, "witch": 4493, "miss": 4494, "Ġfant": 4495, "Ġbottom": 4496, "rees": 4497, "known": 4498, "Con": 4499, "Ġreplace": 4500, "istics": 4501, "Ġclosed": 4502, "tered": 4503, "Ġcommercial": 4504, "ĠGreat": 4505, "Ġkick": 4506, "going": 4507, "Ġworst": 4508, "Ġjoin": 4509, "Ġhus": 4510, "ype": 4511, "odes": 4512, "Ġinternet": 4513, "equ": 4514, "ĠIslamic": 4515, "season": 4516, "Ġmurder": 4517, "www": 4518, "ortunately": 4519, "Ġinstance": 4520, "Ġhack": 4521, "Ġfaith": 4522, "Ġentirely": 4523, "!\"": 4524, "Ġspl": 4525, "ĠMal": 4526, "ĠLaw": 4527, "zen": 4528, "Ġvictory": 4529, "rig": 4530, "Ġargument": 4531, "Î¹": 4532, "48": 4533, "Ġwinning": 4534, "Ġstructure": 4535, "Ġsolid": 4536, "ĠMexico": 4537, "ĠBritain": 4538, "ici": 4539, "Ġvehicle": 4540, "Ġlegislation": 4541, "pri": 4542, "Read": 4543, "annel": 4544, "Ġpet": 4545, "ĠOffice": 4546, "Ġunderstanding": 4547, "Ġserve": 4548, "Ġsan": 4549, "ãģ": 4550, "LA": 4551, "Ġvac": 4552, "Ġsuggested": 4553, "oman": 4554, "Ġran": 4555, "ĠCup": 4556, "Ġappeal": 4557, "ĠCEO": 4558, "Ġfinding": 4559, "Ġrestaur": 4560, "Ġputting": 4561, "Ġjustice": 4562, "rey": 4563, "ovel": 4564, "Ġcoverage": 4565, "Ġdangerous": 4566, "oly": 4567, "arant": 4568, "Ġresist": 4569, "Ġrequires": 4570, "Ġreduce": 4571, "Ġmale": 4572, "Ġdie": 4573, "Ġmicro": 4574, "Ġaccur": 4575, "Ġassociated": 4576, "Ġthus": 4577, "ĠSupreme": 4578, "ĠSecurity": 4579, "Res": 4580, "ID": 4581, "ears": 4582, "ĠUN": 4583, "rency": 4584, "Ġwealth": 4585, "Ġhttp": 4586, "Ġcandidates": 4587, "Ġbusinesses": 4588, "ada": 4589, "Ġge": 4590, "OU": 4591, "Ġfloor": 4592, "Ġdaughter": 4593, "Ġexisting": 4594, "rim": 4595, "oyal": 4596, "Ġnotice": 4597, "Ġjoined": 4598, "Ġholding": 4599, "ossible": 4600, "Ġestablish": 4601, "Ġdebt": 4602, "bre": 4603, "Ġdriving": 4604, "Ġreact": 4605, "Ġmarijuana": 4606, "Ġcontinu": 4607, "Ġaspect": 4608, "OL": 4609, "Ġdestroy": 4610, "Ġactivities": 4611, "ĠKen": 4612, "which": 4613, "mm": 4614, "Ġtraffic": 4615, "Ġplays": 4616, "Ġcompar": 4617, "ĠHall": 4618, "Ġwitness": 4619, "Ġmeasures": 4620, "but": 4621, "Ġsites": 4622, "ĠMat": 4623, "omas": 4624, "ĠâĢ¢": 4625, "Ġextremely": 4626, "Ġcharged": 4627, "ĠPet": 4628, "Ġsuit": 4629, "Î¿": 4630, "36": 4631, "Ġnorth": 4632, "Ġbackground": 4633, "Ġanimals": 4634, "udd": 4635, "anda": 4636, "anging": 4637, "andon": 4638, "EC": 4639, "Ġfalse": 4640, "ĠSince": 4641, "oms": 4642, "Ġtransfer": 4643, "Ġcateg": 4644, "ĠGood": 4645, "ĠFe": 4646, "iest": 4647, "Ġmobile": 4648, "Ġdisease": 4649, "Ġdecade": 4650, "ĠImages": 4651, "Ġnar": 4652, "igan": 4653, "Ġotherwise": 4654, "Ġdouble": 4655, "Ġannual": 4656, "cious": 4657, "Ġtheory": 4658, "Ġdiscussion": 4659, "ĠMiss": 4660, "....": 4661, "Ġsports": 4662, "Ġeat": 4663, "Ġcancer": 4664, "ĠGame": 4665, "han": 4666, "Ġnotes": 4667, "ĠBit": 4668, "gar": 4669, "Ġrepeated": 4670, "Ġgay": 4671, "ĠFound": 4672, "vention": 4673, "resp": 4674, "Americ": 4675, "Ġeasier": 4676, "Ġcaught": 4677, "Ġkeeping": 4678, "Ġfigh": 4679, "ĠBig": 4680, "ĠAre": 4681, "gency": 4682, "Ġsupported": 4683, "Ġolder": 4684, "Ġconstruction": 4685, "Ġupdate": 4686, "Ġspecies": 4687, "Ġscore": 4688, "ĠDist": 4689, "Ġspect": 4690, "Ġnor": 4691, "Ġhasn": 4692, "ĠJer": 4693, "ĠOver": 4694, "rive": 4695, "ano": 4696, "Ġrefere": 4697, "iliar": 4698, "how": 4699, "Ġder": 4700, "itz": 4701, "Ġsurvey": 4702, "Ġsmaller": 4703, "Ġplaced": 4704, "Ġfarm": 4705, "Ġaggress": 4706, "aven": 4707, "Ġwaiting": 4708, "night": 4709, "Ġconflict": 4710, "olly": 4711, "olf": 4712, "irgin": 4713, "55": 4714, "cknow": 4715, "Ġlabor": 4716, "Ġdefe": 4717, "onto": 4718, "ader": 4719, "Ġpresence": 4720, "Ġdiscovered": 4721, "Ġconservative": 4722, "ĠLouis": 4723, "apped": 4724, "Ġtruly": 4725, "Ġsolar": 4726, "pen": 4727, "Ġtells": 4728, "Ġrough": 4729, "ĠPut": 4730, "ĠOur": 4731, "ĠCommun": 4732, "la": 4733, "Ġload": 4734, "Ġguess": 4735, "ĠRobert": 4736, "Ġwel": 4737, "Ġuniversity": 4738, "Ġrecommend": 4739, "Ġdownload": 4740, "overy": 4741, "illa": 4742, "Ġplanning": 4743, "Photo": 4744, "Ġfeels": 4745, "Ġbelieves": 4746, "ĠChris": 4747, "ÃŃ": 4748, "Ġearn": 4749, "Ġraise": 4750, "ĠJewish": 4751, "ĠBush": 4752, "Ġconcerned": 4753, "Ġcore": 4754, "Bl": 4755, "ĠRichard": 4756, "ĠMars": 4757, "vant": 4758, "nel": 4759, "Ġoperation": 4760, "Ġiniti": 4761, "works": 4762, "adium": 4763, "Ġlargely": 4764, "Ġgrant": 4765, "ĠWindows": 4766, "ups": 4767, "GB": 4768, "Ġkid": 4769, "Ġconversation": 4770, "gers": 4771, "Ġdeliver": 4772, "orrow": 4773, "lig": 4774, "Ġseparate": 4775, "Ġsides": 4776, "Ġoffensive": 4777, "Ġconnection": 4778, "Ġattend": 4779, "ĠGar": 4780, "ĠArt": 4781, "!!": 4782, "Ġtrend": 4783, "ĠFin": 4784, "Ġsteps": 4785, "Ġhomes": 4786, "Ġframe": 4787, "Ġblue": 4788, "ĠPC": 4789, "Ġallowing": 4790, "Ġunit": 4791, "Ġtough": 4792, "Ġassess": 4793, "ĠTre": 4794, "ribute": 4795, "ests": 4796, "ĠMad": 4797, "ulf": 4798, "mail": 4799, "rick": 4800, "Ġnewsp": 4801, "Ġcorner": 4802, "iser": 4803, "eah": 4804, "ancy": 4805, "Ġharm": 4806, "Ġprotection": 4807, "Ġconclud": 4808, "Ġconsequ": 4809, "ĠStep": 4810, "ĠBank": 4811, "Ġtalks": 4812, "Ġspokesman": 4813, "ĠMer": 4814, "ĠInstead": 4815, "lor": 4816, "Ġtweet": 4817, "Ġstopped": 4818, "Ġstick": 4819, "Ġsouth": 4820, "ulated": 4821, "suit": 4822, "ait": 4823, "PS": 4824, "Ġscale": 4825, "Ġneighborhood": 4826, "atically": 4827, "ronic": 4828, "Ġidentified": 4829, "ĠCarol": 4830, "34": 4831, "ĠFore": 4832, "isation": 4833, "icon": 4834, "enses": 4835, "Ġdecisions": 4836, "owl": 4837, "oted": 4838, "Ġtrip": 4839, "Ġmissing": 4840, "Ġcircum": 4841, "ĠLos": 4842, "ula": 4843, "itutional": 4844, "ghan": 4845, "izes": 4846, "More": 4847, "Ġdetect": 4848, "Ġacknow": 4849, "ĠSal": 4850, "Ġstrateg": 4851, "Ġpartner": 4852, "Ġmanaged": 4853, "Ġimmigration": 4854, "Ġfigures": 4855, "Ġcouncil": 4856, "Ġtransform": 4857, "Ġhusband": 4858, "ĠIsraeli": 4859, "bour": 4860, "Ġlength": 4861, "Ġgirls": 4862, "Ġenforcement": 4863, "Ġcontain": 4864, "Ġaudience": 4865, "ocr": 4866, "BS": 4867, "Ġ31": 4868, "Ġskills": 4869, "Ġthanks": 4870, "isf": 4871, "hens": 4872, "ception": 4873, "Ġfocused": 4874, "Ġdefensive": 4875, "Ġmig": 4876, "Ġinterests": 4877, "Ġbeautiful": 4878, "ĠProf": 4879, "Ġnovel": 4880, "ĠWeb": 4881, "Ġappropri": 4882, "ĠQue": 4883, "ĠPM": 4884, "ĠGovernment": 4885, "Ġturns": 4886, "Ġhair": 4887, "Ġabuse": 4888, "hi": 4889, "ĠService": 4890, "ĠFrank": 4891, "Ġcommission": 4892, "ĠDirect": 4893, "uration": 4894, "ancing": 4895, "Ġuseful": 4896, "Ġtools": 4897, "Ġroll": 4898, "Ã³": 4899, "iling": 4900, "44": 4901, "32": 4902, "Ġexclus": 4903, "osure": 4904, "Ġtask": 4905, "Ġsetting": 4906, "CC": 4907, "Ġmental": 4908, "Ġfiles": 4909, "Ġbul": 4910, "ĠAc": 4911, "ocal": 4912, "Ġafford": 4913, "ĠMos": 4914, "Ġded": 4915, "Ġbatter": 4916, "ĠIr": 4917, "37": 4918, "Ġrefuge": 4919, "!âĢĿ": 4920, "Ġobvious": 4921, "Ġhumans": 4922, "Ġbeer": 4923, "Ġ35": 4924, "Ġplease": 4925, "Ġmachine": 4926, "ĠParis": 4927, "ĠMet": 4928, "Ġmodels": 4929, "Ġheat": 4930, "what": 4931, "Ġfailure": 4932, "ĠAssociation": 4933, "Ġ2018": 4934, "ference": 4935, "ae": 4936, "Ġseeking": 4937, "Ġtesting": 4938, "ĠRem": 4939, "Ġcommitted": 4940, "uct": 4941, "real": 4942, "onym": 4943, "ĠLee": 4944, "ĠJim": 4945, "verse": 4946, "rd": 4947, "Ġexerc": 4948, "Ġfuel": 4949, "Ġcombat": 4950, "Ġappoint": 4951, "Ġradio": 4952, "ĠSur": 4953, "Ġpair": 4954, "aren": 4955, "Ġstress": 4956, "ĠSecretary": 4957, "andom": 4958, "Ġsitting": 4959, "Ġproviding": 4960, "Ġcash": 4961, "ĠRyan": 4962, "cks": 4963, "Ġweak": 4964, "Ġcontext": 4965, "âĢ¢": 4966, "kins": 4967, "ENT": 4968, "Ġsuggests": 4969, "Ġinsp": 4970, "Ġhealthy": 4971, "ĠPrime": 4972, "Ġwindow": 4973, "lands": 4974, "].": 4975, "39": 4976, "Ġintroduced": 4977, "ĠPalestin": 4978, "MA": 4979, "Ġgeneration": 4980, "Ġsam": 4981, "ĠFBI": 4982, "rible": 4983, "gl": 4984, "ashed": 4985, "ampionship": 4986, "Ġtransport": 4987, "Ġkilling": 4988, "Ġinjury": 4989, "Ġaward": 4990, "stream": 4991, "ocket": 4992, "EL": 4993, "Ġprefer": 4994, "azine": 4995, "Ġtests": 4996, "Ġhappening": 4997, "Ġelements": 4998, "ructure": 4999, "ocol": 5000, "Ġmentioned": 5001, "Ġinnov": 5002, "Ġimpossible": 5003, "Ġfourth": 5004, "ĠEv": 5005, "Ġworry": 5006, "Ġcorporate": 5007, "ĠPre": 5008, "ĠAlthough": 5009, "Ġ2004": 5010, "ĠTwo": 5011, "Ġremoved": 5012, "Ġcells": 5013, "Ġamazing": 5014, "ooking": 5015, "Ġsupply": 5016, "Ġstarts": 5017, "Ġsoldiers": 5018, "Trump": 5019, "38": 5020, "ĠJeff": 5021, "cel": 5022, "do": 5023, "Ġfunds": 5024, "sen": 5025, "pm": 5026, "DP": 5027, "ĠInter": 5028, "ortion": 5029, "icy": 5030, "Ġtack": 5031, "Ġplanet": 5032, "ĠTheir": 5033, "Ġdecide": 5034, "ynam": 5035, "Ġinternal": 5036, "Ġfinished": 5037, "ĠAri": 5038, "iot": 5039, "Ġphil": 5040, "Ġestablished": 5041, "semb": 5042, "inter": 5043, "Ġbigger": 5044, "Ġabsolutely": 5045, "ĠJoe": 5046, "ĠAfrica": 5047, "ĠAfghan": 5048, "uke": 5049, "endment": 5050, "Ġtherefore": 5051, "Ġpossibility": 5052, "makers": 5053, "Up": 5054, "under": 5055, "obby": 5056, "Why": 5057, "Ġdepend": 5058, "Ġapplications": 5059, "ĠSil": 5060, "ipl": 5061, "47": 5062, "Ġsea": 5063, "Ġmere": 5064, "Ġdomin": 5065, "ĠTime": 5066, "ĠMont": 5067, "ĠJapanese": 5068, "ĠCath": 5069, "ansion": 5070, "Ġsymb": 5071, "Ġcolle": 5072, "ĠMartin": 5073, "ĠGroup": 5074, "Ġspirit": 5075, "Ġslightly": 5076, "Ġremind": 5077, "Ġgain": 5078, "ĠGOP": 5079, "ĠAfrican": 5080, "uate": 5081, "Ġpresented": 5082, "ucky": 5083, "agues": 5084, "Ġidentity": 5085, "ĠSyrian": 5086, "eless": 5087, "Ġwish": 5088, "Ġterrit": 5089, "Ġerror": 5090, "ĠPak": 5091, "IL": 5092, "Ġvision": 5093, "Ġstock": 5094, "Ġrelatively": 5095, "Ġregist": 5096, "ĠMel": 5097, "Ñĥ": 5098, "run": 5099, "Ġearth": 5100, "with": 5101, "Ġhelping": 5102, "Ġcollection": 5103, "Ġaccounts": 5104, "Ġyards": 5105, "Ġveter": 5106, "Ġprofessor": 5107, "Ġdegree": 5108, "TC": 5109, "Ġprepared": 5110, "Ġcloser": 5111, "ĠPeter": 5112, "Ġ70": 5113, "Ġseconds": 5114, "ĠPublic": 5115, "Ġhate": 5116, "Ġarrived": 5117, "ĠMass": 5118, "ĠAngeles": 5119, "Rep": 5120, "Ġgrab": 5121, "Ġdat": 5122, "FC": 5123, "Even": 5124, "Ġappre": 5125, "ĠMary": 5126, "ĠLabour": 5127, "ĠAlso": 5128, "ipping": 5129, "Ġmemory": 5130, "ĠMiddle": 5131, "fe": 5132, "Ġvul": 5133, "Ġtrail": 5134, "Ġdetermine": 5135, "icide": 5136, "arks": 5137, "49": 5138, "Ġdomestic": 5139, "Ġbanks": 5140, "Ġ//": 5141, "Ġunless": 5142, "Ġcriticism": 5143, "yp": 5144, "itect": 5145, "Ġtim": 5146, "Ġcold": 5147, "ĠVirgin": 5148, "Ġvotes": 5149, "Ġmarkets": 5150, "Ġenvironmental": 5151, "Ġattorney": 5152, "atures": 5153, "Ġoccup": 5154, "ĠPlan": 5155, "acks": 5156, "Ġunion": 5157, "Ġplanned": 5158, "Ġowner": 5159, "Ġgraph": 5160, "Ġgender": 5161, "ey": 5162, "46": 5163, "Ġbalance": 5164, "Ġcopyright": 5165, "Ġbought": 5166, "Ġagencies": 5167, "ĠJones": 5168, "ĠGal": 5169, "ĠAtlant": 5170, "vin": 5171, "dden": 5172, "Ġprinc": 5173, "Ġinteract": 5174, "Ġfol": 5175, "ĠTer": 5176, "roud": 5177, "ola": 5178, "IP": 5179, "Ġskin": 5180, "Ġresponsibility": 5181, "Ġplenty": 5182, "ĠOut": 5183, "vis": 5184, "ka": 5185, "idering": 5186, "Ġincreasingly": 5187, "Ġdropped": 5188, "Ġhonest": 5189, "ĠUnder": 5190, "icted": 5191, "range": 5192, "erous": 5193, "Ġclin": 5194, "Ġcarried": 5195, "ĠTim": 5196, "From": 5197, "Ġcas": 5198, "ĠToronto": 5199, "den": 5200, "Des": 5201, "Ġvast": 5202, "Ġfamiliar": 5203, "ĠAndroid": 5204, "Ġstanding": 5205, "Ġoperating": 5206, "Ġconclus": 5207, "Ġapart": 5208, "Ġagent": 5209, "ĠColor": 5210, "Ġadjust": 5211, "Ġlocated": 5212, "Ġbrow": 5213, "ĠPac": 5214, "Ġperspect": 5215, "ĠCentral": 5216, "ressive": 5217, "agan": 5218, "Am": 5219, "31": 5220, "Ġtaxes": 5221, "ĠDen": 5222, "ĠChar": 5223, "Ġreligion": 5224, "Ġregarding": 5225, "Ġfellow": 5226, "apers": 5227, "Ġexperts": 5228, "Ġsurprise": 5229, "Ġarms": 5230, "Ġspeaking": 5231, "Ġserver": 5232, "Î½": 5233, "och": 5234, "Ġfactors": 5235, "Ġfle": 5236, "Ġguard": 5237, "Ġanimal": 5238, "uters": 5239, "pret": 5240, "aints": 5241, "Ġunits": 5242, "Ġdeveloping": 5243, "ĠUs": 5244, "Ġfiled": 5245, "Ġclick": 5246, "Ġbodies": 5247, "Ġapply": 5248, "ĠProt": 5249, "ĠPhoto": 5250, "coh": 5251, "Ġuns": 5252, "Ġultimately": 5253, "Ġstrike": 5254, "Ġath": 5255, "ĠThose": 5256, "prof": 5257, "Just": 5258, "Ġteen": 5259, "Ġrevolution": 5260, "Ġnone": 5261, "Ġequip": 5262, "Ġchanging": 5263, "Ġalternative": 5264, "Ġsounds": 5265, "Ġsch": 5266, "oving": 5267, "gn": 5268, "azon": 5269, "Ġtransl": 5270, "outs": 5271, "Every": 5272, "Ġsudden": 5273, "Ġplants": 5274, "Ġintended": 5275, "Ġhousing": 5276, "ĠThomas": 5277, "Ġwriter": 5278, "Ġtourn": 5279, "Ġprosecut": 5280, "Ġexchange": 5281, "stein": 5282, "Ġstandards": 5283, "Ġglass": 5284, "Ġenemy": 5285, "Ġcovered": 5286, "Ġguarant": 5287, "ĠSant": 5288, "olit": 5289, "Ġcraz": 5290, "oston": 5291, "OW": 5292, "Ġsust": 5293, "Ġlosing": 5294, "mas": 5295, "Ġreporters": 5296, "Ġcapacity": 5297, "Ġsequ": 5298, "Ġpit": 5299, "ĠResearch": 5300, "Ã¶": 5301, "ros": 5302, "Ġelections": 5303, "ĠFrancisco": 5304, "Ġsport": 5305, "ĠUSA": 5306, "rave": 5307, "Of": 5308, "CA": 5309, "Ġconsult": 5310, "Ġapparently": 5311, "Ġcuts": 5312, "ĠVer": 5313, "ĠCollege": 5314, "Last": 5315, "Ġtele": 5316, "elly": 5317, "Ġprove": 5318, "yr": 5319, "name": 5320, "wing": 5321, "Ġweren": 5322, "Ġsubs": 5323, "Ġoffering": 5324, "ĠSpr": 5325, "Ġtight": 5326, "Ġhelps": 5327, "idden": 5328, "Pl": 5329, "Ġedge": 5330, "Ġpointed": 5331, "ias": 5332, "aded": 5333, "Ġexpert": 5334, "Ġexpensive": 5335, "Ġdepart": 5336, "Ġimagine": 5337, "issions": 5338, "hedul": 5339, "Ġvariety": 5340, "Ġbroken": 5341, "ĠLast": 5342, "ĠAny": 5343, "rastructure": 5344, "olved": 5345, "Ġquant": 5346, "Ġpaying": 5347, "Ġpanel": 5348, "Ġorganizations": 5349, "Ġinsurance": 5350, "Ã¤": 5351, "ION": 5352, "Ġodd": 5353, "Ġestimated": 5354, "ĠMur": 5355, "abled": 5356, "Ġdeploy": 5357, "Ġacadem": 5358, "Ġaid": 5359, "ucks": 5360, "Ġlived": 5361, "ĠRock": 5362, "ĠDec": 5363, "Ġscript": 5364, "Ġpil": 5365, "gypt": 5366, "Ġtwice": 5367, "Ġdetermined": 5368, "Ġarmy": 5369, "hand": 5370, "TV": 5371, "ĠDistrict": 5372, "place": 5373, "lymp": 5374, "ava": 5375, "Ġsecure": 5376, "Ġexplos": 5377, "mal": 5378, "class": 5379, "Ġunivers": 5380, "Ġflow": 5381, "Ġbringing": 5382, "Ġsets": 5383, "rier": 5384, "ordin": 5385, "net": 5386, "Ġvulner": 5387, "ĠVe": 5388, "Ġsem": 5389, "Ġthank": 5390, "Ġmotiv": 5391, "ĠNov": 5392, "ogue": 5393, "Ġconvention": 5394, "apter": 5395, "alls": 5396, "ĠCarolina": 5397, "Ġspring": 5398, "Ġexperiment": 5399, "ĠFoundation": 5400, "state": 5401, "Ġrapid": 5402, "Ġdistance": 5403, "Ġdipl": 5404, "rog": 5405, "lyn": 5406, "Ġfinish": 5407, "Ġequal": 5408, "Ġclim": 5409, "ĠEnem": 5410, "osen": 5411, "Do": 5412, "Ġseasons": 5413, "Ġpieces": 5414, "Ġargued": 5415, "Ġprospect": 5416, "Ġ1990": 5417, "ãĥ": 5418, "esterday": 5419, "Ġinvolve": 5420, "life": 5421, "Ġselling": 5422, "Ġforms": 5423, "ĠSing": 5424, "mo": 5425, "isted": 5426, "65": 5427, "Ġvir": 5428, "Ġconducted": 5429, "ocracy": 5430, "Ġschedul": 5431, "Ġexpressed": 5432, "person": 5433, "Ġscr": 5434, "uzz": 5435, "Ġbike": 5436, "ĠCamp": 5437, "ĠJournal": 5438, "Ġgovernments": 5439, "Ġbreat": 5440, "obody": 5441, "cean": 5442, "ĠArmy": 5443, "rie": 5444, "ocking": 5445, "enced": 5446, "Ġpotentially": 5447, "Ġfired": 5448, "Go": 5449, "CH": 5450, "Ġjail": 5451, "ĠScot": 5452, "ĠRo": 5453, "Ġopposed": 5454, "Ġelement": 5455, "pet": 5456, "Ġrid": 5457, "ĠPlease": 5458, "ĠGree": 5459, "osite": 5460, "42": 5461, "Ġruling": 5462, "Ġproposal": 5463, "Ġpossibly": 5464, "Pe": 5465, "Ġseriously": 5466, "Ġmarried": 5467, "Ġscientific": 5468, "Ġends": 5469, "useum": 5470, "oves": 5471, "imal": 5472, "Ġyes": 5473, "Ġdevelopers": 5474, "Ġcrew": 5475, "Ġbroke": 5476, "road": 5477, "noon": 5478, "Ġdin": 5479, "met": 5480, "Ġspecifically": 5481, "ĠIll": 5482, "Ġstret": 5483, "Ġequipment": 5484, "ĠAustralian": 5485, "Ð°Ð": 5486, "Ġconstruct": 5487, "ĠOlymp": 5488, "war": 5489, "lo": 5490, "PD": 5491, "Ġrich": 5492, "Let": 5493, "Ġshall": 5494, "Ġvoting": 5495, "Ġsignificantly": 5496, "Ġboost": 5497, "Ġauthority": 5498, "ĠBern": 5499, "bur": 5500, "Ġphilos": 5501, "phas": 5502, "edd": 5503, "Ġrefused": 5504, "related": 5505, "Ġtact": 5506, "Ġoccurred": 5507, "Ġcaption": 5508, "ĠUkraine": 5509, "ĠSqu": 5510, "ĠNH": 5511, "Ġ;": 5512, "ivered": 5513, "Ġloved": 5514, "Ġfactor": 5515, "Ġexcited": 5516, "Ġdiscl": 5517, "ĠSher": 5518, "pay": 5519, "oral": 5520, "hered": 5521, "Ġstars": 5522, "ĠBoston": 5523, "ologies": 5524, "gment": 5525, "],": 5526, "Ġplus": 5527, "Ġmaster": 5528, "Ġdiplom": 5529, "Ġdenied": 5530, "Ġcolumn": 5531, "Ġcarbon": 5532, "Ġobviously": 5533, "Ġsector": 5534, "Ġoriginally": 5535, "Ġdesire": 5536, "inent": 5537, "Ġminimum": 5538, "Ġmut": 5539, "ref": 5540, "bert": 5541, "01": 5542, "Ġtreated": 5543, "Ġsurprising": 5544, "Ġsupporting": 5545, "Ġelimin": 5546, "ĠRomney": 5547, "ym": 5548, "ureau": 5549, "porary": 5550, "Ġfacing": 5551, "Ġchemical": 5552, "ket": 5553, "ĠHen": 5554, "ĠFederal": 5555, "ownt": 5556, "Ġgrew": 5557, "ĠTurkey": 5558, "Well": 5559, "First": 5560, "Ġrecorded": 5561, "Ġdisappoint": 5562, "ĠPutin": 5563, "ĠESP": 5564, "anged": 5565, "Ġprime": 5566, "Ġhun": 5567, "ĠSub": 5568, "obb": 5569, "idel": 5570, "ĠiPh": 5571, "Ġbaby": 5572, "Ġretail": 5573, "Ġleads": 5574, "Ġafternoon": 5575, "ĠJes": 5576, "ĠChief": 5577, "Ġ2003": 5578, "EM": 5579, "Ġpassing": 5580, "ĠWal": 5581, "Ġ500": 5582, "Ġ32": 5583, "that": 5584, "ican": 5585, "aped": 5586, "Ab": 5587, "Ġremove": 5588, "Ġpages": 5589, "Ġhurt": 5590, "ervation": 5591, "ache": 5592, "Ġswitch": 5593, "Ġpurchase": 5594, "Ġfamous": 5595, "ĠWeek": 5596, "ĠOnce": 5597, "uit": 5598, "Ġperman": 5599, "Ġhyp": 5600, "ĠJo": 5601, "reens": 5602, "Can": 5603, "ĠYes": 5604, "ĠML": 5605, "lets": 5606, "Ġregime": 5607, "Ġmethods": 5608, "Ġlibrary": 5609, "ĠCarl": 5610, "aine": 5611, "Ġthr": 5612, "Ġremained": 5613, "Ġinfrastructure": 5614, "Ġcart": 5615, "ĠCru": 5616, "Ġbutton": 5617, "Ġappreci": 5618, "ĠMichigan": 5619, "ĠESPN": 5620, "standing": 5621, "Ġheav": 5622, "Ġhol": 5623, "ĠTHE": 5624, "ributed": 5625, "UT": 5626, "Ġvehicles": 5627, "Ġstreets": 5628, "Ġsigns": 5629, "Ġperspective": 5630, "Ġfif": 5631, "Ġminute": 5632, "Ġcapable": 5633, "ruit": 5634, "COM": 5635, "Ġweapon": 5636, "Ġchallenges": 5637, "Ġbelong": 5638, "ilty": 5639, "Ġvideos": 5640, "Ġpackage": 5641, "Ġinstit": 5642, "Ġforget": 5643, "ĠColumb": 5644, "hab": 5645, "Ġresponded": 5646, "Ġment": 5647, "Ġflight": 5648, "rum": 5649, "IG": 5650, "Ġindic": 5651, "Ġhandle": 5652, "Ġgovernor": 5653, "ĠRub": 5654, "Ġmarg": 5655, "Ġgreatest": 5656, "Ġcontrast": 5657, "ĠJon": 5658, "asure": 5659, "Ġsac": 5660, "Ġlots": 5661, "Ġcultural": 5662, "ĠCharl": 5663, "pass": 5664, "Ġemails": 5665, "Ġconsumers": 5666, "ours": 5667, "ini": 5668, "allas": 5669, "IR": 5670, "Ġyouth": 5671, "Ġast": 5672, "ĠHarr": 5673, "ĠFire": 5674, "onom": 5675, "iro": 5676, "Ġtalent": 5677, "ĠBoth": 5678, "ĠBet": 5679, "ĠBBC": 5680, "Ġ45": 5681, "ionally": 5682, "cohol": 5683, "ashion": 5684, "ND": 5685, "Ġwearing": 5686, "Ġvoted": 5687, "Ġmessages": 5688, "Ġgar": 5689, "Ġdismiss": 5690, "ĠWilliams": 5691, "ĠWho": 5692, "Se": 5693, "Ġpulled": 5694, "Ġordered": 5695, "Ġlisten": 5696, "Ġera": 5697, "Ġelected": 5698, "uster": 5699, "Spe": 5700, "Ġupgr": 5701, "Ġreporting": 5702, "Ġbroadcast": 5703, "urb": 5704, "Ġton": 5705, "Ġsession": 5706, "Ġindeed": 5707, "ĠDaily": 5708, "esters": 5709, "col": 5710, "Ġroute": 5711, "Ġopponent": 5712, "Ġconsidering": 5713, "ĠMedia": 5714, "Îµ": 5715, "ternal": 5716, "mosp": 5717, "Ġcoff": 5718, "Ġbasically": 5719, "ruption": 5720, "Since": 5721, "Ġsad": 5722, "Ġfaces": 5723, "Ġfaster": 5724, "ĠMa": 5725, "ounded": 5726, "Ġunable": 5727, "Ġcalcul": 5728, "ĠLat": 5729, "Ġtrig": 5730, "Ġrent": 5731, "Ġidentify": 5732, "Ġherself": 5733, "ĠVirginia": 5734, "ĠRoad": 5735, "ĠNAS": 5736, "ĠEnemies": 5737, "ĠÏ": 5738, "kay": 5739, "aling": 5740, "Ġsatisf": 5741, "Ġhopes": 5742, "Ġaffected": 5743, "ĠOl": 5744, "TA": 5745, "Ġsuppl": 5746, "ĠSaud": 5747, "amin": 5748, "abilities": 5749, "Ġwood": 5750, "Ġsubstant": 5751, "ĠIP": 5752, "Sp": 5753, "anche": 5754, "IM": 5755, ",âĢĻ": 5756, "Ġmotion": 5757, "Ġgather": 5758, "Ġtroops": 5759, "Ġpitch": 5760, "Ġlawyer": 5761, "Ġexperienced": 5762, "Ġallegations": 5763, "ĠRiver": 5764, "ĠMatt": 5765, "ĠKilled": 5766, "ĠEgypt": 5767, "upp": 5768, "obe": 5769, "Ġpositions": 5770, "Ġapproved": 5771, "ulations": 5772, "Ġseat": 5773, "Ġquiet": 5774, "Ġpowers": 5775, "ĠFed": 5776, "itable": 5777, "Ġrain": 5778, "Ġlit": 5779, "Ġentertain": 5780, "Ġadvance": 5781, "Ġadmitted": 5782, "ĠPower": 5783, "ĠDuring": 5784, "Ġstruggle": 5785, "Ġrandom": 5786, "Ġpictures": 5787, "Ġdelivered": 5788, "Ġaccident": 5789, "unte": 5790, "Ġtalked": 5791, "Ġprivacy": 5792, "Ġinstruct": 5793, "Ġentry": 5794, "aste": 5795, "His": 5796, "Ġlegit": 5797, "Ġemergency": 5798, "Ġcollabor": 5799, "ĠBitcoin": 5800, "ua": 5801, "Ġwrites": 5802, "Ġviolent": 5803, "Ġturning": 5804, "Ġhell": 5805, "Ġevening": 5806, "apping": 5807, "Ġnewspaper": 5808, "Ġboss": 5809, "Ġappearance": 5810, "ador": 5811, "Ġpicked": 5812, "date": 5813, "arp": 5814, "Ġshouldn": 5815, "Ġrow": 5816, "Ġdrivers": 5817, "Ġadvert": 5818, "ĠCur": 5819, "()": 5820, "Ġvan": 5821, "Ġrealize": 5822, "ĠMem": 5823, "reland": 5824, "Ġliberal": 5825, "Ġclient": 5826, "Ġ195": 5827, "ensions": 5828, "LET": 5829, "Follow": 5830, "=\"": 5831, "Ġtechnical": 5832, "Ġdifferences": 5833, "Ġclasses": 5834, "Ġappropriate": 5835, "ĠFree": 5836, "uations": 5837, "ompl": 5838, "Ġproud": 5839, "Ġopportunities": 5840, "Ġexperiences": 5841, "sell": 5842, "aled": 5843, "05": 5844, "Ġshift": 5845, "Ġoutl": 5846, "Ġmatters": 5847, ",'": 5848, "Ġvisual": 5849, "Ġpublicly": 5850, "Ġproced": 5851, "Ġagents": 5852, "ĠDou": 5853, "illy": 5854, "Per": 5855, "Ġpip": 5856, "ĠWilson": 5857, "ĠRod": 5858, "mates": 5859, "Ġwear": 5860, "Ġstatements": 5861, "ĠLin": 5862, "ĠHaw": 5863, "regon": 5864, "Ġnumerous": 5865, "Ġfindings": 5866, "Ġfacts": 5867, "Ġcrazy": 5868, "Ġcombined": 5869, "Ġsubscrib": 5870, "43": 5871, "Ġburn": 5872, "olar": 5873, "Ġwidely": 5874, "Ġupdates": 5875, "Ġpoliticians": 5876, "Ġmotor": 5877, "Ġfly": 5878, "Ġrenew": 5879, "ĠSports": 5880, "isters": 5881, "Ġfrust": 5882, "Ġcentre": 5883, "ĠJoseph": 5884, "rawn": 5885, "IV": 5886, "Ġmode": 5887, "Ġcommitment": 5888, "iat": 5889, "Ġshape": 5890, "rip": 5891, "DS": 5892, "Ġguilty": 5893, "ĠClub": 5894, "ĠBraz": 5895, "Ġ2001": 5896, "nergy": 5897, "astern": 5898, "Ġflat": 5899, "stone": 5900, "Ġdiss": 5901, "Ġclot": 5902, "ĠSocial": 5903, "ĠLib": 5904, "ĠCNN": 5905, "ĠAndrew": 5906, "amental": 5907, "Ġtargets": 5908, "called": 5909, "adow": 5910, "ĠAv": 5911, "illance": 5912, "Ġremaining": 5913, "resents": 5914, "erg": 5915, "Ġride": 5916, "Ġcraft": 5917, "Ġbegins": 5918, "ĠST": 5919, "ishes": 5920, "host": 5921, "free": 5922, "comm": 5923, "Ġstands": 5924, "Ġreportedly": 5925, "Ġdram": 5926, "enger": 5927, "Qu": 5928, "Ġtrouble": 5929, "Ġmissed": 5930, "Ġexcell": 5931, "Ġdynam": 5932, "Ġbuildings": 5933, "Ġbound": 5934, "ĠScience": 5935, "orage": 5936, "asp": 5937, "Ġsuffered": 5938, "Ġsecretary": 5939, "Ġperformed": 5940, "Ġforg": 5941, "Ġcircumst": 5942, "ĠJul": 5943, "ĠJr": 5944, "ĠBob": 5945, "icing": 5946, "odd": 5947, "gia": 5948, "aniel": 5949, "Ġpercentage": 5950, "Ġdeclared": 5951, "ĠDan": 5952, "Ġterrorist": 5953, "Ġmand": 5954, "Ġinitially": 5955, "duc": 5956, "Ġshop": 5957, "Ġleaves": 5958, "Ġconfidence": 5959, "edia": 5960, "Cont": 5961, "Ġreaction": 5962, "xy": 5963, "Another": 5964, "Ġeverybody": 5965, "Ġaircraft": 5966, "ĠMedic": 5967, "Ġ300": 5968, "eds": 5969, "cos": 5970, "Many": 5971, "ĠRead": 5972, "top": 5973, "PR": 5974, "Ġreduced": 5975, "zer": 5976, "xual": 5977, "usiness": 5978, "formation": 5979, "Ġsale": 5980, "Ġmal": 5981, "Ġfaced": 5982, "Ġadvice": 5983, "li": 5984, "ilit": 5985, "Ġrevenue": 5986, "Ġfra": 5987, "Ġfilled": 5988, "Ġdiscussed": 5989, "ĠSee": 5990, "ĠDirector": 5991, "unction": 5992, "ora": 5993, "Ġprin": 5994, "Ġcomed": 5995, "Ġapprox": 5996, "angers": 5997, "Ġresident": 5998, "Ġaf": 5999, "uls": 6000, "En": 6001, "Ġsevere": 6002, "ĠHol": 6003, "ERS": 6004, "Ġwarm": 6005, "Ġsquad": 6006, "Ġourselves": 6007, "Ġcompleted": 6008, "Ġbare": 6009, "Ġargue": 6010, "Ġarmed": 6011, "Ġaccepted": 6012, "ĠWild": 6013, "ĠAsia": 6014, "ampion": 6015, "Ġnecessarily": 6016, "Ġinjuries": 6017, "Ġgiant": 6018, "Ġdoctor": 6019, "ĠSteve": 6020, "ĠJews": 6021, "ĠExp": 6022, "Ġauth": 6023, "ĠBlue": 6024, "utation": 6025, "omin": 6026, "mond": 6027, "Ġtypically": 6028, "ĠiPhone": 6029, "Ġfilms": 6030, "ĠWood": 6031, "ĠBur": 6032, "ĠBoy": 6033, "ourney": 6034, "esome": 6035, "Ġaccompl": 6036, "ãĤ": 6037, "andal": 6038, "TS": 6039, "Ġreference": 6040, "Ġprompt": 6041, "Ġpatient": 6042, "Ġjoint": 6043, "Ġcrack": 6044, "ht": 6045, "Ġgang": 6046, "Ġconsistent": 6047, "Ġconnected": 6048, "ĠOhio": 6049, "ette": 6050, "essor": 6051, "Ġmoral": 6052, "Ġfavour": 6053, "Ġcontains": 6054, "rid": 6055, "Ġske": 6056, "Ġobjects": 6057, "Ġlaugh": 6058, "Ġinterpret": 6059, "Ġdebut": 6060, "During": 6061, "77": 6062, "ĠSwed": 6063, "ĠShow": 6064, "Ġresolution": 6065, "Ġconfident": 6066, "ĠYet": 6067, "ĠDallas": 6068, "phy": 6069, "orders": 6070, "oming": 6071, "aza": 6072, "Tube": 6073, "Ġsuc": 6074, "Ġreaders": 6075, "Ġoffense": 6076, "Ġbatt": 6077, "ĪĴ": 6078, "ii": 6079, "Ġtech": 6080, "Ġbehavi": 6081, "ĠIsland": 6082, "erves": 6083, "Other": 6084, "##": 6085, "Ġphen": 6086, "Ġdogs": 6087, "ĠRon": 6088, "ĠPenn": 6089, "ĠLake": 6090, "ĠIreland": 6091, "opy": 6092, "Ġzone": 6093, "Ġwarned": 6094, "Ġdial": 6095, "Ġbond": 6096, "ĠGM": 6097, "care": 6098, "Ġtun": 6099, "Ġproceed": 6100, "Ġmagazine": 6101, "Ġattempts": 6102, "ĠProject": 6103, "ĠKorean": 6104, "mission": 6105, "Ġsought": 6106, "Ġeffectively": 6107, "ĠTechn": 6108, "ĠPri": 6109, "ĠClass": 6110, "cons": 6111, "Dam": 6112, "Ġrestaurant": 6113, "ĠGen": 6114, "ĠColorado": 6115, "iger": 6116, "Ġsister": 6117, "Ġguide": 6118, "Over": 6119, "Ġpray": 6120, "Ġmovies": 6121, "Ġeditor": 6122, "Ġdelay": 6123, "Ġcrimes": 6124, "Ġclassic": 6125, "ĠMuslims": 6126, "ĠHome": 6127, "ĠAmazon": 6128, "Ġplane": 6129, "Ġnearby": 6130, "Ġlawsuit": 6131, "Ġarchitect": 6132, "ĠCatholic": 6133, "ĠBook": 6134, "Ġreceiving": 6135, "Ġenemies": 6136, "Ġemphas": 6137, "Ġcloud": 6138, "ĠRel": 6139, "ĠOregon": 6140, "Ġ2002": 6141, "Ġrot": 6142, "Ġconfig": 6143, "ĠMount": 6144, "respond": 6145, "otic": 6146, "nell": 6147, "American": 6148, "long": 6149, "ORE": 6150, "Ġvalid": 6151, "ĠFollow": 6152, "orry": 6153, "Ġstorm": 6154, "Ġongoing": 6155, "Ġlabel": 6156, "Ġchain": 6157, "Ġapps": 6158, "ĠTra": 6159, "whel": 6160, "arden": 6161, "abb": 6162, "Ġrepresents": 6163, "Ġexplains": 6164, "Ġclosely": 6165, "ĠRad": 6166, "vey": 6167, "06": 6168, "Ġyesterday": 6169, "Ġsubsid": 6170, "Ġspons": 6171, "Ġshots": 6172, "ĠValley": 6173, "ĠRam": 6174, "sts": 6175, "fire": 6176, "Ġheads": 6177, "Ġdefault": 6178, "ĠPakistan": 6179, "ĠNY": 6180, "ĠKim": 6181, "De": 6182, ",[": 6183, "Ġtournament": 6184, "Ġlisted": 6185, "ĠDC": 6186, "zona": 6187, "Ġmulti": 6188, "Ġmonit": 6189, "Ġhttps": 6190, "Ġflo": 6191, "Ġcolleagues": 6192, "Ġannouncement": 6193, "ĠGuard": 6194, "Ġmyster": 6195, "Ġmort": 6196, "Ġadds": 6197, "Ġactivists": 6198, "eration": 6199, "dule": 6200, "Although": 6201, "Ġthinks": 6202, "Ġquarterback": 6203, "Ġfort": 6204, "Ġapplied": 6205, "ĠSystem": 6206, "ĠImage": 6207, "ĠArch": 6208, "pire": 6209, "ellow": 6210, "Ġoptim": 6211, "Ġnetworks": 6212, "Ġexpansion": 6213, "ns": 6214, "Ġthoughts": 6215, "Ġpure": 6216, "Ġconsequences": 6217, "Ġcook": 6218, "ĠLove": 6219, "stood": 6220, "igg": 6221, "Ġdecre": 6222, "Ġadvanced": 6223, "izz": 6224, "App": 6225, "Ġtrick": 6226, "Ġprohib": 6227, "Ġbright": 6228, "ĠJackson": 6229, "Ġtiny": 6230, "Ġfill": 6231, "Ġeval": 6232, "Ġweather": 6233, "Ġsongs": 6234, "Ġskill": 6235, "Ġdeclined": 6236, "yth": 6237, "evin": 6238, "etroit": 6239, "Ind": 6240, "Ġpractices": 6241, "Ġpra": 6242, "Ġenh": 6243, "Ġboys": 6244, "irds": 6245, "abin": 6246, "88": 6247, "Ġtree": 6248, "Ġcooper": 6249, "ita": 6250, "OC": 6251, "Ġresc": 6252, "Ġlinked": 6253, "Ġimproved": 6254, "Ġexamples": 6255, "agers": 6256, "Ġintention": 6257, "Ġcere": 6258, "enda": 6259, "UL": 6260, "09": 6261, "Ġconfirm": 6262, "Ġcoast": 6263, "Ġabandon": 6264, "ĠWik": 6265, "ĠStan": 6266, "ĠEll": 6267, "def": 6268, "certain": 6269, "Ġunlikely": 6270, "Ġmaterials": 6271, "Ġguns": 6272, "Ġessentially": 6273, "Ġatmosp": 6274, "ĠPrem": 6275, "ĠGra": 6276, "arters": 6277, "May": 6278, "Ġrelevant": 6279, "Ġrally": 6280, "Ġnations": 6281, "Ġcheap": 6282, "ĠToday": 6283, "ĠBack": 6284, "Ġwave": 6285, "Ġtransition": 6286, "Ġteachers": 6287, "Ġsick": 6288, "Ġalt": 6289, "SS": 6290, "Ġwins": 6291, "Ġfunctions": 6292, "Ġconsumer": 6293, "Ġblow": 6294, "ĠPhot": 6295, "ĠIN": 6296, "ĠDNA": 6297, "ĠBrook": 6298, "chen": 6299, "0000": 6300, "Ġvolunte": 6301, "Ġmoments": 6302, "Ġmagn": 6303, "Ġalcohol": 6304, "ĠGrand": 6305, "mes": 6306, "Ġmir": 6307, "Ġinvestors": 6308, "ĠTurn": 6309, "ĠEach": 6310, "Ġid": 6311, "twitter": 6312, "ras": 6313, "acle": 6314, "Ġrail": 6315, "ati": 6316, "64": 6317, "Ġsucceed": 6318, "Ġnative": 6319, "Ġinjured": 6320, "Ġholds": 6321, "Ġcampus": 6322, "ĠSeattle": 6323, "orse": 6324, "can": 6325, "________________": 6326, "Ġinstitutions": 6327, "Ġcann": 6328, "Ġacknowled": 6329, "ĠAnother": 6330, "usal": 6331, "https": 6332, "Ġsigning": 6333, "Ġrein": 6334, "uts": 6335, "Ġneither": 6336, "Ġdownt": 6337, "essions": 6338, "ansas": 6339, "07": 6340, "Ġroughly": 6341, "Ġmoves": 6342, "Ġdoctors": 6343, "Ġathlet": 6344, "ometimes": 6345, "Ġtotally": 6346, "Ġscheduled": 6347, "Ġrequirements": 6348, "ĠSign": 6349, "ollywood": 6350, "95": 6351, "ĠBrazil": 6352, "Ġ1980": 6353, "post": 6354, "itionally": 6355, "gas": 6356, "employ": 6357, "See": 6358, "Ġlie": 6359, "irty": 6360, "Ġsubsequ": 6361, "Ġpushed": 6362, "Ġhistorical": 6363, "Ġfrequently": 6364, "water": 6365, "acter": 6366, "Oh": 6367, "Ġsurprised": 6368, "Ġreplaced": 6369, "Ġremote": 6370, "iques": 6371, "Ġallegedly": 6372, "ĠSky": 6373, "Ġing": 6374, "redit": 6375, "oken": 6376, "Ġsees": 6377, "Ġrum": 6378, "Ġimmediate": 6379, "Ġessential": 6380, "ĠMs": 6381, "Ġyounger": 6382, "Ġsomewhat": 6383, "Ġimportance": 6384, "Ġexpression": 6385, "Ġdealing": 6386, "ĠAfghanistan": 6387, "rating": 6388, "cow": 6389, "Most": 6390, "Ġrub": 6391, "Ġmayor": 6392, "Ġcauses": 6393, "ĠChristmas": 6394, "icious": 6395, "gery": 6396, "enture": 6397, "Ġwalking": 6398, "Ġrape": 6399, "ĠHist": 6400, "ĠFord": 6401, "ĠAT": 6402, "word": 6403, "tion": 6404, "power": 6405, "alo": 6406, "Ġsand": 6407, "Ġrising": 6408, "Ġpled": 6409, "Ġvice": 6410, "Ġearned": 6411, "Ġdatab": 6412, "Ġarticles": 6413, "oked": 6414, "avig": 6415, "ato": 6416, "Ġsurveillance": 6417, "Ġopposite": 6418, "ĠSecond": 6419, "Ġ36": 6420, "Ġhoping": 6421, "Ġfairly": 6422, "ĠWork": 6423, "woman": 6424, "ols": 6425, "ala": 6426, "John": 6427, "AF": 6428, "Ġstudio": 6429, "Ġfundamental": 6430, "Ġcontest": 6431, "Ġbrings": 6432, "ĠNBA": 6433, "Ġinstru": 6434, "Ġfish": 6435, "Ġbull": 6436, "Ġanywhere": 6437, "itar": 6438, "friend": 6439, "Ġwaste": 6440, "Ġdescribe": 6441, "Ġattempted": 6442, "ĠYear": 6443, "ologist": 6444, "Ġunus": 6445, "Ġsky": 6446, "Ġremark": 6447, "Ġconfront": 6448, "Ġbattery": 6449, "uy": 6450, "oking": 6451, "athan": 6452, "Ġsplit": 6453, "Ġformed": 6454, "Ġfolks": 6455, "Ġexplo": 6456, "ĠAnn": 6457, "Ġ49": 6458, "Ġopponents": 6459, "Ġembr": 6460, "ocratic": 6461, "hips": 6462, "born": 6463, "Ġprotests": 6464, "Ġfacility": 6465, "ĠConstitution": 6466, "41": 6467, "Ġtransp": 6468, "Ġshif": 6469, "Ġselected": 6470, "Ġisol": 6471, "ĠTal": 6472, "ĠSaudi": 6473, "ĠOpen": 6474, "you": 6475, "foot": 6476, "cho": 6477, "Ġwire": 6478, "Ġurban": 6479, "Ġdetailed": 6480, "Ġartist": 6481, "ÑĮ": 6482, "uable": 6483, "Ġtemperature": 6484, "Ġexcellent": 6485, "Ġcreation": 6486, "Ġ33": 6487, "Ġchannel": 6488, "ĠVict": 6489, "iveness": 6490, "cur": 6491, "Ġhighlight": 6492, "Ġharder": 6493, "Ġfollows": 6494, "Ġexplan": 6495, "Ġexercise": 6496, "Ġentered": 6497, "ĠDevelop": 6498, "ĠArizona": 6499, "adel": 6500, "FF": 6501, "Ġsurrounding": 6502, "Ġposts": 6503, "ĠMax": 6504, "fortunately": 6505, "aylor": 6506, "85": 6507, "Ġinvolving": 6508, "Ġdu": 6509, "Ġcondem": 6510, "ĠTO": 6511, "ĠNAT": 6512, "oma": 6513, "Ġsuffering": 6514, "Ġheavily": 6515, "ĠSov": 6516, "ĠForce": 6517, "Ġmechanism": 6518, "Ġcrash": 6519, "Ġcomfortable": 6520, "Ġbuying": 6521, "Ġbag": 6522, "ĠSpace": 6523, "ĠMiller": 6524, "ĠDisney": 6525, "Ġwithd": 6526, "Ġthreats": 6527, "Ġterrorism": 6528, "Ġsquare": 6529, "Ġregulations": 6530, "Ġphilosoph": 6531, "Ġparliament": 6532, "Ġmarketing": 6533, "Ġfranch": 6534, "Ġauthors": 6535, "ĠIts": 6536, "ĠDun": 6537, "pex": 6538, "http": 6539, "Ġstood": 6540, "Ġrelationships": 6541, "Ġplayoff": 6542, "Ġmanufacture": 6543, "Ġlatter": 6544, "Ġillust": 6545, "Ġfighters": 6546, "Ġcircumstances": 6547, "ĠDetroit": 6548, "ulous": 6549, "ĠHel": 6550, "ellect": 6551, "People": 6552, "Add": 6553, "Ġknowing": 6554, "ĠWhe": 6555, "300": 6556, "alty": 6557, "alle": 6558, "Ġmanage": 6559, "Ġkinds": 6560, "Ġfashion": 6561, "Ġdegrees": 6562, "Ġchart": 6563, "Ġactor": 6564, "ĠEnergy": 6565, "Ġtrib": 6566, "Ġscheme": 6567, "Ġforth": 6568, "Ġexhib": 6569, "Ġemotional": 6570, "ĠScotland": 6571, "Ġpushing": 6572, "Ġcreative": 6573, "Ġwarning": 6574, "Ġlies": 6575, "Ġinput": 6576, "ĠYouTube": 6577, "Ñĭ": 6578, "Ġcommunication": 6579, "Ġcausing": 6580, "ĠLife": 6581, "ceived": 6582, "Ġflood": 6583, "Ġcert": 6584, "ĠCub": 6585, "ĠCast": 6586, "âĢ¦âĢ¦âĢ¦âĢ¦": 6587, "Ġvirtual": 6588, "Ġsentence": 6589, "Ġprotesters": 6590, "Ġoverwhel": 6591, "nam": 6592, "hus": 6593, "Ġnarrow": 6594, "Ġunl": 6595, "Ġscored": 6596, "Ġempt": 6597, "Ġcoffee": 6598, "Ġbreaking": 6599, "inem": 6600, "Ġwatched": 6601, "Ġunknown": 6602, "Ġstores": 6603, "Ġmouth": 6604, "Ġfeatured": 6605, "Ġadults": 6606, "ĠTeam": 6607, "ĠHun": 6608, "Ġliterally": 6609, "Ġincor": 6610, "Ġalongside": 6611, "Ġabortion": 6612, "ĠWars": 6613, "Ġsharing": 6614, "Î·": 6615, "erate": 6616, "Ġtruck": 6617, "Ġradical": 6618, "ĠEric": 6619, "ighter": 6620, "Then": 6621, "Ġmetal": 6622, "Ġindustrial": 6623, "Ġcombination": 6624, "ĠSC": 6625, "Ġversions": 6626, "Ġmine": 6627, "Ġexistence": 6628, "Ġdivision": 6629, "ĠSar": 6630, "ĠRights": 6631, "ĠBarack": 6632, "ĠMaybe": 6633, "ĠBat": 6634, "ÏĤ": 6635, "iform": 6636, "Ġstream": 6637, "Ġkit": 6638, "Ġhardware": 6639, "Ġcarrying": 6640, "Ġbon": 6641, "66": 6642, "Ġvolume": 6643, "Ġdeck": 6644, "ĠRev": 6645, "ĠOnly": 6646, "pool": 6647, "ller": 6648, "ideo": 6649, "Click": 6650, "Ġsimpl": 6651, "Ġprofile": 6652, "Ġinspired": 6653, "Ġheight": 6654, "Ġflu": 6655, "ĠBoard": 6656, "Ġphenomen": 6657, "Ġbasket": 6658, "Ġble": 6659, "ĠRoman": 6660, "ĠElect": 6661, "Ġextent": 6662, "Ġacts": 6663, "ĠInf": 6664, "sembly": 6665, "ker": 6666, "greg": 6667, "boy": 6668, "Ġwinner": 6669, "Ġrisks": 6670, "Ġpromote": 6671, "Ġbat": 6672, "ĠAsian": 6673, "ĠAvenue": 6674, "raid": 6675, "lines": 6676, "Ġlicense": 6677, "Ġconcent": 6678, "Ġapproval": 6679, "Ġ[+": 6680, "ĠDie": 6681, "Ïģ": 6682, "ouston": 6683, "ockey": 6684, "erences": 6685, "Ġrepeatedly": 6686, "Ġfemin": 6687, "ĠWalk": 6688, "kel": 6689, "iscons": 6690, "ca": 6691, "Damage": 6692, "====": 6693, "Ġwinter": 6694, "Ġrecognize": 6695, "Ġdeaths": 6696, "ĠYoung": 6697, "ĠWomen": 6698, "ena": 6699, "atell": 6700, "Two": 6701, "Ġattacked": 6702, "isconsin": 6703, "iner": 6704, "hetic": 6705, "04": 6706, "Ġstorage": 6707, "Ġsomebody": 6708, "Ġmistake": 6709, "Ġcorrespond": 6710, "ĠConservative": 6711, "umber": 6712, "Ġregional": 6713, "Ġparking": 6714, "Ġlock": 6715, "ĠKurd": 6716, "ules": 6717, "Ġnorthern": 6718, "ĠStephen": 6719, "Post": 6720, "Ġupcoming": 6721, "Ġreturns": 6722, "Ġprecise": 6723, "ĠAff": 6724, "Ġ1999": 6725, "onymous": 6726, "Ġflag": 6727, "Ġefficient": 6728, "Ġeast": 6729, "Ġdiagn": 6730, "Ġalive": 6731, "ĠTop": 6732, "ĠEnter": 6733, "efully": 6734, "bar": 6735, "alian": 6736, "Man": 6737, "Ġintent": 6738, "Ġgrown": 6739, "Ġfee": 6740, "ĠLight": 6741, "verty": 6742, "utch": 6743, "pie": 6744, "oration": 6745, "Ġtypical": 6746, "Ġjourney": 6747, "Ġexperim": 6748, "Ġdefence": 6749, "Ġdeleg": 6750, "Ĥ¬": 6751, "arsh": 6752, "aun": 6753, "Ġsyn": 6754, "Ġgod": 6755, "Ġfraud": 6756, "Ġancient": 6757, "Despite": 6758, "Ġselection": 6759, "Ġdepth": 6760, "Ġcurrency": 6761, "Mar": 6762, "Ġpoverty": 6763, "Ġmatches": 6764, "Ġhousehold": 6765, "Ġdeeply": 6766, "Ġanyway": 6767, "ĠStand": 6768, "ĠMot": 6769, "ĠGall": 6770, "ĠCamer": 6771, "sm": 6772, "rence": 6773, "iciency": 6774, "Ġstim": 6775, "Ġsav": 6776, "Ġreporter": 6777, "Ġprotected": 6778, "Ġincreases": 6779, "Ġimpressive": 6780, "ĠWin": 6781, "olve": 6782, "ogan": 6783, "Ġadapt": 6784, "osis": 6785, "Ġpromise": 6786, "Ġharass": 6787, "Ġdedicated": 6788, "Ġcustomer": 6789, "ĠRight": 6790, "ĠPalestinian": 6791, "hem": 6792, "aze": 6793, "Te": 6794, "Pol": 6795, "Ġwake": 6796, "Ġmanner": 6797, "Ġexposed": 6798, "Ġlocations": 6799, "Ġchampion": 6800, "ĠIrish": 6801, "ĠID": 6802, "rors": 6803, "rich": 6804, "ooth": 6805, "mitted": 6806, "ingu": 6807, "anges": 6808, "Ġzero": 6809, "Ġtort": 6810, "Ġproperties": 6811, "Ġdefined": 6812, "Ġdecline": 6813, "Ġsnow": 6814, "Ġreferred": 6815, "Ġhat": 6816, "Ġassistant": 6817, "ĠSteven": 6818, "pected": 6819, "ĠCIA": 6820, "print": 6821, "Ġupdated": 6822, "Ġserving": 6823, "Ġproved": 6824, "Ġmob": 6825, "Ġhabit": 6826, "Ġformal": 6827, "Ġexciting": 6828, "Ġevolution": 6829, "Ġcycle": 6830, "Ġcompetitive": 6831, "Ġallies": 6832, "ĠMoscow": 6833, "ĠHollywood": 6834, "ĠAdam": 6835, "rong": 6836, "intend": 6837, "CE": 6838, "Ġvari": 6839, "Ġunderstood": 6840, "Ġtopic": 6841, "Ġbug": 6842, "ĠNS": 6843, "arring": 6844, "Ġphotograph": 6845, "Ġmilk": 6846, "Ġhel": 6847, "Ġfinds": 6848, "Ġelectricity": 6849, "Ġconver": 6850, "Ġblame": 6851, "Ġbid": 6852, "sea": 6853, "nic": 6854, "mpt": 6855, "Pr": 6856, "ĠÐ¿": 6857, "Ġstronger": 6858, "Ġstrange": 6859, "Ġoutput": 6860, "Ġfees": 6861, "Ġexplore": 6862, "ildren": 6863, "anish": 6864, "Ġtested": 6865, "Ġmanip": 6866, "Ġimmigrants": 6867, "Ġeating": 6868, "luding": 6869, "inding": 6870, "gent": 6871, "Ġusual": 6872, "Ġterrible": 6873, "Ġlikes": 6874, "Ġideal": 6875, "Ġdozen": 6876, "Ġchairman": 6877, "Ġaside": 6878, "ĠId": 6879, "ĠDown": 6880, "ĠDark": 6881, "west": 6882, "ordan": 6883, "Donald": 6884, "Ġrefugees": 6885, "Ġpregn": 6886, "Ġmainstream": 6887, "Ġjournalists": 6888, "Ġfasc": 6889, "Ġaggressive": 6890, "ĠCharles": 6891, "amily": 6892, "Ġsuicide": 6893, "Ġobtained": 6894, "Ġbear": 6895, "ĠKh": 6896, "asts": 6897, "Int": 6898, "Ġpounds": 6899, "Ġpic": 6900, "Ġofficially": 6901, "Ġdeals": 6902, "Ġcompens": 6903, "ĠPolit": 6904, "ĠGames": 6905, "onna": 6906, "amm": 6907, "acking": 6908, "Ġproperly": 6909, "Ġphase": 6910, "Ġpassion": 6911, "Ġlinks": 6912, "zy": 6913, "ulture": 6914, "Ġsending": 6915, "Ġencourage": 6916, "Ġelsewhere": 6917, "Ġdiscover": 6918, "Ġapproximately": 6919, "ĠOld": 6920, "ĠDavis": 6921, "ĠCard": 6922, "rations": 6923, "68": 6924, "Ġowned": 6925, "Ġmurd": 6926, "Ġdistribution": 6927, "Ġdemocracy": 6928, "Ġcongress": 6929, "ĠJesus": 6930, "ĠAuthor": 6931, "Ñı": 6932, "chain": 6933, "cia": 6934, "Ġterritory": 6935, "Ġschedule": 6936, "Ġproof": 6937, "Ġoblig": 6938, "Ġdefinition": 6939, "Ġconcluded": 6940, "Ġanswers": 6941, "ĠLong": 6942, "ĠHuman": 6943, "anny": 6944, "Ed": 6945, "08": 6946, "Ġdesper": 6947, "ĠThank": 6948, "ĠHenry": 6949, "{\"": 6950, "game": 6951, "Ġtermin": 6952, "Ġtargeted": 6953, "Ġstring": 6954, "Ġcritics": 6955, "Ġassets": 6956, "ĠTH": 6957, "ĠFar": 6958, "ĠAgain": 6959, "Ġoutcome": 6960, "Ġagenda": 6961, "ĠDespite": 6962, "ĠDiv": 6963, "ÐµÐ": 6964, "iami": 6965, "etts": 6966, "esc": 6967, "Any": 6968, "Ġsurgery": 6969, "Ġputs": 6970, "Ġnewslet": 6971, "Ġcontrolled": 6972, "ĠSum": 6973, "Ġ48": 6974, "Ġicon": 6975, ".\"[": 6976, "Ġsituations": 6977, "Ġfacilities": 6978, "Ġaudio": 6979, "ĠJudge": 6980, "sex": 6981, "burg": 6982, "Ġtow": 6983, "Ġescape": 6984, "Ġclar": 6985, "ĠTit": 6986, "PU": 6987, "Ġthreatened": 6988, "Ġriver": 6989, "Ġhonor": 6990, "Ġemployee": 6991, "ĠKn": 6992, "awa": 6993, "Ġreasonable": 6994, "Ġpromised": 6995, "Ġisland": 6996, "Ġhotel": 6997, "Ġhall": 6998, "Ġevil": 6999, "Ġconven": 7000, "ĠWisconsin": 7001, "ĠSoviet": 7002, "ĠPR": 7003, "uine": 7004, "Ġextended": 7005, "Ġchose": 7006, "Ġbunch": 7007, "Ġacting": 7008, "pan": 7009, "Ġfounder": 7010, "Ġfixed": 7011, "gor": 7012, "axy": 7013, "ads": 7014, "78": 7015, "ĠSeries": 7016, "otal": 7017, "opher": 7018, "ira": 7019, "aug": 7020, "Ġwest": 7021, "Ġpurs": 7022, "Ġperfectly": 7023, "Ġcontroversial": 7024, "Ġattended": 7025, "ĠPen": 7026, "ĠLord": 7027, "Ġsight": 7028, "Ġprominent": 7029, "Ġemissions": 7030, "Ġcomparison": 7031, "ĠUt": 7032, "ĠNASA": 7033, "otes": 7034, "03": 7035, "Ġsugar": 7036, "Ġstruck": 7037, "Ġpayments": 7038, "Ġoperate": 7039, "Ġcaptured": 7040, "ĠMayor": 7041, "ĠISIS": 7042, "Ġ1970": 7043, "wan": 7044, "opping": 7045, "ivalent": 7046, "Ġwalked": 7047, "Ġrealized": 7048, "Ġdestroyed": 7049, "Ġartists": 7050, "ĠEduc": 7051, "Ġtheme": 7052, "Ġties": 7053, "Ġslowly": 7054, "Ġregularly": 7055, "ĠThough": 7056, "Ġretain": 7057, "Ġlawyers": 7058, "Ġhits": 7059, "ĠCompany": 7060, "ether": 7061, "Like": 7062, "Ġpermanent": 7063, "Ġped": 7064, "Ġlimits": 7065, "Ġgenerate": 7066, "Ġflex": 7067, "Ġending": 7068, "Ġdrinking": 7069, "Ġconstantly": 7070, "ĠSociety": 7071, "ĠCross": 7072, "ĠBuff": 7073, "igen": 7074, "Ġsouthern": 7075, "Ġkil": 7076, "ĠBrad": 7077, "lete": 7078, "era": 7079, "Ġwriters": 7080, "Ġspin": 7081, "Ġsomewhere": 7082, "Ġrival": 7083, "Ġpropag": 7084, "Ġflying": 7085, "ĠPay": 7086, "ĠDefense": 7087, "tle": 7088, "mann": 7089, "ml": 7090, "cers": 7091, "azi": 7092, "Ġshield": 7093, "Ġru": 7094, "Ġnarr": 7095, "Ġhouses": 7096, "Ġ34": 7097, "ocation": 7098, "Ġsweet": 7099, "Ġliqu": 7100, "Ġking": 7101, "Ġfunny": 7102, "Ġarguments": 7103, "Ġaimed": 7104, "Ġaccurate": 7105, "ĠTurk": 7106, "bel": 7107, "Ġtrading": 7108, "Ġpolls": 7109, "Ġcolon": 7110, "ĠGeorgia": 7111, "Ġstretch": 7112, "Ġsomehow": 7113, "ĠWay": 7114, "ĠHouston": 7115, "nesota": 7116, "ko": 7117, "itarian": 7118, "Ġupper": 7119, "Ġsanctions": 7120, "Ġsoul": 7121, "Ġrejected": 7122, "Ġpayment": 7123, "Ġparticipants": 7124, "ĠSea": 7125, "ĠNetwork": 7126, "ĠLu": 7127, "ĠKelly": 7128, "ĠAC": 7129, "uated": 7130, "sters": 7131, "58": 7132, "Ġshel": 7133, "Ġresulting": 7134, "Ġcomprom": 7135, "ĠAdminist": 7136, "uan": 7137, "MP": 7138, "II": 7139, "Ġreward": 7140, "Ġprimarily": 7141, "Ġfields": 7142, "ĠCle": 7143, "ĠAttorney": 7144, "ashes": 7145, "Ġconclusion": 7146, "ĠPan": 7147, "ĠLew": 7148, "rep": 7149, "EA": 7150, "Ġworried": 7151, "Ġtrees": 7152, "Ġsupports": 7153, "Ġmerely": 7154, "Ġdisag": 7155, "ĠMS": 7156, "unes": 7157, "Ġsin": 7158, "Ġestate": 7159, "Ġdress": 7160, "Ġanx": 7161, "ĠOs": 7162, "Ġ38": 7163, "Ġwheel": 7164, "Ġdefeat": 7165, "Ġawesome": 7166, "ĠMic": 7167, "avor": 7168, "Ġwelcome": 7169, "Ġfuck": 7170, "Ġcontributed": 7171, "Ġcontinuing": 7172, "Ġbrowser": 7173, "ĠMen": 7174, "ushed": 7175, "ensus": 7176, "PLET": 7177, "Ġsuddenly": 7178, "Ġstrongly": 7179, "Ġpod": 7180, "Ġchoices": 7181, "Ġcable": 7182, "irms": 7183, "ALE": 7184, "98": 7185, "Ġtestim": 7186, "Ġsample": 7187, "Ġraising": 7188, "Ġorders": 7189, "Ġjury": 7190, "Ġgenuine": 7191, "dro": 7192, "Ġpunish": 7193, "Ġmaximum": 7194, "Ġintellect": 7195, "Ġincredibly": 7196, "Ġhur": 7197, "Ġbench": 7198, "ĠKevin": 7199, "weight": 7200, "ifications": 7201, "Ġwestern": 7202, "Ġmixed": 7203, "Ġinfect": 7204, "Ġimper": 7205, "Ġfewer": 7206, "Ġdrawn": 7207, "Ġconscious": 7208, "ĠSpain": 7209, "world": 7210, "tes": 7211, "lan": 7212, "ervatives": 7213, "Ġshell": 7214, "Ġregistered": 7215, "Ġpurposes": 7216, "Ġheaded": 7217, "Ġdecent": 7218, "Ġclaiming": 7219, "Ġaspects": 7220, "ĠPortland": 7221, "owered": 7222, "Or": 7223, "NC": 7224, "Getty": 7225, "Ġvillage": 7226, "Ġunw": 7227, "Ġconstit": 7228, "57": 7229, "Ġtied": 7230, "Ġplastic": 7231, "Ġdatabase": 7232, "Ġbusy": 7233, "ĠTaylor": 7234, "thew": 7235, "Ġpal": 7236, "Ġincredible": 7237, "Ġbaseball": 7238, "Ġbath": 7239, "ums": 7240, "ihad": 7241, "Ġruled": 7242, "Ġcomponent": 7243, "ĠWater": 7244, "ĠMiami": 7245, "ĠContin": 7246, "owed": 7247, "Ġuniverse": 7248, "Ġrig": 7249, "Ġcomplaint": 7250, "lights": 7251, "icken": 7252, "ensity": 7253, "Ġsolutions": 7254, "Ġchosen": 7255, "ĠCall": 7256, "uilding": 7257, "olen": 7258, "ima": 7259, "aser": 7260, "Ġrequests": 7261, "Ġpersonally": 7262, "Ġgap": 7263, "Ġcup": 7264, "Ġamounts": 7265, "ĠFre": 7266, "ĠField": 7267, "ĠAmendment": 7268, "Ġvaluable": 7269, "Ġsustain": 7270, "Ġitem": 7271, "Ġinformed": 7272, "Ġdriven": 7273, "ĠSupp": 7274, "ĠHom": 7275, "uce": 7276, "rete": 7277, "OD": 7278, "Ġfootage": 7279, "Ġfake": 7280, "Ġencoun": 7281, "ĠRay": 7282, "ĠLand": 7283, "ĠDaniel": 7284, "zens": 7285, "itors": 7286, "gender": 7287, "02": 7288, "Ġprofit": 7289, "Ġpossession": 7290, "cript": 7291, "Ġmagic": 7292, "Ġfalling": 7293, "Ġcomplicated": 7294, "rimination": 7295, "COMPLET": 7296, "ĠNote": 7297, "ĠDead": 7298, "ĠBell": 7299, "ĠAgency": 7300, "log": 7301, "Ġteaching": 7302, "Ġroutine": 7303, "Ġnoticed": 7304, "Ġhidden": 7305, "ĠNATO": 7306, "list": 7307, "idency": 7308, "Ġwal": 7309, "Ġinnoc": 7310, "Ġfeaturing": 7311, "Ġempty": 7312, "Ġdirected": 7313, "ĠPS": 7314, "ĠMinnesota": 7315, "ĠHy": 7316, "Ġ400": 7317, "PC": 7318, "COMPLETED": 7319, "Ġsignal": 7320, "Ġring": 7321, "Ġpilot": 7322, "Ġfinger": 7323, "Ġegg": 7324, "Ġdowntown": 7325, "Ġassistance": 7326, "Ġassume": 7327, "ĠOper": 7328, "ĠJersey": 7329, "Ġ150": 7330, "Ġretire": 7331, "Ġprocesses": 7332, "Ġblocks": 7333, "Ġatmosphere": 7334, "ĠVan": 7335, "ĠDev": 7336, "ĠAcadem": 7337, "arry": 7338, "adelph": 7339, "UR": 7340, "Inst": 7341, "Fr": 7342, "EW": 7343, "Ġreputation": 7344, "Ġgranted": 7345, "Ġfeelings": 7346, "Ġextensive": 7347, "Ġduty": 7348, "Ġdry": 7349, "Ġads": 7350, "ĠDi": 7351, "âĢĻ.": 7352, "kl": 7353, "inois": 7354, "imm": 7355, "',": 7356, "Ġvulnerable": 7357, "Ġnewly": 7358, "Ġgotten": 7359, "Ġexcess": 7360, "Ġenthus": 7361, "ĠNSA": 7362, "ĠLabor": 7363, "67": 7364, "Ġveget": 7365, "Ġunusual": 7366, "Ġunp": 7367, "Ġstuck": 7368, "Ġfifth": 7369, "Ġcutting": 7370, "ĠWat": 7371, "ciples": 7372, "Ġtaught": 7373, "Ġphr": 7374, "Ġoverse": 7375, "Ġorganized": 7376, "Ġletters": 7377, "Ġjournalist": 7378, "ĠSpanish": 7379, "ĠFort": 7380, "ĠCam": 7381, "abis": 7382, "Ġstruggling": 7383, "Ġstrict": 7384, "Ġoverl": 7385, "Ġindex": 7386, "Ġcourts": 7387, "Ġbridge": 7388, "leveland": 7389, "Ġwid": 7390, "Ġportion": 7391, "ĠNHL": 7392, "rator": 7393, "ospex": 7394, "ba": 7395, "Col": 7396, "Ġthread": 7397, "Ġsatell": 7398, "Ġrelief": 7399, "Ġplotospex": 7400, "Ġnobody": 7401, "Ġarmor": 7402, "ĠJac": 7403, "ĠCruz": 7404, "ura": 7405, "rates": 7406, "oric": 7407, "iana": 7408, "dis": 7409, "Yes": 7410, "Ġregions": 7411, "Ġneuro": 7412, "Ġmeat": 7413, "Ġbrew": 7414, "ĠTy": 7415, "ĠTest": 7416, "ĠColl": 7417, "lad": 7418, "ilarly": 7419, "Today": 7420, "Ġrecovery": 7421, "ĠServices": 7422, "ĠRus": 7423, "rary": 7424, "Ġsympt": 7425, "Ġparam": 7426, "Ġangry": 7427, "ĠFil": 7428, "cr": 7429, "adelphia": 7430, "Ġscenes": 7431, "Ġformat": 7432, "Ġengage": 7433, "Ġcompre": 7434, "ĠMoh": 7435, "ĠCivil": 7436, "Once": 7437, "Ġrepresented": 7438, "Ġfranchise": 7439, "Ġdrag": 7440, "Ġanymore": 7441, "ĠBull": 7442, "party": 7443, "essed": 7444, "Rel": 7445, "Because": 7446, "Ġobst": 7447, "ĠThanks": 7448, "ĠStill": 7449, "ĠSol": 7450, "otten": 7451, "inson": 7452, "ho": 7453, "Rec": 7454, "Mean": 7455, "ĠÐ½": 7456, "Ġcoordin": 7457, "ĠBru": 7458, "amsung": 7459, "ami": 7460, "Ġnegotiations": 7461, "Ġcontrols": 7462, "Ġcompete": 7463, "ĠVol": 7464, "ĠGreg": 7465, "fast": 7466, "********": 7467, "Ġshares": 7468, "Ġsaved": 7469, "Ġreturning": 7470, "Ġresistance": 7471, "Ġkeeps": 7472, "Ġinfl": 7473, "ĠZeal": 7474, "ĠWatch": 7475, "obs": 7476, "month": 7477, "Also": 7478, "Ġstations": 7479, "Ġentity": 7480, "Ġcomponents": 7481, "Ġcapture": 7482, "ĠSpecial": 7483, "ĠItaly": 7484, "Ġ75": 7485, "orted": 7486, "Ġwonderful": 7487, "Ġsole": 7488, "Ġaccomp": 7489, "ĠWhere": 7490, "Ġ39": 7491, "style": 7492, "oster": 7493, "osexual": 7494, "mont": 7495, "mate": 7496, "achus": 7497, "Off": 7498, "Ġworldwide": 7499, "Ġmedic": 7500, "Ġafraid": 7501, "ĠBrian": 7502, "vy": 7503, "ione": 7504, "aval": 7505, "Ġstructures": 7506, "Ġapartment": 7507, "ĠTake": 7508, "ĠReal": 7509, "isan": 7510, "Ġpaint": 7511, "Ġnarrative": 7512, "Ġinqu": 7513, "Ġdistinct": 7514, "Ġdemands": 7515, "Ġconstant": 7516, "Ġcrop": 7517, "Ġarrange": 7518, "ĠColumbia": 7519, "Ðº": 7520, "utral": 7521, "Ġvisited": 7522, "Ġtroub": 7523, "Ġstatistics": 7524, "Ġcrucial": 7525, "Ġcategory": 7526, "Ġadvis": 7527, "lla": 7528, "aturally": 7529, "Ob": 7530, "Ġtank": 7531, "Ġseats": 7532, "Ġscandal": 7533, "Ġhadn": 7534, "Ġgoods": 7535, "Ġcomplaints": 7536, "ĠRun": 7537, "ĠEducation": 7538, "yard": 7539, "idelines": 7540, "ez": 7541, "asks": 7542, "Police": 7543, "Ġveteran": 7544, "Ġtor": 7545, "Ġestimates": 7546, "Ġelite": 7547, "Ġcontained": 7548, "ĠKent": 7549, "Ïĥ": 7550, "mod": 7551, "izon": 7552, "aga": 7553, "abil": 7554, "BO": 7555, "Ġtoler": 7556, "Ġticket": 7557, "Ġsuccessfully": 7558, "Ġdisaster": 7559, "ĠRick": 7560, "ĠHit": 7561, "ouver": 7562, "eland": 7563, "celer": 7564, "athered": 7565, "VER": 7566, "Ġmainly": 7567, "Ġentit": 7568, "Ġdinner": 7569, "Ġcommunications": 7570, "Ġbail": 7571, "ĠSouthern": 7572, "ĠItalian": 7573, "ulating": 7574, "ographer": 7575, "acked": 7576, "Ġweird": 7577, "Ġloyal": 7578, "Ġinstalled": 7579, "Ġestablishment": 7580, "ĠPacific": 7581, "ĠDid": 7582, "achusetts": 7583, "Ġwarming": 7584, "Ġunemploy": 7585, "Ġrural": 7586, "Ġbacked": 7587, "ĠReagan": 7588, "ĠNations": 7589, "ĠEr": 7590, "ĠBest": 7591, "rific": 7592, "asters": 7593, "Sec": 7594, "Ġshortly": 7595, "Ġroster": 7596, "Ġpump": 7597, "Ġinev": 7598, "Ġexplicit": 7599, "Ġexception": 7600, "Ġequivalent": 7601, "ĠJordan": 7602, "ĠFair": 7603, "Ñĩ": 7604, "earing": 7605, "Ġprovince": 7606, "Ġnomine": 7607, "Ġfest": 7608, "Ġcorruption": 7609, "ĠVR": 7610, "ĠEconom": 7611, "ĠAD": 7612, "Ã¼": 7613, "po": 7614, "oria": 7615, "iti": 7616, "emen": 7617, "Ġobserv": 7618, "Ġforever": 7619, "Ġautomatically": 7620, "ĠFour": 7621, "ni": 7622, "eping": 7623, "engers": 7624, "cription": 7625, "MS": 7626, "Ġpool": 7627, "Ġpin": 7628, "Ġmarked": 7629, "Ġcontem": 7630, "ĠZealand": 7631, "ĠForeign": 7632, "ĠEastern": 7633, "Ġlanguages": 7634, "ĠFoot": 7635, "ugh": 7636, "lers": 7637, "Ġstadium": 7638, "Ġfirms": 7639, "Ġchances": 7640, "ĠGi": 7641, "ĠAustin": 7642, "ela": 7643, "ancouver": 7644, "Ġtracks": 7645, "Ġprepare": 7646, "Ġepisodes": 7647, "Ġ($": 7648, "va": 7649, "everal": 7650, "bro": 7651, "abs": 7652, "Ġuniform": 7653, "ĠOak": 7654, "Meanwhile": 7655, "Ġtechnologies": 7656, "Ġrarely": 7657, "Ġpersonnel": 7658, "Ġobserved": 7659, "Ġminority": 7660, "Ġcorporations": 7661, "star": 7662, "spec": 7663, "quarters": 7664, "oured": 7665, "59": 7666, "Ġenable": 7667, "Ġdeveloper": 7668, "Ġdescribes": 7669, "ĠPhiladelphia": 7670, "aron": 7671, "Ġtie": 7672, "Ġlosses": 7673, "Ġgift": 7674, "Ġengineering": 7675, "Ġcollected": 7676, "ĠNight": 7677, "ĠInvest": 7678, "gun": 7679, "Ġjudges": 7680, "ĠPremier": 7681, "ĠCoast": 7682, "ĠBowl": 7683, "rently": 7684, "apes": 7685, "ali": 7686, "Ġuncertain": 7687, "Ġtestimony": 7688, "Ġlaid": 7689, "Ġdim": 7690, "Ġcomputers": 7691, "ĠCleveland": 7692, "ogether": 7693, "hent": 7694, "gorith": 7695, "Ġincl": 7696, "Ġdepression": 7697, "Ġcited": 7698, "Ġacademic": 7699, "ĠTw": 7700, "Ġ42": 7701, "making": 7702, "----------------": 7703, "Ġupset": 7704, "Ġtag": 7705, "Ġpriority": 7706, "Ġgro": 7707, "Ġfounded": 7708, "Ġdepending": 7709, "Ġcrypt": 7710, "ĠHot": 7711, "owa": 7712, "lder": 7713, "Ġtur": 7714, "Ġstable": 7715, "Ġoffices": 7716, "Ġcounty": 7717, "Ġanticip": 7718, "ĠStone": 7719, "ĠJosh": 7720, "ĠDam": 7721, "ĠBefore": 7722, "ĠBusiness": 7723, "ifies": 7724, "Ġscenario": 7725, "Ġmyth": 7726, "Ġlawmakers": 7727, "Ġdiet": 7728, "Ġcyber": 7729, "ĠProgram": 7730, "ĠLy": 7731, "Ġ37": 7732, "Ġrating": 7733, "Ġfinance": 7734, "Ġextension": 7735, "Ġclubs": 7736, "ĠIllinois": 7737, "GBT": 7738, "AA": 7739, "Ġinterviews": 7740, "Ġgall": 7741, "Ġfantasy": 7742, "Ġcreates": 7743, "ĠTony": 7744, "ibilities": 7745, "apse": 7746, "Ġwage": 7747, "Ġtail": 7748, "Ġintense": 7749, "Ġeverywhere": 7750, "Ġengaged": 7751, "ĠTele": 7752, "ĠJava": 7753, "ĠGetty": 7754, "ï¼": 7755, "scape": 7756, "otype": 7757, "onance": 7758, "ja": 7759, "Com": 7760, "Ġwalls": 7761, "Ġpenalty": 7762, "ĠRen": 7763, "aire": 7764, "Ne": 7765, "Ġwarrant": 7766, "Ġsufficient": 7767, "Ġrobot": 7768, "Ġprogramming": 7769, "Ġloan": 7770, "Ġloud": 7771, "Ġdeliber": 7772, "ĠMexican": 7773, "ĠCro": 7774, "rimin": 7775, "iverpool": 7776, "ivery": 7777, "ĠGun": 7778, "itals": 7779, "inity": 7780, "force": 7781, "Ġregardless": 7782, "Ġrecording": 7783, "Ġpasses": 7784, "Ġflaw": 7785, "Ġcounsel": 7786, "ĠBeach": 7787, "umer": 7788, "rome": 7789, "onic": 7790, "Ġtechniques": 7791, "Ġsurvive": 7792, "Ġmeetings": 7793, "Ġfoundation": 7794, "Ġfold": 7795, "ĠCD": 7796, "inations": 7797, "SE": 7798, "ML": 7799, "Ġproducer": 7800, "Ġpace": 7801, "Ġexpectations": 7802, "Ġelev": 7803, "ĠAL": 7804, "Ġperpet": 7805, "Ġmarks": 7806, "Ġdollar": 7807, "Ġ1994": 7808, "iel": 7809, "Ġstrikes": 7810, "Ġles": 7811, "prise": 7812, "orough": 7813, "istent": 7814, "abama": 7815, "Ġvisible": 7816, "Ġinitiative": 7817, "Ġhole": 7818, "Ġbeliefs": 7819, "ĠLinux": 7820, "ĠÑģ": 7821, "ixed": 7822, "conf": 7823, "Ġnut": 7824, "Ġgaming": 7825, "Ġcivilians": 7826, "ĠMoore": 7827, "ĠCy": 7828, "who": 7829, "thony": 7830, "rous": 7831, "rators": 7832, "ependent": 7833, "afe": 7834, "ALEX": 7835, "56": 7836, "Ġstake": 7837, "Ġpipeline": 7838, "Ġgenerated": 7839, "Ġdiscussions": 7840, "Ġcoalition": 7841, "Ġbrut": 7842, "ĠCome": 7843, "da": 7844, "Ġsolve": 7845, "Ġfeedback": 7846, "Ġcro": 7847, "Ġadopted": 7848, "ĠView": 7849, "ĠOrgan": 7850, "writ": 7851, "Ġprote": 7852, "Ġfought": 7853, "ĠTem": 7854, "ĠFC": 7855, "viously": 7856, "uous": 7857, "raph": 7858, "enth": 7859, "Ġtitles": 7860, "Ġje": 7861, "Ġexists": 7862, "Ġannounce": 7863, "ĠAli": 7864, "igure": 7865, "ais": 7866, "Ġchapter": 7867, "Ġaffili": 7868, "ĠLuc": 7869, "ĠGer": 7870, "76": 7871, "Ġspell": 7872, "Ġridic": 7873, "Ġprinciple": 7874, "Ġprinciples": 7875, "Ġcontaining": 7876, "Ġbills": 7877, "Ã¨": 7878, "uing": 7879, "ship": 7880, "ria": 7881, "rett": 7882, "interest": 7883, "from": 7884, "Ġblind": 7885, "ĠPolicy": 7886, "ĠNation": 7887, "ixt": 7888, "Ġserves": 7889, "Ġphones": 7890, "Ġexplanation": 7891, "Ġexposure": 7892, "Ġequally": 7893, "Ġbes": 7894, "Ġalgorith": 7895, "ĠCentre": 7896, "umin": 7897, "ikes": 7898, "elf": 7899, "agram": 7900, "</": 7901, "Ġplate": 7902, "Ġnavig": 7903, "Ġlights": 7904, "Ġcha": 7905, "ĠMinistry": 7906, "ĠLine": 7907, "Ġ55": 7908, "Ġiron": 7909, "there": 7910, "ipal": 7911, "hemat": 7912, "Ġroles": 7913, "Ġrear": 7914, "Ġinvolvement": 7915, "Ġenjoyed": 7916, "Ġadvertising": 7917, "opp": 7918, "Ġven": 7919, "Ġthin": 7920, "Ġthick": 7921, "Ġrestrictions": 7922, "Ġguitar": 7923, "Ġcameras": 7924, "Ġabsence": 7925, "ĠEnd": 7926, "rative": 7927, "ictions": 7928, "elect": 7929, "Ġranked": 7930, "ĠMassachusetts": 7931, "ĠHT": 7932, "Ġretired": 7933, "Ġremem": 7934, "Ġpublication": 7935, "Ġinvited": 7936, "Ġemerged": 7937, "Ġdesk": 7938, "Ġcontroversy": 7939, "Ġbom": 7940, "Ġapolog": 7941, "enny": 7942, "anes": 7943, "Ġprivile": 7944, "Ġcarefully": 7945, "Ġboat": 7946, "Ġburd": 7947, "ĠParliament": 7948, "ĠNever": 7949, "ĠNBC": 7950, "ĠFull": 7951, "ĠCare": 7952, "ĠBall": 7953, "pat": 7954, "Ġunex": 7955, "Ġuncom": 7956, "Ġproviders": 7957, "Ġenorm": 7958, "Ġ[+]": 7959, "ĠSamsung": 7960, "ĠRog": 7961, "ĠDig": 7962, "this": 7963, "piracy": 7964, "iley": 7965, "atern": 7966, "Ġtall": 7967, "Ġrecru": 7968, "Ġgathered": 7969, "Ġchampionship": 7970, "ĠThree": 7971, "ĠStadium": 7972, "ĠChristians": 7973, "ĠCameron": 7974, "ses": 7975, "nedy": 7976, "Ġthousand": 7977, "Ġsymbol": 7978, "Ġstead": 7979, "Ġinvolves": 7980, "Ġextract": 7981, "Ġcampaigns": 7982, "ĠVancouver": 7983, "ĠSanta": 7984, "Ġtouchdown": 7985, "Ġtox": 7986, "Ġtackle": 7987, "Ġsuspended": 7988, "Ġproven": 7989, "Ġdoors": 7990, "Ġdiscipl": 7991, "Ġcomic": 7992, "Ġanybody": 7993, "ĠArm": 7994, "riers": 7995, "olars": 7996, "President": 7997, "86": 7998, "Ġconvin": 7999, "unicip": 8000, "arrass": 8001, "Ġprocessing": 8002, "Ġmovements": 8003, "Ġhang": 8004, "ĠTurkish": 8005, "ĠJason": 8006, "ĠBalt": 8007, "orne": 8008, "inking": 8009, "anchester": 8010, "Facebook": 8011, "Ġspectrum": 8012, "Ġracial": 8013, "Ġhired": 8014, "Ġdeputy": 8015, "ĠUber": 8016, "ĠGlobal": 8017, "ĠChampionship": 8018, "ubble": 8019, "fall": 8020, "core": 8021, "Who": 8022, "Co": 8023, "Ġunclear": 8024, "Ġscope": 8025, "Ġasks": 8026, "ĠViet": 8027, "ĠCat": 8028, "portion": 8029, "El": 8030, "Ġwides": 8031, "Ġsharp": 8032, "Ġhitting": 8033, "Ġdozens": 8034, "ĠSnow": 8035, "ĠMah": 8036, "athy": 8037, "Ġresulted": 8038, "Ġgear": 8039, "Ġentering": 8040, "Ġconsistently": 8041, "Ġbarely": 8042, "ĠSk": 8043, "ĠHon": 8044, "ĠHard": 8045, "ĠConf": 8046, "pread": 8047, "intendo": 8048, "IF": 8049, "Ġvisitors": 8050, "Ġsup": 8051, "Ġsignature": 8052, "Ġrecall": 8053, "Ġextrem": 8054, "ĠSeason": 8055, "ĠRoss": 8056, "ĠPrice": 8057, "ĠDevelopment": 8058, "ĠBan": 8059, "ushing": 8060, "rolled": 8061, "Dr": 8062, "Before": 8063, "AG": 8064, "51": 8065, "Ġthrown": 8066, "Ġtaxpay": 8067, "Ġspr": 8068, "Ġrespectively": 8069, "Ġrepresentative": 8070, "Ġparticipate": 8071, "Ġmel": 8072, "Ġfriendly": 8073, "unior": 8074, "ked": 8075, "54": 8076, "Ġwages": 8077, "Ġraw": 8078, "ĠAtlanta": 8079, "ilton": 8080, "SU": 8081, "LC": 8082, "Ġshock": 8083, "Ġprofession": 8084, "Ġpermit": 8085, "Ġimplementation": 8086, "ĠOF": 8087, "ĠAllen": 8088, "Îº": 8089, "serv": 8090, "owing": 8091, "imp": 8092, "anna": 8093, "Will": 8094, "Ġvital": 8095, "ĠTri": 8096, "ĠSenator": 8097, "ĠSP": 8098, "ila": 8099, "allel": 8100, "MAN": 8101, "52": 8102, "Ġrecognized": 8103, "Ġhistoric": 8104, "Ġconstitutional": 8105, "Ġbegun": 8106, "Ġboot": 8107, "ĠIowa": 8108, "vard": 8109, "mented": 8110, "auc": 8111, "Those": 8112, "Star": 8113, "Ġemployment": 8114, "Ġchallenging": 8115, "Ġagric": 8116, "ĠPerhaps": 8117, "ĠNorthern": 8118, "ĠMean": 8119, "ĠAdministration": 8120, "Back": 8121, "Ġswing": 8122, "Ġroot": 8123, "Ġrely": 8124, "Ġpartnership": 8125, "Ġovert": 8126, "Ġeastern": 8127, "Ġbrill": 8128, "Ġbanned": 8129, "ĠAsh": 8130, "text": 8131, "sels": 8132, "otted": 8133, "96": 8134, "Ġintellectual": 8135, "Ġclients": 8136, "ĠFred": 8137, "inf": 8138, "Dav": 8139, "ĠHell": 8140, "Ġutil": 8141, "Ġtom": 8142, "Ġscream": 8143, "Ġpermission": 8144, "Ġocean": 8145, "Ġholiday": 8146, "Ġfarmers": 8147, "ĠVis": 8148, "ĠMaster": 8149, "ĠDiego": 8150, "Ïħ": 8151, "weet": 8152, "lessly": 8153, "Ref": 8154, "Ġsubjects": 8155, "Ġsmartphone": 8156, "Ġseemingly": 8157, "Ġreads": 8158, "Ġconvicted": 8159, "Ġ64": 8160, "upid": 8161, "sing": 8162, "ographic": 8163, "away": 8164, "Ġmachines": 8165, "ĠBas": 8166, "ĠAcademy": 8167, "active": 8168, "Ġinject": 8169, "Ġcontracts": 8170, "ĠNick": 8171, "ĠNev": 8172, "ĠLink": 8173, "ĠLind": 8174, "ĠAbout": 8175, "oval": 8176, "jo": 8177, "geon": 8178, "Ġswim": 8179, "Ġreaching": 8180, "Ġnotion": 8181, "Ġfiction": 8182, "ĠMedical": 8183, "ĠFund": 8184, "usive": 8185, "enders": 8186, "Russ": 8187, "%.": 8188, "Ġwithdraw": 8189, "Ġsuggesting": 8190, "Ġpetition": 8191, "Ġlogic": 8192, "Ġconvinced": 8193, "Ġcannabis": 8194, "ĠFood": 8195, "helsea": 8196, "Ġopinions": 8197, "Ġjoining": 8198, "Ġestimate": 8199, "Ġachieved": 8200, "ĠAlabama": 8201, "icer": 8202, "har": 8203, "aus": 8204, "Ste": 8205, "Ġtradition": 8206, "Ġhardly": 8207, "Ġgained": 8208, "Ġdistributed": 8209, "Ġbasketball": 8210, "Ġattached": 8211, "ĠRet": 8212, "ĠMajor": 8213, "ĠLGBT": 8214, "Ġ(âĢľ": 8215, "Ġ~": 8216, "phones": 8217, "hall": 8218, "burgh": 8219, "ĠÐ²": 8220, "Ġstolen": 8221, "Ġsamples": 8222, "Ġproducing": 8223, "Ġinvestigate": 8224, "Ġcomprehens": 8225, "ĠLevel": 8226, "uties": 8227, "senal": 8228, "actions": 8229, "++": 8230, "Ġyield": 8231, "Ġresource": 8232, "Ġnormally": 8233, "Ġlicens": 8234, "Ġfallen": 8235, "Ġdeeper": 8236, "Ġauto": 8237, "ĠMatthew": 8238, "ĠABC": 8239, "rypt": 8240, "bec": 8241, "bal": 8242, "Ġphysic": 8243, "Ġpatch": 8244, "Ġinvestigating": 8245, "Ġillness": 8246, "Ġhook": 8247, "Ġgrounds": 8248, "ĠAnton": 8249, "rets": 8250, "olves": 8251, "olt": 8252, "About": 8253, "Ġtweeted": 8254, "Ġsoph": 8255, "Ġexclusive": 8256, "Ġassass": 8257, "ĠVegas": 8258, "ĠScient": 8259, "ĠRoyal": 8260, "ĠNext": 8261, "ĠNavy": 8262, "tering": 8263, "beat": 8264, "aching": 8265, "abinet": 8266, "Your": 8267, "TE": 8268, "HA": 8269, "Ġsuspected": 8270, "Ġrook": 8271, "Ġoverwhelming": 8272, "Ġmountain": 8273, "Ġmanufacturing": 8274, "Ġlands": 8275, "Ġhide": 8276, "Ġexpanded": 8277, "Ġembarrass": 8278, "cut": 8279, "Ġsubstantial": 8280, "Ġrender": 8281, "Ġinterface": 8282, "Ġdescription": 8283, "Ġawareness": 8284, "ĠRussell": 8285, "ĠPack": 8286, "rient": 8287, "antic": 8288, "Me": 8289, "Ġwidespread": 8290, "Ġfailing": 8291, "Ġdiscovery": 8292, "ĠHor": 8293, "cles": 8294, "2014": 8295, "Ġspaces": 8296, "Ġrecommended": 8297, "Ġreader": 8298, "Ġlos": 8299, "Ġgra": 8300, "Ġfactory": 8301, "Ġbehalf": 8302, "ĠHas": 8303, "ĠGaza": 8304, "ĠFer": 8305, "Ð´": 8306, "worth": 8307, "uer": 8308, "secution": 8309, "annels": 8310, "Ġmail": 8311, "Ġindicate": 8312, "Ġdestruction": 8313, "Ġairport": 8314, "ĠMcG": 8315, "ĠHart": 8316, "ecut": 8317, "case": 8318, "bell": 8319, "Ġstun": 8320, "Ġrecognition": 8321, "Ġpopulations": 8322, "Ġphilosophy": 8323, "Ġmos": 8324, "Ġmo": 8325, "Ġgonna": 8326, "Ġconcrete": 8327, "ĠWhich": 8328, "page": 8329, "osit": 8330, "iler": 8331, "asion": 8332, "ĠâĪĴ": 8333, "Ġrapidly": 8334, "Ġlistening": 8335, "Ġgam": 8336, "Ġexceed": 8337, "Ġelectronic": 8338, "Ġbars": 8339, "Ġaffairs": 8340, "ĠHospital": 8341, "yer": 8342, "front": 8343, "esy": 8344, "Ġwing": 8345, "Ġtherap": 8346, "Ġsymptoms": 8347, "Ġrecover": 8348, "Ġoutr": 8349, "Ġmonitor": 8350, "Ġminds": 8351, "Ġhorror": 8352, "Ġfollowers": 8353, "Ġconversations": 8354, "Ġbehaviour": 8355, "ommod": 8356, "Ġpresum": 8357, "Ġpractical": 8358, "Ġpatterns": 8359, "Ġjoke": 8360, "Ġho": 8361, "Ġcomedy": 8362, "Ġcasual": 8363, "ĠPres": 8364, "ĠIce": 8365, "ĠCooper": 8366, "Ġ1995": 8367, "ington": 8368, "cling": 8369, "PM": 8370, "400": 8371, "Ġconsumption": 8372, "Ġbranch": 8373, "ĠKir": 8374, "ĠâĢĻ": 8375, "ï¿": 8376, "Ã³n": 8377, "Ġtip": 8378, "Ġextend": 8379, "Ġentre": 8380, "Ġdiscrimination": 8381, "ĠMcCain": 8382, "Ġ1998": 8383, "rical": 8384, "hot": 8385, "ennes": 8386, "Ġsalt": 8387, "Ġrevel": 8388, "Ġlegs": 8389, "Ġluck": 8390, "Ġalien": 8391, "Ġ65": 8392, "xit": 8393, "omething": 8394, "ierce": 8395, "arre": 8396, "Sub": 8397, "Ġwaves": 8398, "Ġviewers": 8399, "Ġsettlement": 8400, "Ġmenu": 8401, "Ġlegitimate": 8402, "Ġlists": 8403, "Ġdrew": 8404, "Ġcovers": 8405, "Ġcogn": 8406, "Ġborrow": 8407, "ĠLiverpool": 8408, "Ġ1960": 8409, "iy": 8410, "Ġvirus": 8411, "Ġspark": 8412, "Ġmoon": 8413, "Ġfault": 8414, "ĠInformation": 8415, "ĠHay": 8416, "ĠControl": 8417, "ĠCarter": 8418, "Ð¼": 8419, "ystem": 8420, "ounced": 8421, "olis": 8422, "heast": 8423, "Sen": 8424, "Ġtrained": 8425, "Ġtickets": 8426, "Ġshr": 8427, "Ġlets": 8428, "Ġlying": 8429, "Ġinnovation": 8430, "Ġclassified": 8431, "ĠKat": 8432, "ï¿½": 8433, "imore": 8434, "high": 8435, "claim": 8436, "Ġsteal": 8437, "Ġownership": 8438, "Ġindicated": 8439, "Ġfantastic": 8440, "Ġedition": 8441, "Ġcontribute": 8442, "ĠSn": 8443, "cover": 8444, "aintiff": 8445, "ART": 8446, "Ġspokeswoman": 8447, "Ġreven": 8448, "Ġpropaganda": 8449, "Ġliked": 8450, "Ġflash": 8451, "Ġfalls": 8452, "Ġballot": 8453, "ĠUse": 8454, "ĠMarket": 8455, "ĠLyn": 8456, "ĠConnect": 8457, "ĠAz": 8458, "profit": 8459, "icity": 8460, "held": 8461, "car": 8462, "Ġvary": 8463, "Ġtaste": 8464, "Ġsoil": 8465, "Ġreferring": 8466, "Ġprotocol": 8467, "Ġmarch": 8468, "Ġgrass": 8469, "Ġfears": 8470, "Ġcolors": 8471, "ĠKennedy": 8472, "inction": 8473, "hour": 8474, "ĠâĢĿ": 8475, "Ġscreens": 8476, "Ġconnections": 8477, "ĠProv": 8478, "ĠOtt": 8479, "ĠHarris": 8480, "otyp": 8481, "PP": 8482, "Ġresponses": 8483, "Ġreducing": 8484, "Ġren": 8485, "Ġmedium": 8486, "Ġlegend": 8487, "ĠKick": 8488, "iscal": 8489, "Cross": 8490, "Ġtracking": 8491, "Ġstrategic": 8492, "Ġpublisher": 8493, "Ġphysics": 8494, "Ġmaps": 8495, "Ġlin": 8496, "Ġimplemented": 8497, "Ġdispl": 8498, "Ġdevast": 8499, "Ġdict": 8500, "ĠManchester": 8501, "ĠGT": 8502, "ĠFurther": 8503, "eda": 8504, "een": 8505, "53": 8506, "Ġstages": 8507, "Ġobjective": 8508, "Ġheading": 8509, "Ġhanded": 8510, "Ġacceler": 8511, "ĠReport": 8512, "ĠPoint": 8513, "ĠMu": 8514, "âĢĻ,": 8515, "mary": 8516, "Ġversus": 8517, "Ġtries": 8518, "Ġmonitoring": 8519, "Ġcompe": 8520, "ĠGovernor": 8521, "Ġ1996": 8522, "prene": 8523, "found": 8524, "ective": 8525, "abeth": 8526, "Ġreduction": 8527, "Ġentertainment": 8528, "Ġassert": 8529, "Ġaccus": 8530, "ĠUC": 8531, "ĠThus": 8532, "ĠReuters": 8533, "ĠMLS": 8534, "zed": 8535, "mony": 8536, "etary": 8537, "Ġtrials": 8538, "ĠRoy": 8539, "alia": 8540, "akh": 8541, "Cons": 8542, "Ġworker": 8543, "Ġintervention": 8544, "Ġdynamic": 8545, "Ġdrawing": 8546, "Ã¥": 8547, "udes": 8548, "type": 8549, "Under": 8550, "Mc": 8551, "Ġstere": 8552, "Ġrose": 8553, "Ġelig": 8554, "Ġcareful": 8555, "Ġbrothers": 8556, "ĠIT": 8557, "Os": 8558, "Ġregulation": 8559, "Ġouts": 8560, "Ġnoise": 8561, "Ġlobby": 8562, "Ġcust": 8563, "Ġadmit": 8564, "ĠOS": 8565, "ĠMusic": 8566, "ĠAh": 8567, "ĠAI": 8568, "ologists": 8569, "ndum": 8570, "etime": 8571, "Both": 8572, "??": 8573, "Ġsensitive": 8574, "Ġroads": 8575, "Ġcos": 8576, "Ġbeauty": 8577, "Ġastron": 8578, "ĠWalker": 8579, "plus": 8580, "des": 8581, "61": 8582, "Ġrequested": 8583, "Ġli": 8584, "Ġdeserve": 8585, "Ġassessment": 8586, "Ġactors": 8587, "ĠKingdom": 8588, "ĠHistory": 8589, "ĠHarry": 8590, "ĠDivision": 8591, "ĠAnthony": 8592, "usted": 8593, "inder": 8594, "aret": 8595, "101": 8596, "Ġtwenty": 8597, "Ġokay": 8598, "Ġgrid": 8599, "Ġdelivery": 8600, "ĠTro": 8601, "ĠNorway": 8602, "ĠIndiana": 8603, "ĠBow": 8604, "ĠBart": 8605, "uma": 8606, "teen": 8607, "icket": 8608, "AND": 8609, "Ġremarks": 8610, "Ġracist": 8611, "Ġprogressive": 8612, "Ġneutral": 8613, "Ġinstrument": 8614, "Ġgent": 8615, "Ġdance": 8616, "Ġamid": 8617, "ĠUlt": 8618, "ĠTen": 8619, "ĠMORE": 8620, "ĠLewis": 8621, "ĠEp": 8622, "rik": 8623, "irts": 8624, "including": 8625, "Che": 8626, "Ġpassengers": 8627, "Ġorigin": 8628, "Ġacknowledged": 8629, "ĠRose": 8630, "ĠCO": 8631, "Ð°Ð»": 8632, "ouch": 8633, "aning": 8634, "97": 8635, "Ġtheore": 8636, "Ġinvestigators": 8637, "Ġdisrupt": 8638, "ĠSpring": 8639, "ĠHa": 8640, "ĠCore": 8641, "ĠAF": 8642, "Ġ44": 8643, "Resonance": 8644, "94": 8645, "Ġprofits": 8646, "Ġneighbour": 8647, "Ġchat": 8648, "Ġaccommod": 8649, "ĠEmpire": 8650, "ĠChair": 8651, "Ã±": 8652, "ois": 8653, "iry": 8654, "emin": 8655, "azz": 8656, "DamageResonance": 8657, "Ġtea": 8658, "Ġsmooth": 8659, "Ġsilver": 8660, "Ġquestioned": 8661, "Ġnoting": 8662, "Ġnominee": 8663, "Ġneck": 8664, "Ġdismissed": 8665, "Ġattempting": 8666, "ĠGreek": 8667, "wered": 8668, "then": 8669, "sect": 8670, "ordon": 8671, "Ms": 8672, "Ġregister": 8673, "Ġrecip": 8674, "Ġhandful": 8675, "Ġaver": 8676, "ĠGalaxy": 8677, "pload": 8678, "isting": 8679, "ifer": 8680, "eding": 8681, "Ġscoring": 8682, "Ġhandling": 8683, "Ġencouraged": 8684, "Ġbreaks": 8685, "ĠMid": 8686, "ĠLas": 8687, "ĠArmen": 8688, "ylum": 8689, "oen": 8690, "dy": 8691, "Ġupgrade": 8692, "Ġsuffer": 8693, "Ġacquired": 8694, "ĠMuseum": 8695, "âĢĶâĢĶ": 8696, "rec": 8697, "aska": 8698, "Ġtransgender": 8699, "Ġterrorists": 8700, "Ġscan": 8701, "Ġmissile": 8702, "Ġcovering": 8703, "ĠTour": 8704, "ĠQueen": 8705, "ĠGraham": 8706, "ĠGov": 8707, "ĠData": 8708, "ĠCredit": 8709, "ogs": 8710, "Part": 8711, "ĠâĤ¬": 8712, "Ġwhenever": 8713, "Ġwebsites": 8714, "Ġvoter": 8715, "Ġvacc": 8716, "Ġultimate": 8717, "Ġtechnique": 8718, "Ġprepar": 8719, "Ġguarantee": 8720, "Ġentr": 8721, "Ġeuro": 8722, "Ġassign": 8723, "ĠNintendo": 8724, "ĠLive": 8725, "ĠJustin": 8726, "ĠCirc": 8727, "Ġ43": 8728, "yo": 8729, "wr": 8730, "ogen": 8731, "ntil": 8732, "iversary": 8733, "amber": 8734, "Please": 8735, "Ġtemperatures": 8736, "Ġtemporary": 8737, "Ġrescue": 8738, "Ġrhet": 8739, "Ġjudgment": 8740, "Ġimprovements": 8741, "Ġexternal": 8742, "ĠShare": 8743, "ĠFreedom": 8744, "plete": 8745, "hr": 8746, "dit": 8747, "agg": 8748, "NBC": 8749, "Ass": 8750, "ĠÃł": 8751, "Ġwedd": 8752, "Ġsmoke": 8753, "Ġresign": 8754, "Ġreprodu": 8755, "Ġpersonality": 8756, "Ġenormous": 8757, "umes": 8758, "UN": 8759, "Ġtrem": 8760, "Ġindependence": 8761, "Ġforcing": 8762, "Ġcollective": 8763, "ĠEdward": 8764, "ĠBroad": 8765, "ilipp": 8766, "icking": 8767, "Her": 8768, "HS": 8769, "Ġsupplies": 8770, "Ġshopping": 8771, "Ġlegacy": 8772, "Ġintroduction": 8773, "Ġattacking": 8774, "Ġarrive": 8775, "ĠUtah": 8776, "ĠProfessor": 8777, "ĠIns": 8778, "ĠBang": 8779, "uted": 8780, "scale": 8781, "inch": 8782, "iano": 8783, "gian": 8784, "Ġwww": 8785, "Ġvirtually": 8786, "Ġsorry": 8787, "Ġplug": 8788, "Ġincent": 8789, "Ġcontributions": 8790, "Ġconspiracy": 8791, "Ġargues": 8792, "Ġax": 8793, "ĠSom": 8794, "ĠNic": 8795, "ĠEs": 8796, "ĠCS": 8797, "rooms": 8798, "Script": 8799, "\")": 8800, "Ġstone": 8801, "Ġpurchased": 8802, "Ġpapers": 8803, "Ġmistakes": 8804, "Ġdisagree": 8805, "Ġattitude": 8806, "ĠLeader": 8807, "ĠDelhi": 8808, "ĠClark": 8809, "Î¼": 8810, "ributes": 8811, "ikh": 8812, "ATE": 8813, "Ġstayed": 8814, "Ġsecondary": 8815, "Ġlowest": 8816, "Ġlucky": 8817, "Ġimprovement": 8818, "Ġbrown": 8819, "Ġborders": 8820, "Ġaddressed": 8821, "ĠSquare": 8822, "ĠJam": 8823, "ĠHarvard": 8824, "ĠEvan": 8825, "ĠBa": 8826, "ãĢ": 8827, "Ġtiss": 8828, "Ġmice": 8829, "Ġfighter": 8830, "Ġbell": 8831, "ĠNiger": 8832, "ĠBrother": 8833, "ĠArabia": 8834, "itage": 8835, "EP": 8836, "Ġviewed": 8837, "Ġtheat": 8838, "Ġtone": 8839, "Ġreforms": 8840, "Ġparallel": 8841, "Ġmeasured": 8842, "Ġmathemat": 8843, "Ġgenerations": 8844, "Ġanger": 8845, "Ġabsor": 8846, "ĠWithout": 8847, "ĠIntelligence": 8848, "ĠEqu": 8849, "ĠAcc": 8850, "ye": 8851, "organ": 8852, "Ġwine": 8853, "Ġsurf": 8854, "Ġsteel": 8855, "Ġshoulder": 8856, "Ġfunded": 8857, "Ġdying": 8858, "Ġcircle": 8859, "Ġceremony": 8860, "ĠSir": 8861, "ĠChelsea": 8862, "ĠBad": 8863, "ĠAlber": 8864, "RL": 8865, "Ġwelf": 8866, "Ġunions": 8867, "Ġshit": 8868, "Ġjur": 8869, "Ġingred": 8870, "Ġhockey": 8871, "Ġceleb": 8872, "ĠSheriff": 8873, "ĠCre": 8874, "ĠAssad": 8875, "ĠAPI": 8876, "Ġ1997": 8877, "appy": 8878, "Gl": 8879, "Ġwelfare": 8880, "Ġstepped": 8881, "Ġsovere": 8882, "Ġskept": 8883, "Ġpackages": 8884, "Ġmole": 8885, "Ġincidents": 8886, "Ġhint": 8887, "Ġcats": 8888, "ĠUSB": 8889, "ĠStr": 8890, "ĠReview": 8891, "ĠKey": 8892, "ĠFamily": 8893, "ulty": 8894, "orge": 8895, "ijing": 8896, "eremy": 8897, "News": 8898, "Are": 8899, ">>": 8900, "Ġthrew": 8901, "Ġporn": 8902, "Ġefficiency": 8903, "Ġcelebrate": 8904, "Ġauthent": 8905, "ĠOnt": 8906, "ĠConference": 8907, "ĠAssociated": 8908, "ultane": 8909, "oln": 8910, "berry": 8911, "acket": 8912, "Out": 8913, ".-": 8914, "Ġurged": 8915, "Ġcounts": 8916, "Ġbureau": 8917, "ĠFront": 8918, "Ġ41": 8919, "ĠÏĦ": 8920, "lvan": 8921, "dem": 8922, "bors": 8923, "XX": 8924, "2010": 8925, "Ġwars": 8926, "Ġthrowing": 8927, "Ġspeaks": 8928, "Ġshout": 8929, "Ġpursue": 8930, "Ġjoy": 8931, "Ġgir": 8932, "Ġfur": 8933, "Ġdemocratic": 8934, "Ġchecks": 8935, "Ġbrilliant": 8936, "Ġadvocates": 8937, "ĠOK": 8938, "ĠCommunity": 8939, "ĠBry": 8940, "Ġ47": 8941, "zing": 8942, "was": 8943, "87": 8944, "600": 8945, "Ġprosecutors": 8946, "Ġnaturally": 8947, "Ġfrag": 8948, "Ġexecutives": 8949, "Ġentitled": 8950, "Ġdrone": 8951, "ĠSuch": 8952, "ĠRa": 8953, "ĠIII": 8954, "ĠAND": 8955, "trans": 8956, "sole": 8957, "eman": 8958, "Ġstupid": 8959, "Ġletting": 8960, "Ġhumanity": 8961, "Ġframework": 8962, "Ġcopies": 8963, "Ġclip": 8964, "Ġappreciate": 8965, "ĠKansas": 8966, "ĠHu": 8967, "ĠAp": 8968, "Ã¾": 8969, "watch": 8970, "anted": 8971, "Where": 8972, "Def": 8973, "Ġliquid": 8974, "Ġharassment": 8975, "Ġforest": 8976, "Ġchannels": 8977, "ĠList": 8978, "ĠHind": 8979, "ĠCook": 8980, "ishop": 8981, "archy": 8982, "Ġspokesperson": 8983, "Ġinnocent": 8984, "Ġhypot": 8985, "Ġhomeless": 8986, "Ġheadquarters": 8987, "Ġclinical": 8988, "ĠRoberts": 8989, "ĠON": 8990, "ĠMagic": 8991, "ĠLatin": 8992, "ĠLittle": 8993, "Î»": 8994, "ython": 8995, "sl": 8996, "orious": 8997, "oded": 8998, "lfriend": 8999, "ito": 9000, "Though": 9001, "Comp": 9002, "Ġtomorrow": 9003, "Ġregulatory": 9004, "Ġprisoners": 9005, "Ġpa": 9006, "Ġignore": 9007, "Ġhoped": 9008, "ĠProp": 9009, "ĠHD": 9010, "ĠAtlantic": 9011, "ounding": 9012, "gener": 9013, "Ġyellow": 9014, "Ġtasks": 9015, "Ġlandscape": 9016, "Ġdrama": 9017, "Ġconce": 9018, "Ġcaptain": 9019, "ĠPatrick": 9020, "ĠBridge": 9021, "umble": 9022, "scribe": 9023, "erted": 9024, "door": 9025, "don": 9026, "ctr": 9027, "andy": 9028, "Ġsmell": 9029, "Ġsalary": 9030, "Ġratings": 9031, "Ġlanding": 9032, "Ġgrav": 9033, "Ġdiversity": 9034, "Ġassociation": 9035, "ĠUr": 9036, "ĠRuby": 9037, "ĠGolden": 9038, "ĠBernie": 9039, "ropri": 9040, "ormal": 9041, "dney": 9042, "cest": 9043, "Ġrookie": 9044, "Ġphenomenon": 9045, "Ġbreath": 9046, "Ġblockchain": 9047, "ĠScottish": 9048, "ĠSab": 9049, "ĠBi": 9050, "800": 9051, "Ġstudied": 9052, "Ġpresidency": 9053, "Ġphrase": 9054, "Ġequality": 9055, "Ġdust": 9056, "ĠEnvironment": 9057, "ĠBureau": 9058, "hop": 9059, "agh": 9060, "CT": 9061, "Ġtransportation": 9062, "Ġreferendum": 9063, "Ġimproving": 9064, "Ġdepends": 9065, "Ġdemonstrated": 9066, "ĠPict": 9067, "ĠHo": 9068, "iev": 9069, "bridge": 9070, "Source": 9071, "Ġwindows": 9072, "Ġstudying": 9073, "Ġperforming": 9074, "Ġpeak": 9075, "Ġmidfield": 9076, "Ġlocked": 9077, "Ġethnic": 9078, "Ġdrives": 9079, "Ġdonations": 9080, "Ġcounterpart": 9081, "Ġclosing": 9082, "ĠCrime": 9083, "law": 9084, "angel": 9085, "Ġspots": 9086, "Ġpig": 9087, "Ġham": 9088, "Ġguest": 9089, "Ġgreatly": 9090, "Ġexit": 9091, "Ġantib": 9092, "Ġabandoned": 9093, "Ġaer": 9094, "ĠRos": 9095, "ĠLi": 9096, "uction": 9097, "ported": 9098, "ouri": 9099, "Ġsynt": 9100, "Ġrelax": 9101, "Ġphysically": 9102, "Ġloans": 9103, "Ġincom": 9104, "Ġfed": 9105, "Ġdivided": 9106, "Ġcapabilities": 9107, "ĠSometimes": 9108, "ĠEag": 9109, "untu": 9110, "ivals": 9111, "isp": 9112, "ammed": 9113, "Still": 9114, "JP": 9115, "74": 9116, "!)": 9117, "Ġscores": 9118, "Ġrational": 9119, "Ġmuseum": 9120, "Ġhung": 9121, "Ġcenters": 9122, "Ġcoc": 9123, "Ġblast": 9124, "ĠDet": 9125, "ĠBL": 9126, "ĠAlexander": 9127, "Ð²": 9128, "made": 9129, "inals": 9130, "ahu": 9131, "'.": 9132, "Ġservers": 9133, "Ġpreparing": 9134, "Ġoverseas": 9135, "Ġnomination": 9136, "ĠiP": 9137, "Ġcriticized": 9138, "Ġcoaches": 9139, "ĠOrig": 9140, "ĠDenver": 9141, "Sm": 9142, "MB": 9143, "Ġthorough": 9144, "Ġsed": 9145, "Ġrepresentatives": 9146, "Ġpremium": 9147, "ĠNOT": 9148, "ĠGirl": 9149, "ĠCommon": 9150, "ĠBaltimore": 9151, "ĠBattle": 9152, "ĠBab": 9153, "Ġ1993": 9154, "ilsen": 9155, "Ġtactics": 9156, "Ġreveals": 9157, "Ġprogramme": 9158, "Ġmonthly": 9159, "Ġinsisted": 9160, "Ġinner": 9161, "Ġfulf": 9162, "Ġfing": 9163, "ĠAud": 9164, "stract": 9165, "incoln": 9166, "agic": 9167, "Yet": 9168, "Ġscholars": 9169, "Ġcul": 9170, "Ġbias": 9171, "Ġaccomplish": 9172, "ĠTechnology": 9173, "ĠMake": 9174, "they": 9175, "sylvan": 9176, "itter": 9177, "crib": 9178, "backs": 9179, "Related": 9180, "Ġships": 9181, "Ġraces": 9182, "Ġmemories": 9183, "Ġkilomet": 9184, "Ġerrors": 9185, "Ġdistract": 9186, "Ġdefine": 9187, "Ġcategories": 9188, "ĠMeanwhile": 9189, "starter": 9190, "riving": 9191, "omy": 9192, "Ġtransit": 9193, "Ġportray": 9194, "Ġlect": 9195, "Ġfab": 9196, "Ġentreprene": 9197, "Ġdramatic": 9198, "Ġdump": 9199, "Ġcitizen": 9200, "ĠIndeed": 9201, "ĠGary": 9202, "ĠDar": 9203, "ĠBeck": 9204, "ĠAndre": 9205, "eries": 9206, "Rem": 9207, "Ġwarn": 9208, "Ġsubsequent": 9209, "Ġsettings": 9210, "Ġrom": 9211, "Ġquoted": 9212, "Ġloose": 9213, "Ġimportantly": 9214, "Ġfate": 9215, "Ġdifferently": 9216, "Ġanxiety": 9217, "ĠUnfortunately": 9218, "ĠCow": 9219, "ĠAk": 9220, "rif": 9221, "ounce": 9222, "SL": 9223, "Ġreplacement": 9224, "Ġgate": 9225, "Ġfool": 9226, "Ġdemanding": 9227, "Ġarguing": 9228, "ĠVill": 9229, "ĠBeijing": 9230, "Ġ46": 9231, "Ġ2020": 9232, "mers": 9233, "inating": 9234, "ested": 9235, "bow": 9236, "OLD": 9237, "Ġvisiting": 9238, "Ġviolation": 9239, "Ġintroduce": 9240, "Ġintim": 9241, "Ġhyper": 9242, "Ġgal": 9243, "Ġflags": 9244, "Ġdiscour": 9245, "Ġdad": 9246, "Ġabroad": 9247, "ĠPatri": 9248, "ĠDream": 9249, "ĠCA": 9250, "ultural": 9251, "sight": 9252, "ordinary": 9253, "ompson": 9254, "group": 9255, "Ġunfair": 9256, "Ġmilitants": 9257, "Ġcompeting": 9258, "ĠStat": 9259, "ĠRef": 9260, "ĠJay": 9261, "ĠIranian": 9262, "ĠCheck": 9263, "rection": 9264, "hell": 9265, "heim": 9266, "elle": 9267, "ecutive": 9268, "aping": 9269, "Ġwaters": 9270, "Ġpreced": 9271, "Ġordinary": 9272, "Ġministry": 9273, "Ġcustody": 9274, "Ġcontrad": 9275, "Ġbiological": 9276, "Ġbowl": 9277, "ĠWW": 9278, "ĠHead": 9279, "Â°": 9280, "oz": 9281, "bian": 9282, "bi": 9283, "alling": 9284, "Ġsemi": 9285, "Ġreverse": 9286, "Ġmunicip": 9287, "Ġlunch": 9288, "Ġgif": 9289, "Ġfet": 9290, "Ġcollapse": 9291, "Ġarchitecture": 9292, "Ġactively": 9293, "ĠTrib": 9294, "ĠJerry": 9295, "ĠFootball": 9296, "ĠBron": 9297, "Ġ52": 9298, "iences": 9299, "atar": 9300, "assador": 9301, "%)": 9302, "Ġunexpected": 9303, "Ġsummit": 9304, "Ġrush": 9305, "Ġproducers": 9306, "Ġpor": 9307, "Ġhelpful": 9308, "Ġcomprehensive": 9309, "ĠLim": 9310, "ĠCBS": 9311, "ĠAnderson": 9312, "klah": 9313, "hy": 9314, "change": 9315, "Art": 9316, "Ġtens": 9317, "Ġhire": 9318, "Ġguidelines": 9319, "Ġdating": 9320, "Ġchest": 9321, "Ġbottle": 9322, "Ġbacter": 9323, "ĠSaf": 9324, "ĠRevolution": 9325, "ĠMir": 9326, "ĠHave": 9327, "sa": 9328, "plate": 9329, "oding": 9330, "non": 9331, "Watch": 9332, "RI": 9333, "Note": 9334, "2016": 9335, "Ġuniversities": 9336, "Ġtrigger": 9337, "Ġsevent": 9338, "Ġliterature": 9339, "Ġarc": 9340, "Ġalter": 9341, "Ġactivist": 9342, "ĠMain": 9343, "ĠDeath": 9344, "ĠAst": 9345, "lando": 9346, "Ke": 9347, "\".[": 9348, "Ġsorts": 9349, "Ġrepresenting": 9350, "Ġrecommendations": 9351, "Ġpointing": 9352, "Ġpour": 9353, "Ġmad": 9354, "Ġlayer": 9355, "Ġhealthcare": 9356, "Ġappointed": 9357, "ĠLam": 9358, "ĠKeep": 9359, "maker": 9360, "eria": 9361, "emed": 9362, "assy": 9363, "ando": 9364, "Ġwounded": 9365, "Ġstaying": 9366, "Ġstability": 9367, "Ġshame": 9368, "Ġscientist": 9369, "Ġodds": 9370, "Ġmaintained": 9371, "Ġlad": 9372, "ĠiOS": 9373, "Ġexha": 9374, "Ġemployed": 9375, "Ġeducational": 9376, "ĠSean": 9377, "vision": 9378, "sylvania": 9379, "klahoma": 9380, "elson": 9381, "Red": 9382, "RC": 9383, "Em": 9384, "David": 9385, "Ġtips": 9386, "Ġsatellite": 9387, "Ġmanaging": 9388, "Ġhal": 9389, "Ġbuff": 9390, "ĠBloom": 9391, "stal": 9392, "leans": 9393, "esty": 9394, "asty": 9395, "Ġunemployment": 9396, "Ġpersu": 9397, "Ġfro": 9398, "Ġcongressional": 9399, "Ġbarrel": 9400, "ĠTa": 9401, "ĠSarah": 9402, "ĠRadio": 9403, "ĠOthers": 9404, "ĠGuardian": 9405, "ĠFA": 9406, "ĠDoes": 9407, "Ġ->": 9408, "iban": 9409, "ennis": 9410, "even": 9411, "Crossref": 9412, "Ġwrest": 9413, "Ġtremend": 9414, "Ġstrip": 9415, "Ġsty": 9416, "Ġsimultane": 9417, "Ġdemonstrate": 9418, "Ġdeficit": 9419, "Ġdiverse": 9420, "Ġblocked": 9421, "Ġanalyst": 9422, "ĠOlympic": 9423, "ĠKhan": 9424, "ĠBrexit": 9425, "wa": 9426, "bered": 9427, "%,": 9428, "Ġves": 9429, "Ġtired": 9430, "Ġranks": 9431, "Ġramp": 9432, "Ġplaintiff": 9433, "Ġju": 9434, "Ġdates": 9435, "Ġcream": 9436, "Ġcourses": 9437, "Ġclothes": 9438, "ĠWolf": 9439, "ĠStart": 9440, "ĠMoon": 9441, "icism": 9442, "hard": 9443, "fund": 9444, "comes": 9445, "acts": 9446, "Med": 9447, "Ġtalented": 9448, "Ġstruggled": 9449, "Ġratio": 9450, "Ġinvent": 9451, "Ġgathering": 9452, "Ġdrove": 9453, "Ġcivilian": 9454, "Ġbitcoin": 9455, "Ġans": 9456, "ĠKar": 9457, "ĠCost": 9458, "Ġ1000": 9459, "emic": 9460, "Ġusage": 9461, "Ġsoccer": 9462, "Ġsettled": 9463, "Ġovercome": 9464, "Ġmodule": 9465, "Ġdocumentary": 9466, "Ġcompat": 9467, "ĠVice": 9468, "ĠMarc": 9469, "arms": 9470, "adi": 9471, "abet": 9472, "Ġvoices": 9473, "Ġreviews": 9474, "Ġreleases": 9475, "Ġpoison": 9476, "Ġplatforms": 9477, "Ġhomosexual": 9478, "Ġforecast": 9479, "Ġdeadly": 9480, "Ġcontribution": 9481, "Ġbroader": 9482, "Ġadequ": 9483, "Ġaccessible": 9484, "ĠUb": 9485, "rison": 9486, "achel": 9487, "93": 9488, "Ġkiss": 9489, "Ġdiscount": 9490, "Ġcig": 9491, "ĠOakland": 9492, "ĠNilsen": 9493, "argo": 9494, "apore": 9495, "TO": 9496, "ICE": 9497, "Ġthreatening": 9498, "Ġroof": 9499, "Ġpopularity": 9500, "Ġmini": 9501, "Ġincorpor": 9502, "Ġfrequency": 9503, "Ġformula": 9504, "Ġfights": 9505, "Ġfoss": 9506, "Ġdisorder": 9507, "Ġdelic": 9508, "Ġconsideration": 9509, "Ġcompare": 9510, "Ġbanking": 9511, "ĠYeah": 9512, "ĠSilver": 9513, "ĠRaj": 9514, "ĠExt": 9515, "rapped": 9516, "market": 9517, "igation": 9518, "del": 9519, "Ġweigh": 9520, "Ġtitled": 9521, "Ġstatist": 9522, "Ġmanif": 9523, "Ġinvestments": 9524, "Ġfundra": 9525, "Ġcommonly": 9526, "Ġapproached": 9527, "Ġadviser": 9528, "ĠXbox": 9529, "ĠPrince": 9530, "ĠPent": 9531, "Ġ\\": 9532, "vo": 9533, "ubb": 9534, "igious": 9535, "TH": 9536, "Ġwider": 9537, "Ġstriking": 9538, "Ġrestaurants": 9539, "Ġperceived": 9540, "Ġlessons": 9541, "Ġec": 9542, "Ġconcepts": 9543, "ĠOrleans": 9544, "ĠLincoln": 9545, "ĠHoward": 9546, "ĠHoll": 9547, "ĠBon": 9548, "ĠAction": 9549, "alysis": 9550, "RS": 9551, "Ġshadow": 9552, "Ġoxy": 9553, "Ġnose": 9554, "Ġenthusi": 9555, "Ġcheese": 9556, "ĠSat": 9557, "ĠOntario": 9558, "ĠHop": 9559, "ĠFriend": 9560, "TER": 9561, "BM": 9562, "Ġpredicted": 9563, "Ġpersons": 9564, "Ġlens": 9565, "Ġdeadline": 9566, "Ġconfiguration": 9567, "ĠLook": 9568, "ĠKong": 9569, "ĠFant": 9570, "rock": 9571, "keep": 9572, "izabeth": 9573, "aka": 9574, "Ġspoken": 9575, "Ġfocusing": 9576, "Ġenhance": 9577, "Ġciting": 9578, "ĠPhilipp": 9579, "ĠGarcia": 9580, "ĠBudd": 9581, "rac": 9582, "holders": 9583, "ctic": 9584, "commun": 9585, "ambling": 9586, "92": 9587, "Ġweekly": 9588, "Ġrebels": 9589, "Ġrif": 9590, "Ġpref": 9591, "Ġpossess": 9592, "Ġcompensation": 9593, "Ġcharity": 9594, "ĠPop": 9595, "ĠMill": 9596, "true": 9597, "pa": 9598, "eters": 9599, "agger": 9600, "Ġstreaming": 9601, "Ġremoval": 9602, "Ġprovision": 9603, "Ġpromises": 9604, "Ġmining": 9605, "Ġjihad": 9606, "Ġfiscal": 9607, "Ġdistingu": 9608, "Ġdiscussing": 9609, "Ġcredits": 9610, "ĠTes": 9611, "ĠSweden": 9612, "ĠFal": 9613, "otte": 9614, "immer": 9615, "emption": 9616, "Ġprotecting": 9617, "Ġopens": 9618, "Ġmembership": 9619, "Ġmemo": 9620, "Ġlegislative": 9621, "Ġfacilit": 9622, "Ġcalm": 9623, "Ġbirds": 9624, "Ġarray": 9625, "ĠThompson": 9626, "hesis": 9627, "81": 9628, "Ġunderlying": 9629, "Ġcance": 9630, "Ġassumed": 9631, "Ġassigned": 9632, "Ġappearances": 9633, "ĠSony": 9634, "ĠMorgan": 9635, "ĠMit": 9636, "ĠLo": 9637, "ĠArsenal": 9638, "vertisements": 9639, "arency": 9640, "Ġreceiver": 9641, "Ġpolitically": 9642, "Ġnic": 9643, "Ġmonster": 9644, "Ġhighlights": 9645, "Ġgrave": 9646, "ĠManagement": 9647, "hatt": 9648, "Ġtut": 9649, "Ġquote": 9650, "Ġeager": 9651, "Ġdivor": 9652, "Ġdefending": 9653, "Ġcontacted": 9654, "Ġcock": 9655, "Ġblank": 9656, "ĠUFC": 9657, "ĠSydney": 9658, "ĠPennsylvania": 9659, "ĠEngine": 9660, "ĠEdwards": 9661, "eling": 9662, "VD": 9663, "63": 9664, "Ġtrave": 9665, "Ġtargeting": 9666, "Ġreliable": 9667, "Ġinterior": 9668, "Ġignored": 9669, "Ġgenetic": 9670, "Ġamendment": 9671, "theless": 9672, "large": 9673, "jud": 9674, "encing": 9675, "annon": 9676, "Ġvig": 9677, "Ġsuspects": 9678, "Ġnerv": 9679, "Ġgraduate": 9680, "Ġfiring": 9681, "ĠMcK": 9682, "ĠMach": 9683, "ĠBrew": 9684, "shire": 9685, "lock": 9686, "iamond": 9687, "bits": 9688, "OV": 9689, "Dis": 9690, "))": 9691, "Ġwedding": 9692, "Ġtweets": 9693, "Ġpromising": 9694, "Ġinspir": 9695, "Ġhorse": 9696, "Ġemerging": 9697, "Ġchicken": 9698, "ĠZe": 9699, "ĠSus": 9700, "ĠPalestinians": 9701, "only": 9702, "celona": 9703, "ailed": 9704, "PG": 9705, "Ġsilence": 9706, "Ġencounter": 9707, "Ġancest": 9708, "Ġaddresses": 9709, "ĠSin": 9710, "ĠSE": 9711, "ĠPriv": 9712, "ĠPi": 9713, "ĠChildren": 9714, "ĠAbb": 9715, "Ġ53": 9716, "td": 9717, "isms": 9718, "isons": 9719, "grad": 9720, "arity": 9721, "Sim": 9722, "Ġstimul": 9723, "Ġrooms": 9724, "Ġrecon": 9725, "Ġopenly": 9726, "Ġmood": 9727, "Ġgirlfriend": 9728, "Ġfruit": 9729, "Ġease": 9730, "Ġdispute": 9731, "Ġdish": 9732, "Ġcheaper": 9733, "Ġburden": 9734, "Ġattractive": 9735, "Ġanniversary": 9736, "ĠOklahoma": 9737, "usalem": 9738, "ika": 9739, "aved": 9740, "Reuters": 9741, "Ġsmile": 9742, "Ġreplied": 9743, "Ġcenturies": 9744, "Ġcow": 9745, "Ġbuck": 9746, "ĠNi": 9747, "ĠJean": 9748, "Ġ?": 9749, "through": 9750, "mans": 9751, "aware": 9752, "NS": 9753, "ĠPerson": 9754, "ĠLiberal": 9755, "Ġ1991": 9756, "pled": 9757, "minute": 9758, "mind": 9759, "lee": 9760, "king": 9761, "iate": 9762, "eals": 9763, "bn": 9764, "attered": 9765, "acc": 9766, "Update": 9767, "91": 9768, "Ġsymp": 9769, "Ġspiritual": 9770, "Ġsetup": 9771, "Ġhydro": 9772, "Ġdominant": 9773, "Ġbacking": 9774, "Ġarbit": 9775, "onge": 9776, "irate": 9777, "ials": 9778, "Reg": 9779, "BD": 9780, "ĠÐ´": 9781, "ĠÎ±": 9782, "Ġsurely": 9783, "Ġgenes": 9784, "Ġexperiments": 9785, "Ġdialogue": 9786, "Ġclock": 9787, "ĠTaliban": 9788, "ĠSix": 9789, "ĠPhys": 9790, "ĠDutch": 9791, "ĠDisc": 9792, "ĠClick": 9793, "ĠAmong": 9794, "ĠAffairs": 9795, "third": 9796, "news": 9797, "break": 9798, "ateful": 9799, "acon": 9800, "71": 9801, "Ġrocket": 9802, "Ġlineup": 9803, "Ġhosp": 9804, "Ġdiseases": 9805, "Ġconventional": 9806, "Ġchildhood": 9807, "Ġburied": 9808, "Ġbow": 9809, "Ġawarded": 9810, "ĠUsing": 9811, "ĠThrough": 9812, "ĠMetro": 9813, "ĠGib": 9814, "ĠArk": 9815, "oyd": 9816, "eps": 9817, "apper": 9818, "Ġseized": 9819, "Ġplain": 9820, "Ġmedicine": 9821, "Ġmeaningful": 9822, "Ġmargin": 9823, "Ġhosted": 9824, "ĠPy": 9825, "ĠMrs": 9826, "ĠAren": 9827, "ÑĤÐ¾": 9828, "ptions": 9829, "ogy": 9830, "irs": 9831, "acco": 9832, "Thanks": 9833, "Cor": 9834, "Ġsenator": 9835, "Ġmart": 9836, "Ġescal": 9837, "Ġcarries": 9838, "Ġbutt": 9839, "Ġartific": 9840, "ĠPa": 9841, "ÏĢ": 9842, "supp": 9843, "owski": 9844, "herent": 9845, "after": 9846, "Story": 9847, "Ġsurvival": 9848, "Ġrounds": 9849, "Ġrhetoric": 9850, "Ġmath": 9851, "Ġloves": 9852, "Ġkitchen": 9853, "Ġimplications": 9854, "Ġdub": 9855, "ĠModi": 9856, "omed": 9857, "fare": 9858, "const": 9859, "Time": 9860, "69": 9861, "250": 9862, "Ġvend": 9863, "Ġstance": 9864, "Ġshocked": 9865, "Ġriding": 9866, "Ġpsychological": 9867, "Ġmemor": 9868, "Ġknee": 9869, "Ġinstructions": 9870, "Ġinstances": 9871, "Ġexecution": 9872, "Ġeligible": 9873, "Ġconvince": 9874, "Ġcoinc": 9875, "Ġages": 9876, "Ġabilities": 9877, "ĠJeremy": 9878, "Ġ120": 9879, "udeau": 9880, "tery": 9881, "pton": 9882, "null": 9883, "awks": 9884, "SC": 9885, "2012": 9886, "Ġwet": 9887, "Ġtape": 9888, "Ġstats": 9889, "Ġsixth": 9890, "Ġridiculous": 9891, "Ġremarkable": 9892, "Ġriders": 9893, "Ġpleased": 9894, "Ġlux": 9895, "Ġinequ": 9896, "Ġbeating": 9897, "ĠVietnam": 9898, "ĠJerusalem": 9899, "ĠFO": 9900, "ĠEmail": 9901, "pack": 9902, "itts": 9903, "chell": 9904, "LY": 9905, "Ġwealthy": 9906, "Ġprincipal": 9907, "Ġmouse": 9908, "Ġinflation": 9909, "Ġadventure": 9910, "ĠTherefore": 9911, "ĠPers": 9912, "ĠMario": 9913, "ĠGiven": 9914, "ĠExper": 9915, "Ġ51": 9916, "~~": 9917, "ught": 9918, "requ": 9919, "Cur": 9920, "Ġterr": 9921, "Ġpoly": 9922, "Ġloop": 9923, "Ġgrade": 9924, "Ġglad": 9925, "Ġdamaged": 9926, "Ġbillions": 9927, "Ġbeach": 9928, "Ġanswered": 9929, "ĠVlad": 9930, "ĠAR": 9931, "kill": 9932, "itual": 9933, "isa": 9934, "fol": 9935, "MENT": 9936, "Ġsilent": 9937, "Ġprecisely": 9938, "Ġleak": 9939, "Ġhopefully": 9940, "Ġentities": 9941, "ĠWas": 9942, "ĠSingapore": 9943, "ĠSa": 9944, "ĠExpl": 9945, "ĠCho": 9946, "Ġ_": 9947, "Ã§": 9948, "duction": 9949, "Instead": 9950, "Ġweakness": 9951, "Ġunpre": 9952, "Ġsubstance": 9953, "Ġproposals": 9954, "Ġprocedure": 9955, "Ġmask": 9956, "Ġengineers": 9957, "Ġcrimin": 9958, "ĠPot": 9959, "ĠLow": 9960, "ĠDer": 9961, "ĠBM": 9962, "ĠAlberta": 9963, "Î¯": 9964, "Su": 9965, "72": 9966, "Ġseed": 9967, "Ġnewsletter": 9968, "Ġcoaching": 9969, "Ġasylum": 9970, "ĠMaryland": 9971, "ĠLA": 9972, "ĠEff": 9973, "ĠChannel": 9974, "reshold": 9975, "asant": 9976, "aki": 9977, "Ġtrends": 9978, "Ġteeth": 9979, "Ġsubscribe": 9980, "Ġinterpretation": 9981, "Ġeveryday": 9982, "ĠWhether": 9983, "ĠTok": 9984, "ĠOp": 9985, "ĠHold": 9986, "ĠDigital": 9987, "Ġ95": 9988, "umph": 9989, "mble": 9990, "bin": 9991, "Ġtorture": 9992, "Ġscrut": 9993, "Ġphotographs": 9994, "Ġindustries": 9995, "Ġgains": 9996, "Ġfled": 9997, "Ġdiplomatic": 9998, "Ġdeny": 9999, "ĠRather": 10000, "ĠOrange": 10001, "ĠKentucky": 10002, "ĠExecutive": 10003, "ĠBruce": 10004, "ĠAle": 10005, "thur": 10006, "js": 10007, "ded": 10008, "cedented": 10009, "books": 10010, "Ġwhereas": 10011, "Ġunve": 10012, "Ġstops": 10013, "Ġoutrage": 10014, "Ġmerch": 10015, "Ġlibert": 10016, "Ġlip": 10017, "Ġgross": 10018, "Ġcooperation": 10019, "ĠTrade": 10020, "ĠPage": 10021, "ĠPD": 10022, "ĠGulf": 10023, "ĠCorp": 10024, "angle": 10025, "Ġinspect": 10026, "Ġguests": 10027, "Ġautonom": 10028, "Ġadopt": 10029, "ĠTech": 10030, "ĠPass": 10031, "ĠAward": 10032, "Ġ2019": 10033, "Ġ(\"": 10034, "orous": 10035, "ocolate": 10036, "instein": 10037, "ennessee": 10038, "cre": 10039, "\">": 10040, "Ġstem": 10041, "Ġsenators": 10042, "Ġroots": 10043, "Ġnin": 10044, "Ġmanual": 10045, "Ġeliminate": 10046, "ĠStanford": 10047, "ĠIron": 10048, "ĠDO": 10049, "ĠAlp": 10050, "tainment": 10051, "olds": 10052, "ocial": 10053, "itary": 10054, "flix": 10055, "HT": 10056, "Good": 10057, "Ġuniversal": 10058, "Ġtowns": 10059, "Ġstrategies": 10060, "Ġpulling": 10061, "Ġpodcast": 10062, "Ġplayoffs": 10063, "Ġneighbors": 10064, "Ġmodified": 10065, "Ġinches": 10066, "Ġdual": 10067, "Ġaims": 10068, "ĠPlus": 10069, "ĠOrlando": 10070, "ĠKickstarter": 10071, "ĠCapital": 10072, "raig": 10073, "ped": 10074, "ardo": 10075, "amine": 10076, "Ġtransactions": 10077, "Ġstored": 10078, "Ġrevers": 10079, "Ġlegally": 10080, "Ġkeys": 10081, "Ġconsent": 10082, "Ġaged": 10083, "ĠWH": 10084, "ĠProduct": 10085, "ĠGordon": 10086, "ĠCop": 10087, "ĠBarcelona": 10088, "Ġ56": 10089, "opyright": 10090, "fr": 10091, "ethe": 10092, "Next": 10093, "Ġretirement": 10094, "Ġrepeat": 10095, "Ġrend": 10096, "Ġmystery": 10097, "Ġmile": 10098, "Ġexplaining": 10099, "Ġdomain": 10100, "Ġdisplayed": 10101, "Ġarrival": 10102, "ĠType": 10103, "ĠRonald": 10104, "ĠIM": 10105, "itudes": 10106, "gets": 10107, "acare": 10108, "83": 10109, "Ġzinc": 10110, "Ġwondering": 10111, "Ġutility": 10112, "Ġsoldier": 10113, "Ġroy": 10114, "Ġpros": 10115, "Ġperception": 10116, "Ġlift": 10117, "Ġinstitution": 10118, "Ġdescribing": 10119, "Ġbread": 10120, "Ġbands": 10121, "ĠTown": 10122, "ĠGreece": 10123, "throp": 10124, "79": 10125, "Ġsuperior": 10126, "Ġsubmitted": 10127, "Ġsignals": 10128, "Ġpreferred": 10129, "Ġparad": 10130, "Ġmac": 10131, "Ġinterf": 10132, "Ġexplosion": 10133, "Ġconservatives": 10134, "Ġaffordable": 10135, "ĠHong": 10136, "ĠGh": 10137, "ĠED": 10138, "ĠDave": 10139, "ĠCON": 10140, "press": 10141, "hire": 10142, "elve": 10143, "ele": 10144, "brid": 10145, "EG": 10146, "Ġrefuse": 10147, "Ġoccasionally": 10148, "Ġobsc": 10149, "Ġencouraging": 10150, "Ġecho": 10151, "Ġcharging": 10152, "Ġalliance": 10153, "ĠYemen": 10154, "ĠSimon": 10155, "ĠSure": 10156, "ĠNik": 10157, "ĠHero": 10158, "ĠDom": 10159, "ĠAdv": 10160, "ohan": 10161, "limited": 10162, "igenous": 10163, "erevan": 10164, "arat": 10165, "alties": 10166, "FA": 10167, "89": 10168, "Ġtu": 10169, "Ġnervous": 10170, "Ġbeings": 10171, "ĠYan": 10172, "ĠTower": 10173, "ĠBrooklyn": 10174, "week": 10175, "oting": 10176, "onz": 10177, "ighth": 10178, "dated": 10179, "byn": 10180, "bury": 10181, "Earlier": 10182, "Ġsaving": 10183, "Ġlady": 10184, "Ġinsight": 10185, "Ġdemanded": 10186, "Ġacceptable": 10187, "ĠOcean": 10188, "ĠMissouri": 10189, "ĠHarper": 10190, "ĠBatman": 10191, "tenance": 10192, "orship": 10193, "low": 10194, "ibl": 10195, "erent": 10196, "erts": 10197, "aver": 10198, "Mich": 10199, "Ġsearching": 10200, "Ġpunishment": 10201, "Ġpuzz": 10202, "Ġpicks": 10203, "Ġinvestigations": 10204, "Ġinfo": 10205, "Ġgig": 10206, "Ġextraordinary": 10207, "Ġexpanding": 10208, "Ġbullet": 10209, "ĠLibrary": 10210, "ova": 10211, "oca": 10212, "aco": 10213, "Ġveterans": 10214, "Ġupload": 10215, "Ġtoxic": 10216, "Ġsurprisingly": 10217, "Ġsubsc": 10218, "Ġscar": 10219, "Ġrecalled": 10220, "Ġgraphics": 10221, "Ġexecuted": 10222, "Ġcommander": 10223, "ĠUkrainian": 10224, "ĠStudies": 10225, "ĠMand": 10226, "ĠImm": 10227, "weather": 10228, "vas": 10229, "section": 10230, "ieties": 10231, "aeda": 10232, "Ġtons": 10233, "Ġsear": 10234, "Ġrecipe": 10235, "Ġleaked": 10236, "Ġintegration": 10237, "Ġgameplay": 10238, "Ġfuneral": 10239, "Ġearthqu": 10240, "Ġcollaps": 10241, "Ġchronic": 10242, "ĠWhit": 10243, "ĠMurray": 10244, "ĠFather": 10245, "ĠEve": 10246, "ĠBal": 10247, "screen": 10248, "rell": 10249, "fish": 10250, "check": 10251, "anim": 10252, "700": 10253, "2015": 10254, "Ġvolunteers": 10255, "Ġrolling": 10256, "Ġprocedures": 10257, "Ġpharm": 10258, "Ġoppose": 10259, "Ġorient": 10260, "Ġmortg": 10261, "Ġinfection": 10262, "Ġdiscrimin": 10263, "Ġcognitive": 10264, "Ġbattles": 10265, "ĠSav": 10266, "ĠPope": 10267, "ĠEC": 10268, "Ġ1950": 10269, "rix": 10270, "riors": 10271, "oning": 10272, "lihood": 10273, "lay": 10274, "cott": 10275, "aya": 10276, "Ġwitnesses": 10277, "Ġtonight": 10278, "Ġrelation": 10279, "Ġnotable": 10280, "Ġintegrity": 10281, "Ġhanging": 10282, "Ġdisappointed": 10283, "Ġacknowledge": 10284, "ĠSection": 10285, "ĠDuke": 10286, "ĠBuck": 10287, "ĠAntonio": 10288, "imir": 10289, "html": 10290, "ceptions": 10291, "Ġtiming": 10292, "Ġprovider": 10293, "Ġpron": 10294, "Ġna": 10295, "Ġmusical": 10296, "Ġlean": 10297, "Ġlapt": 10298, "Ġinquiry": 10299, "Ġimpression": 10300, "Ġcompelling": 10301, "Ġchallenged": 10302, "Ġbreast": 10303, "ĠMult": 10304, "ĠGDP": 10305, "ĠElizabeth": 10306, "ĠAuthority": 10307, "gered": 10308, "early": 10309, "amous": 10310, "Pre": 10311, "Dem": 10312, "84": 10313, "***": 10314, "Ġtrillion": 10315, "Ġtopics": 10316, "Ġtempor": 10317, "Ġtables": 10318, "Ġsuspic": 10319, "Ġprotein": 10320, "Ġpresents": 10321, "Ġpassenger": 10322, "Ġoperator": 10323, "Ġdifficulty": 10324, "Ġcollaboration": 10325, "ĠRepresent": 10326, "ĠBox": 10327, "sub": 10328, "amacare": 10329, "URA": 10330, "Hz": 10331, "Ġtraveling": 10332, "Ġsolo": 10333, "Ġsits": 10334, "Ġneighborhoods": 10335, "Ġjustify": 10336, "Ġinteraction": 10337, "Ġgenre": 10338, "Ġexport": 10339, "ĠEntertainment": 10340, "Ġ1992": 10341, "walk": 10342, "uter": 10343, "ui": 10344, "llor": 10345, "Cal": 10346, "73": 10347, "Ġyeah": 10348, "Ġpresentation": 10349, "Ġoutlets": 10350, "Ġintr": 10351, "Ġinstinct": 10352, "Ġemotions": 10353, "Ġcler": 10354, "ĠTennessee": 10355, "ĠPsych": 10356, "ĠHamilton": 10357, "ĠHoly": 10358, "ĠCorpor": 10359, "ĠCharlie": 10360, "ĠCode": 10361, "Ġ%": 10362, "uten": 10363, "rend": 10364, "lude": 10365, "hattan": 10366, "enter": 10367, "apolis": 10368, "ĠÐ¾": 10369, "Ġuncons": 10370, "Ġtransparency": 10371, "Ġremoving": 10372, "Ġracism": 10373, "Ġparticipation": 10374, "Ġgest": 10375, "Ġfavourite": 10376, "Ġfatal": 10377, "Ġdefect": 10378, "Ġbonus": 10379, "Ġarr": 10380, "ĠVideo": 10381, "ĠStation": 10382, "ĠMess": 10383, "ĠCH": 10384, "izza": 10385, "cosystem": 10386, "aders": 10387, "Ġvariable": 10388, "Ġstro": 10389, "Ġspan": 10390, "Ġquit": 10391, "Ġphotographer": 10392, "Ġpassage": 10393, "Ġoccurs": 10394, "Ġkidn": 10395, "Ġgri": 10396, "Ġdrinks": 10397, "Ġdelegates": 10398, "ĠStory": 10399, "ĠIndependent": 10400, "ĠDick": 10401, "ĠBelow": 10402, "thood": 10403, "ixon": 10404, "has": 10405, "author": 10406, "UST": 10407, "CI": 10408, "Ġtheories": 10409, "Ġshirt": 10410, "Ġembrace": 10411, "Ġconsensus": 10412, "ĠMarvel": 10413, "ĠKill": 10414, "ĠBarb": 10415, "vernment": 10416, "oenix": 10417, "Tunes": 10418, "Christ": 10419, "Ġwhist": 10420, "Ġthreshold": 10421, "Ġsheet": 10422, "Ġsexually": 10423, "Ġswit": 10424, "Ġpride": 10425, "Ġpollution": 10426, "Ġmanufacturers": 10427, "Ġfo": 10428, "Ġdefeated": 10429, "Ġcreatures": 10430, "Ġconsciousness": 10431, "Ġarts": 10432, "ĠComey": 10433, "wind": 10434, "than": 10435, "rup": 10436, "rows": 10437, "izarre": 10438, "istant": 10439, "good": 10440, "aria": 10441, "Hey": 10442, "Ġundert": 10443, "Ġtear": 10444, "Ġsavings": 10445, "Ġpassword": 10446, "Ġoxygen": 10447, "Ġopposing": 10448, "Ġoperators": 10449, "Ġholes": 10450, "Ġdesperate": 10451, "Ġdeployed": 10452, "ĠCou": 10453, "igration": 10454, "___": 10455, "Paul": 10456, "Ġmaintaining": 10457, "Ġknock": 10458, "Ġjournalism": 10459, "Ġcorrupt": 10460, "Ġassociate": 10461, "Ġasset": 10462, "ĠRs": 10463, "ĠRh": 10464, "ĠRest": 10465, "ĠLog": 10466, "ĠKurdish": 10467, "ĠBor": 10468, "Ġ250": 10469, "ults": 10470, "olph": 10471, "mad": 10472, "inst": 10473, "Mod": 10474, "Br": 10475, "Ġtremendous": 10476, "Ġsuspension": 10477, "Ġsentenced": 10478, "Ġresidential": 10479, "Ġrequirement": 10480, "Ġpicking": 10481, "Ġpanels": 10482, "Ġmothers": 10483, "Ġmissions": 10484, "Ġfingers": 10485, "Ġdistricts": 10486, "Ġdistribut": 10487, "Ġcommunicate": 10488, "Ġbrutal": 10489, "Ġbadly": 10490, "ĠSci": 10491, "ĠDomin": 10492, "à¤": 10493, "yes": 10494, "terror": 10495, "eness": 10496, "acre": 10497, "OK": 10498, "MIN": 10499, "82": 10500, "150": 10501, "Ġviolations": 10502, "Ġsubmit": 10503, "Ġreserved": 10504, "Ġrecovered": 10505, "Ġpromoting": 10506, "Ġisolated": 10507, "Ġinstant": 10508, "Ġimposed": 10509, "Ġbold": 10510, "ĠPant": 10511, "ĠMichel": 10512, "ĠJavaScript": 10513, "ĠHug": 10514, "ĠBra": 10515, "ĠBoe": 10516, "odox": 10517, "Gener": 10518, "Ġvocal": 10519, "Ġpunch": 10520, "Ġpocket": 10521, "Ġmoderate": 10522, "Ġintellig": 10523, "Ġhospitals": 10524, "Ġfilter": 10525, "Ġcreature": 10526, "Ġcouples": 10527, "Ġaccuracy": 10528, "ĠTrudeau": 10529, "ĠTed": 10530, "ĠRoll": 10531, "ĠPerry": 10532, "ĠPod": 10533, "ĠMother": 10534, "ĠEPA": 10535, "ĠBarn": 10536, "ument": 10537, "istance": 10538, "estyle": 10539, "cour": 10540, "asting": 10541, "Ġwanting": 10542, "Ġvoid": 10543, "Ġpregnant": 10544, "Ġdisabled": 10545, "Ġdimin": 10546, "Ġcontemporary": 10547, "Ġconstitu": 10548, "Ġconsole": 10549, "Ġadvocate": 10550, "Ġaccompan": 10551, "ĠSpir": 10552, "ĠManhattan": 10553, "ĠFinally": 10554, "ĠAlan": 10555, "},": 10556, "vi": 10557, "strong": 10558, "portation": 10559, "owned": 10560, "otion": 10561, "jamin": 10562, "imize": 10563, "Top": 10564, "Speaking": 10565, "Ġunderground": 10566, "Ġsections": 10567, "Ġpolar": 10568, "Ġlibr": 10569, "Ġguid": 10570, "Ġforgotten": 10571, "Ġfaculty": 10572, "Ġdreams": 10573, "Ġconvert": 10574, "Ġchecked": 10575, "Ġcertific": 10576, "Ġacquis": 10577, "ĠLibya": 10578, "ĠIndians": 10579, "ĠFive": 10580, "ĠBlood": 10581, "kee": 10582, "enez": 10583, "ding": 10584, "cor": 10585, "bound": 10586, "Ġspo": 10587, "Ġsimultaneously": 10588, "Ġendorse": 10589, "Ġdirections": 10590, "Ġcave": 10591, "Ġavo": 10592, "ĠOnline": 10593, "ĠNevada": 10594, "ĠMississ": 10595, "ĠMove": 10596, "ĠInstagram": 10597, "ĠConvention": 10598, "ÂĴ": 10599, "she": 10600, "Step": 10601, "Ġsegment": 10602, "Ġrevolutionary": 10603, "Ġlanded": 10604, "Ġirre": 10605, "Ġguards": 10606, "Ġfrequent": 10607, "Ġexclusively": 10608, "Ġevolved": 10609, "Ġelder": 10610, "Ġcreator": 10611, "ĠPoland": 10612, "ĠMontreal": 10613, "ĠHawai": 10614, "bourne": 10615, "ateral": 10616, "Mac": 10617, "Leaks": 10618, "Ġtissue": 10619, "Ġpill": 10620, "Ġinvasion": 10621, "Ġdependent": 10622, "Ġconstitution": 10623, "Ġarena": 10624, "Ġapproaches": 10625, "Ġ!": 10626, "âĢ³": 10627, "asury": 10628, "View": 10629, "UI": 10630, "State": 10631, "Ġunprecedented": 10632, "Ġtraged": 10633, "Ġpublishing": 10634, "Ġprospects": 10635, "Ġpromotion": 10636, "Ġoccasion": 10637, "Ġgym": 10638, "Ġengineer": 10639, "Ġdistur": 10640, "Ġdisappear": 10641, "Ġcops": 10642, "Ġcamps": 10643, "Ġbene": 10644, "Ġburning": 10645, "Ġbases": 10646, "Ġanalysts": 10647, "Ġanonymous": 10648, "ĠStandard": 10649, "ĠHond": 10650, "uther": 10651, "div": 10652, "Play": 10653, "Ġtransferred": 10654, "Ġshoes": 10655, "Ġshocking": 10656, "Ġrecruit": 10657, "Ġprompted": 10658, "Ġpolitician": 10659, "Ġpeaceful": 10660, "Ġpartly": 10661, "Ġintegrated": 10662, "Ġexpense": 10663, "Ġcoins": 10664, "Ġbrands": 10665, "ĠUnivers": 10666, "ĠSaint": 10667, "ĠMun": 10668, "ĠDragon": 10669, "rifice": 10670, "ophob": 10671, "necess": 10672, "Finally": 10673, "Ġsteering": 10674, "Ġstating": 10675, "Ġsettle": 10676, "Ġsequence": 10677, "Ġrequiring": 10678, "Ġowns": 10679, "Ġmotivated": 10680, "Ġhunt": 10681, "Ġduration": 10682, "ĠStore": 10683, "ĠDur": 10684, "ĠCoal": 10685, "ĠArena": 10686, "izer": 10687, "####": 10688, "Ġsurviv": 10689, "Ġmanagers": 10690, "Ġdropping": 10691, "Ġdies": 10692, "Ġangle": 10693, "ĠTel": 10694, "ĠPA": 10695, "ĠMarg": 10696, "ĠJenn": 10697, "ĠCommons": 10698, "Ä±": 10699, "merce": 10700, "itol": 10701, "iking": 10702, "ching": 10703, "OG": 10704, "Following": 10705, "Did": 10706, "Ġsurvived": 10707, "Ġsne": 10708, "Ġrepresentation": 10709, "Ġprofessionals": 10710, "Ġinterviewed": 10711, "Ġhosts": 10712, "Ġheroes": 10713, "Ġdefender": 10714, "Ġclothing": 10715, "Ġchoosing": 10716, "Ġbeneath": 10717, "ĠNetflix": 10718, "ĠMountain": 10719, "ĠKr": 10720, "ĠAS": 10721, "Ġ99": 10722, "overs": 10723, "irates": 10724, "election": 10725, "atively": 10726, "VP": 10727, "Perhaps": 10728, "Ġtum": 10729, "Ġsubtle": 10730, "Ġperiods": 10731, "ĠVladimir": 10732, "ĠTax": 10733, "ĠOlympics": 10734, "ĠNature": 10735, "ĠLear": 10736, "ĠJonathan": 10737, "ĠHitler": 10738, "ĠFall": 10739, "rics": 10740, "quest": 10741, "dict": 10742, "anguage": 10743, "ĠÐ¸": 10744, "Ġroutes": 10745, "Ġguaranteed": 10746, "Ġflee": 10747, "Ġentrance": 10748, "Ġecosystem": 10749, "Ġdesigns": 10750, "Ġconcerning": 10751, "Ã©s": 10752, "stop": 10753, "reek": 10754, "ogg": 10755, "iture": 10756, "arted": 10757, "aration": 10758, "adesh": 10759, "Ġreleasing": 10760, "Ġlayers": 10761, "Ġgarden": 10762, "Ġevident": 10763, "Ġeggs": 10764, "Ġdeparture": 10765, "Ġdelight": 10766, "Ġdebates": 10767, "Ġdeemed": 10768, "Ġbot": 10769, "Ġbones": 10770, "Ġbits": 10771, "ĠPT": 10772, "ĠObamacare": 10773, "ĠHeat": 10774, "ĠHarrison": 10775, "ĠCreat": 10776, "olving": 10777, "natural": 10778, "math": 10779, "luded": 10780, "left": 10781, "ido": 10782, "iLeaks": 10783, "anches": 10784, "aa": 10785, "Gu": 10786, "CL": 10787, "Ġscrew": 10788, "Ġresearcher": 10789, "Ġreferences": 10790, "Ġjudicial": 10791, "Ġindicates": 10792, "Ġbutter": 10793, "Ġblamed": 10794, "Ġbankrupt": 10795, "Ġbubble": 10796, "ĠMitchell": 10797, "ĠCustom": 10798, "ĠCase": 10799, "oub": 10800, "isk": 10801, "bes": 10802, "Ur": 10803, "Name": 10804, "Further": 10805, "Ġrecre": 10806, "Ġprize": 10807, "Ġnationwide": 10808, "Ġnurs": 10809, "Ġexamined": 10810, "Ġeconomics": 10811, "ĠOR": 10812, "ĠLouisiana": 10813, "ĠJane": 10814, "ĠGiants": 10815, "ĠFinal": 10816, "ĠBerlin": 10817, "ĠBase": 10818, "ĠAlliance": 10819, "ĠAge": 10820, "scar": 10821, "base": 10822, "Ge": 10823, "Each": 10824, "Act": 10825, "Ġrestore": 10826, "Ġrib": 10827, "Ġhip": 10828, "Ġgentle": 10829, "Ġdesert": 10830, "Ġcompromise": 10831, "ĠWarner": 10832, "ĠTesla": 10833, "ĠHal": 10834, "ĠBlake": 10835, "ĠBenn": 10836, "Ġ76": 10837, "Î¬": 10838, "will": 10839, "ittsburgh": 10840, "ds": 10841, "actor": 10842, "Best": 10843, "::": 10844, ".:": 10845, "Ġwireless": 10846, "Ġtrailer": 10847, "Ġseeks": 10848, "Ġradiation": 10849, "Ġpursu": 10850, "Ġpow": 10851, "Ġorganic": 10852, "Ġobservations": 10853, "Ġlabour": 10854, "Ġinher": 10855, "Ġcoup": 10856, "Ġattending": 10857, "ĠStaff": 10858, "ĠSource": 10859, "ĠMobile": 10860, "ĠIan": 10861, "ĠChristopher": 10862, "ĠAbu": 10863, "uh": 10864, "rying": 10865, "die": 10866, "asted": 10867, "PL": 10868, "Mus": 10869, "China": 10870, "Ġwherever": 10871, "Ġtrips": 10872, "Ġsophistic": 10873, "Ġrepair": 10874, "Ġoccasional": 10875, "Ġmigrants": 10876, "Ġinvestigated": 10877, "Ġhunting": 10878, "Ġhiring": 10879, "Ġexpenses": 10880, "ĠNob": 10881, "ĠHaving": 10882, "ĠForest": 10883, "ĠDak": 10884, "usting": 10885, "ugby": 10886, "ques": 10887, "oute": 10888, "ouses": 10889, "neg": 10890, "may": 10891, "ista": 10892, "inck": 10893, "fortable": 10894, "Posted": 10895, "Ġspeakers": 10896, "Ġpossibilities": 10897, "Ġoperated": 10898, "Ġmirror": 10899, "Ġlogical": 10900, "Ġkiller": 10901, "Ġforum": 10902, "Ġdominated": 10903, "Ġbirthday": 10904, "ĠSwedish": 10905, "ĠProtection": 10906, "ĠGates": 10907, "ĠComb": 10908, "ĠCould": 10909, "olas": 10910, "ilation": 10911, "brance": 10912, "arson": 10913, "Pat": 10914, "Fl": 10915, "Ġsupplement": 10916, "Ġsauce": 10917, "Ġracing": 10918, "Ġric": 10919, "Ġprosecution": 10920, "Ġlogo": 10921, "Ġdepartments": 10922, "Ġcontrary": 10923, "Ġbeaten": 10924, "Ġalgorithm": 10925, "ĠMap": 10926, "ĠGOLD": 10927, "ĠFollowing": 10928, "Ġ>\"": 10929, "Ġ1986": 10930, "quer": 10931, "ls": 10932, "hill": 10933, "graph": 10934, "feld": 10935, "function": 10936, "breaking": 10937, "borne": 10938, "NY": 10939, "Ġteammates": 10940, "Ġsuck": 10941, "Ġregistration": 10942, "Ġmurdered": 10943, "Ġlifetime": 10944, "Ġlobb": 10945, "Ġkeyboard": 10946, "Ġfossil": 10947, "Ġengaging": 10948, "Ġconfused": 10949, "Ġcabinet": 10950, "ĠYang": 10951, "ĠTai": 10952, "ĠNelson": 10953, "ĠGard": 10954, "ĠEveryone": 10955, "wed": 10956, "father": 10957, "Only": 10958, "Ġtelephone": 10959, "Ġspawn": 10960, "Ġprobe": 10961, "Ġlongtime": 10962, "Ġkm": 10963, "Ġjer": 10964, "Ġdevelopments": 10965, "Ġcinem": 10966, "ĠTrust": 10967, "ĠPentagon": 10968, "ĠIndust": 10969, "Ġ800": 10970, "âĢ¦âĢ¦âĢ¦âĢ¦âĢ¦âĢ¦âĢ¦âĢ¦": 10971, "rior": 10972, "pg": 10973, "Comm": 10974, "CP": 10975, "Ġquantum": 10976, "Ġproportion": 10977, "Ġpleasure": 10978, "Ġhub": 10979, "Ġharsh": 10980, "Ġemp": 10981, "Ġelectoral": 10982, "Ġdrunk": 10983, "Ġdetention": 10984, "Ġcriminals": 10985, "Ġconvenient": 10986, "Ġconfusion": 10987, "Ġcoord": 10988, "Ġchip": 10989, "Ġathletes": 10990, "Ġaccepting": 10991, "ĠPhilip": 10992, "ĠMA": 10993, "ĠLeft": 10994, "ĠDesign": 10995, "ĠBurn": 10996, "Ñħ": 10997, "iere": 10998, "appropri": 10999, "Mark": 11000, "Ġutter": 11001, "Ġraises": 11002, "Ġpriest": 11003, "Ġposting": 11004, "Ġmaintenance": 11005, "Ġconviction": 11006, "Ġanch": 11007, "ĠWould": 11008, "ĠSon": 11009, "ĠRobinson": 11010, "ĠNich": 11011, "ĠMoreover": 11012, "ĠEvent": 11013, "ĠEst": 11014, "ĠDod": 11015, "ĠCanadians": 11016, "Ġvert": 11017, "via": 11018, "income": 11019, "half": 11020, "grade": 11021, "Whe": 11022, "Ġviolated": 11023, "Ġuna": 11024, "Ġsubsequently": 11025, "Ġraid": 11026, "Ġpublish": 11027, "Ġhorm": 11028, "Ġdramatically": 11029, "Ġcapitalism": 11030, "Ġbacks": 11031, "Ġbird": 11032, "ĠHamp": 11033, "ĠForm": 11034, "ĠBud": 11035, "urches": 11036, "uj": 11037, "some": 11038, "ski": 11039, "friendly": 11040, "aux": 11041, "assion": 11042, "anson": 11043, "\\\\": 11044, "TON": 11045, "Ġresolve": 11046, "Ġprofound": 11047, "Ġorganis": 11048, "Ġinspiration": 11049, "Ġinfluential": 11050, "Ġexplicitly": 11051, "Ġenact": 11052, "Ġdestination": 11053, "Ġcorn": 11054, "Ġconsiderable": 11055, "Ġcolour": 11056, "Ġboards": 11057, "Ġbump": 11058, "Ġapplies": 11059, "Ġannoy": 11060, "ĠYerevan": 11061, "ĠHan": 11062, "ĠCorbyn": 11063, "onduct": 11064, "gal": 11065, "disc": 11066, "acles": 11067, "UTERS": 11068, "List": 11069, "Gr": 11070, "Ġtoss": 11071, "Ġtong": 11072, "Ġtap": 11073, "Ġreluct": 11074, "Ġrefers": 11075, "Ġproductive": 11076, "Ġovernight": 11077, "Ġingredients": 11078, "Ġfabric": 11079, "Ġconced": 11080, "Ġcleared": 11081, "Ġchecking": 11082, "Ġblocking": 11083, "Ġballs": 11084, "Ġaccord": 11085, "Ġacid": 11086, "ĠYOU": 11087, "ĠSeveral": 11088, "ĠSet": 11089, "value": 11090, "ulse": 11091, "tic": 11092, "iox": 11093, "etheless": 11094, "ergus": 11095, "dr": 11096, "Aut": 11097, "Ġstruggles": 11098, "Ġrh": 11099, "Ġposter": 11100, "Ġjunior": 11101, "Ġfails": 11102, "Ġengagement": 11103, "Ġelectron": 11104, "Ġduties": 11105, "Ġclosest": 11106, "Ġcarrier": 11107, "Ġcens": 11108, "Ġbathroom": 11109, "Ġattracted": 11110, "Ġabund": 11111, "ĠSport": 11112, "ĠKings": 11113, "ĠGuy": 11114, "ĠEverything": 11115, "ĠDeb": 11116, "ĠCapt": 11117, "ĠArea": 11118, "itty": 11119, "isdom": 11120, "hers": 11121, "human": 11122, "endar": 11123, "comp": 11124, "arios": 11125, "EX": 11126, "Ben": 11127, "========": 11128, "ĠÏĢ": 11129, "Ġthro": 11130, "Ġinfluenced": 11131, "ĠiTunes": 11132, "Ġglobe": 11133, "Ġbizarre": 11134, "ĠNone": 11135, "ĠMail": 11136, "ĠIraqi": 11137, "ĠIntel": 11138, "ĠET": 11139, "offs": 11140, "lif": 11141, "Ġsinger": 11142, "Ġnowhere": 11143, "Ġmuscle": 11144, "Ġmeters": 11145, "Ġinfring": 11146, "Ġinevitable": 11147, "Ġimmune": 11148, "Ġhandled": 11149, "Ġfucking": 11150, "Ġassembly": 11151, "Ġambit": 11152, "ĠProm": 11153, "ĠLeon": 11154, "ĠFantasy": 11155, "ĠClimate": 11156, "wall": 11157, "oner": 11158, "oli": 11159, "ippi": 11160, "ipedia": 11161, "formed": 11162, "etry": 11163, "agen": 11164, "62": 11165, "Ġworlds": 11166, "Ġsleeping": 11167, "Ġshipping": 11168, "Ġinterven": 11169, "Ġdesigner": 11170, "Ġdecrease": 11171, "Ġcurious": 11172, "ĠSac": 11173, "ĠLater": 11174, "ĠGab": 11175, "ĠEver": 11176, "ĠCaptain": 11177, "Ġ85": 11178, "oj": 11179, "gly": 11180, "CAA": 11181, "Ġtab": 11182, "Ġreck": 11183, "Ġinvested": 11184, "Ġinbox": 11185, "Ġhorrible": 11186, "Ġhiding": 11187, "Ġelabor": 11188, "Ġdocumentation": 11189, "Ġboxes": 11190, "Ġaccum": 11191, "ĠThink": 11192, "ĠNether": 11193, "ĠLarry": 11194, "ĠGro": 11195, "ĠCPU": 11196, "ĠBou": 11197, "ĠAssembly": 11198, "Ð°Ð½": 11199, "resa": 11200, "olitical": 11201, "lly": 11202, "Three": 11203, "PAUL": 11204, "Look": 11205, "Former": 11206, "2013": 11207, "Ġtransmission": 11208, "Ġtension": 11209, "Ġsurrounded": 11210, "Ġspeaker": 11211, "Ġsimilarly": 11212, "Ġpermitted": 11213, "Ġobser": 11214, "Ġlesson": 11215, "Ġintimid": 11216, "Ġidentical": 11217, "Ġchaos": 11218, "Ġcake": 11219, "Ġbuyers": 11220, "Ġbelt": 11221, "Ġadvent": 11222, "ĠUbuntu": 11223, "ĠSD": 11224, "ĠOrder": 11225, "ĠMarine": 11226, "ĠCommissioner": 11227, "secutive": 11228, "rov": 11229, "mother": 11230, "million": 11231, "lynn": 11232, "armed": 11233, "Yeah": 11234, "AV": 11235, "Ġtherapy": 11236, "Ġsupposedly": 11237, "Ġshops": 11238, "Ġrolled": 11239, "Ġpreserve": 11240, "Ġfel": 11241, "Ġfare": 11242, "Ġdoctr": 11243, "Ġdefended": 11244, "Ġcorrectly": 11245, "Ġalert": 11246, "Ġaffects": 11247, "ĠNazi": 11248, "ĠHung": 11249, "ĠHuff": 11250, "ĠHann": 11251, "ĠEdition": 11252, "ĠCommand": 11253, "omic": 11254, "ockets": 11255, "nan": 11256, "gged": 11257, "exp": 11258, "boys": 11259, "GE": 11260, "Ġsubur": 11261, "Ġstopping": 11262, "Ġsmoking": 11263, "Ġpreparation": 11264, "Ġmit": 11265, "Ġlone": 11266, "Ġfestival": 11267, "Ġcurve": 11268, "Ġcease": 11269, "Ġbriefly": 11270, "Ġartificial": 11271, "ĠStudios": 11272, "ĠOfficer": 11273, "ĠHeart": 11274, "Ġ54": 11275, "seless": 11276, "otypes": 11277, "hal": 11278, "afi": 11279, "?âĢĻ": 11280, "Ġreactions": 11281, "Ġpacked": 11282, "Ġpupp": 11283, "Ġoutcomes": 11284, "Ġorganisation": 11285, "Ġmeal": 11286, "Ġjumped": 11287, "Ġjokes": 11288, "Ġinaug": 11289, "Ġimpacts": 11290, "Ġguidance": 11291, "Ġformation": 11292, "Ġexcuse": 11293, "Ġcorrel": 11294, "Ġcelebrated": 11295, "Ġbombing": 11296, "ĠUnit": 11297, "ĠTokyo": 11298, "ĠSoft": 11299, "ĠPo": 11300, "ĠMMA": 11301, "ĠLeban": 11302, "ĠLeaf": 11303, "ĠElection": 11304, "Ġ72": 11305, "Ġ600": 11306, "inckley": 11307, "eren": 11308, "arians": 11309, "Thank": 11310, "TP": 11311, "Prof": 11312, "DAY": 11313, "Ġvoc": 11314, "Ġtransaction": 11315, "Ġtaxpayers": 11316, "Ġsmugg": 11317, "Ġrealistic": 11318, "Ġproduces": 11319, "Ġkicked": 11320, "Ġdealt": 11321, "Ġcourtesy": 11322, "Ġbacteria": 11323, "Ġbags": 11324, "Ġalph": 11325, "Ġadvised": 11326, "ĠTurner": 11327, "ĠOil": 11328, "ĠMarshall": 11329, "ĠEgyptian": 11330, "wich": 11331, "utter": 11332, "uating": 11333, "security": 11334, "inite": 11335, "enezuel": 11336, "Game": 11337, "Ġwinners": 11338, "Ġvisits": 11339, "Ġvit": 11340, "Ġtorn": 11341, "Ġstamp": 11342, "Ġsessions": 11343, "Ġpredec": 11344, "Ġphotography": 11345, "Ġoutf": 11346, "Ġnights": 11347, "Ġmunicipal": 11348, "Ġfishing": 11349, "Ġemployers": 11350, "Ġdrops": 11351, "Ġcomplained": 11352, "Ġathe": 11353, "ĠTerry": 11354, "ĠShort": 11355, "ĠFig": 11356, "ĠEagles": 11357, "ĠContinue": 11358, "ĠChange": 11359, "ĠAFP": 11360, "Ġ1989": 11361, "ÏĮ": 11362, "incial": 11363, "icked": 11364, "gate": 11365, "dri": 11366, "bery": 11367, "acular": 11368, "LAURA": 11369, "Ġwise": 11370, "Ġuncertainty": 11371, "Ġslot": 11372, "Ġsensors": 11373, "Ġprosecutor": 11374, "Ġpose": 11375, "Ġlimitations": 11376, "Ġimpose": 11377, "Ġfut": 11378, "ĠPhill": 11379, "ĠJe": 11380, "ĠDub": 11381, "ĠCole": 11382, "zb": 11383, "second": 11384, "ressing": 11385, "erguson": 11386, "abetes": 11387, "Rich": 11388, "Pal": 11389, "PI": 11390, "Ġventure": 11391, "Ġunnecess": 11392, "Ġregret": 11393, "Ġprivilege": 11394, "Ġexpecting": 11395, "Ġda": 11396, "Ġbeta": 11397, "ĠQueens": 11398, "ĠMelbourne": 11399, "ĠHamas": 11400, "ĠCollins": 11401, "itement": 11402, "UC": 11403, "Ġtoug": 11404, "Ġsustainable": 11405, "Ġreass": 11406, "Ġinequality": 11407, "Ġfinishing": 11408, "Ġdesp": 11409, "ĠSaints": 11410, "ĠRu": 11411, "ĠRaven": 11412, "ĠComput": 11413, "ĠChairman": 11414, "ĠBir": 11415, "ĠBand": 11416, "ÑĤÑĮ": 11417, "leading": 11418, "kward": 11419, "iens": 11420, "iac": 11421, "direct": 11422, "ante": 11423, "WS": 11424, "TIS": 11425, "Ġther": 11426, "Ġremembered": 11427, "Ġoperates": 11428, "Ġlaunching": 11429, "Ġepid": 11430, "ĠTam": 11431, "ĠHunter": 11432, "ĠHur": 11433, "ĠCas": 11434, "ĠBlock": 11435, "ĠBeng": 11436, "Ġ</": 11437, "umbl": 11438, "rowing": 11439, "roph": 11440, "idal": 11441, "gov": 11442, "Have": 11443, "Ġwound": 11444, "Ġunfortunately": 11445, "Ġunconscious": 11446, "Ġpraised": 11447, "Ġambitious": 11448, "Ġawards": 11449, "ĠVin": 11450, "ĠNative": 11451, "ĠLB": 11452, "town": 11453, "story": 11454, "onder": 11455, "arently": 11456, "FO": 11457, "Ġtoile": 11458, "Ġspeeds": 11459, "Ġspeculation": 11460, "Ġresemb": 11461, "Ġinnovative": 11462, "Ġfigured": 11463, "Ġfer": 11464, "Ġexpects": 11465, "Ġdonors": 11466, "Ġdonated": 11467, "Ġconsists": 11468, "Ġconsecutive": 11469, "ĠWord": 11470, "ĠReserve": 11471, "ĠGOLDMAN": 11472, "ĠBrandon": 11473, "ĠBlog": 11474, "Ïī": 11475, "ucker": 11476, "eting": 11477, "di": 11478, "anyahu": 11479, "Trans": 11480, "EMENT": 11481, "DC": 11482, "ATCH": 11483, "Ġune": 11484, "Ġsuggestion": 11485, "Ġpledge": 11486, "Ġpatri": 11487, "Ġmeanwhile": 11488, "Ġluxury": 11489, "Ġloaded": 11490, "Ġkeen": 11491, "Ġhes": 11492, "Ġgrip": 11493, "Ġdestro": 11494, "ĠVen": 11495, "ĠRussians": 11496, "ĠEb": 11497, "ĠChampions": 11498, "ĠCos": 11499, "ĠCitiz": 11500, "uez": 11501, "rencies": 11502, "player": 11503, "orneys": 11504, "ierre": 11505, "bull": 11506, "Ġteenager": 11507, "Ġtale": 11508, "Ġreviewed": 11509, "Ġrenewable": 11510, "Ġreconst": 11511, "Ġranging": 11512, "Ġprinted": 11513, "Ġparticipating": 11514, "Ġorientation": 11515, "Ġnotably": 11516, "Ġmountains": 11517, "Ġminimal": 11518, "Ġinsect": 11519, "Ġequipped": 11520, "Ġdressed": 11521, "Ġcontents": 11522, "Ġcompetitors": 11523, "Ġbone": 11524, "Ġally": 11525, "ĠVo": 11526, "ĠMaria": 11527, "ĠHunt": 11528, "ĠFitz": 11529, "ĠDougl": 11530, "ĠDrive": 11531, "ĠCell": 11532, "ĠBenjamin": 11533, "ĠAdams": 11534, "Ġ()": 11535, "ocated": 11536, "isd": 11537, "gary": 11538, "boards": 11539, "ampa": 11540, "Advertisements": 11541, "Ġtraded": 11542, "Ġsacrifice": 11543, "Ġranking": 11544, "Ġquestioning": 11545, "Ġoccupied": 11546, "Ġenviron": 11547, "Ġconstructed": 11548, "Ġawful": 11549, "Ġavailability": 11550, "Ġassists": 11551, "ĠSnowden": 11552, "ĠRome": 11553, "ĠMcCon": 11554, "ĠIndones": 11555, "ĠHinckley": 11556, "ĠEconomic": 11557, "ĠEmer": 11558, "âĢ¦.": 11559, "âĪĴ": 11560, "Ãł": 11561, "uz": 11562, "look": 11563, "fi": 11564, "ernel": 11565, "eller": 11566, "big": 11567, "ERE": 11568, "Cap": 11569, "Book": 11570, "Ġyell": 11571, "Ġtragedy": 11572, "Ġpromoted": 11573, "Ġoldest": 11574, "Ġfits": 11575, "Ġfert": 11576, "Ġdirectors": 11577, "Ġcountless": 11578, "Ġcharacteristics": 11579, "Ġbottles": 11580, "Ġbombs": 11581, "Ġbarg": 11582, "Ġanalys": 11583, "Ġaccusations": 11584, "ĠWard": 11585, "ĠMoto": 11586, "ĠCharlotte": 11587, "Ġ57": 11588, "iden": 11589, "dep": 11590, "();": 11591, "Ġvolunt": 11592, "Ġtears": 11593, "Ġsolely": 11594, "Ġrobust": 11595, "Ġordin": 11596, "Ġmechanics": 11597, "Ġintrig": 11598, "Ġimprison": 11599, "Ġideology": 11600, "Ġhouseholds": 11601, "Ġharvest": 11602, "Ġflav": 11603, "Ġcourage": 11604, "Ġconclusions": 11605, "Ġautomatic": 11606, "ĠWikiLeaks": 11607, "ĠStew": 11608, "ĠPittsburgh": 11609, "ĠNetherlands": 11610, "ĠCraig": 11611, "ĠAndy": 11612, "ĠAdditionally": 11613, "Ġ58": 11614, "âĸ": 11615, "eshmo": 11616, "erald": 11617, "being": 11618, "Fi": 11619, "Among": 11620, "Ġstatic": 11621, "Ġslide": 11622, "Ġregarded": 11623, "Ġrivals": 11624, "Ġqualified": 11625, "Ġprost": 11626, "Ġpoorly": 11627, "Ġministers": 11628, "Ġlib": 11629, "Ġjoeshmo": 11630, "Ġinfant": 11631, "Ġghost": 11632, "Ġfoods": 11633, "Ġdeserves": 11634, "Ġcalculated": 11635, "Ġassumption": 11636, "Ġaccompanied": 11637, "ĠMPs": 11638, "ĠHand": 11639, "ĠChance": 11640, "Ġq": 11641, "âĢĿ)": 11642, "zone": 11643, "words": 11644, "rition": 11645, "oned": 11646, "icating": 11647, "iated": 11648, "dog": 11649, "because": 11650, "Mart": 11651, "Fe": 11652, "Att": 11653, "Ag": 11654, "Ġvent": 11655, "Ġquietly": 11656, "Ġpressing": 11657, "Ġneur": 11658, "Ġlas": 11659, "Ġhelic": 11660, "Ġampl": 11661, "ĠWarren": 11662, "ĠWales": 11663, "ĠMississippi": 11664, "ĠHad": 11665, "ĠGa": 11666, "ĠCapitol": 11667, "Ġ66": 11668, "ÐµÐ½": 11669, "white": 11670, "pert": 11671, "ifier": 11672, "iÃ³n": 11673, "esides": 11674, "Israel": 11675, "Ant": 11676, "ĠÎº": 11677, "Ġstrengthen": 11678, "Ġsinging": 11679, "Ġqualify": 11680, "Ġexperimental": 11681, "ĠUnlike": 11682, "ĠOttawa": 11683, "ĠNon": 11684, "ĠFR": 11685, "Ġ1987": 11686, "piece": 11687, "oline": 11688, "leton": 11689, "isible": 11690, "IX": 11691, "EE": 11692, "Ġvenue": 11693, "Ġuncomfortable": 11694, "Ġtill": 11695, "Ġsignificance": 11696, "Ġmanifest": 11697, "Ġmisc": 11698, "Ġinteractions": 11699, "Ġexamine": 11700, "Ġcruel": 11701, "Ġboom": 11702, "ĠWy": 11703, "ĠTrek": 11704, "ĠShould": 11705, "ĠDrug": 11706, "ĠBible": 11707, "ĠAccess": 11708, "Ġ62": 11709, "user": 11710, "think": 11711, "tra": 11712, "mir": 11713, "ighting": 11714, "data": 11715, "backed": 11716, "about": 11717, "Jo": 11718, "Ġpainful": 11719, "Ġinhab": 11720, "Ġgradually": 11721, "Ġfascinating": 11722, "Ġequity": 11723, "Ġdevoted": 11724, "Ġbol": 11725, "Ġadministrative": 11726, "ĠWi": 11727, "ĠRow": 11728, "ĠOpp": 11729, "ĠManager": 11730, "ĠLes": 11731, "ĠLaur": 11732, "ĠHampshire": 11733, "ĠFuture": 11734, "forward": 11735, "block": 11736, "aternity": 11737, "asmine": 11738, "amy": 11739, "aments": 11740, "Stud": 11741, "Right": 11742, "Black": 11743, "Ġwore": 11744, "Ġsummary": 11745, "Ġsophisticated": 11746, "Ġpainting": 11747, "Ġmeets": 11748, "Ġclinic": 11749, "Ġburst": 11750, "Ġbund": 11751, "Ġappointment": 11752, "ĠSud": 11753, "ĠRecords": 11754, "ĠMD": 11755, "ĠJacob": 11756, "ĠAaron": 11757, "unity": 11758, "two": 11759, "roc": 11760, "leep": 11761, "ixture": 11762, "heriff": 11763, "elcome": 11764, "century": 11765, "cap": 11766, "Rad": 11767, "MINA": 11768, "La": 11769, "Ġwhis": 11770, "Ġsynd": 11771, "Ġsentiment": 11772, "Ġsecular": 11773, "Ġrou": 11774, "Ġmechanisms": 11775, "Ġlane": 11776, "Ġimperial": 11777, "Ġenabled": 11778, "Ġdrum": 11779, "Ġdecor": 11780, "Ġadj": 11781, "ĠWright": 11782, "ĠSS": 11783, "ĠPAC": 11784, "ĠNaz": 11785, "ĠMuch": 11786, "ĠBrus": 11787, "ulum": 11788, "thodox": 11789, "oples": 11790, "olitan": 11791, "imens": 11792, "handed": 11793, "fox": 11794, "embrance": 11795, "IRMINA": 11796, "Ġseventh": 11797, "Ġseparated": 11798, "Ġseeds": 11799, "Ġpsychiat": 11800, "Ġpreventing": 11801, "Ġdisplays": 11802, "Ġcoin": 11803, "ĠPhoenix": 11804, "ĠMM": 11805, "version": 11806, "uming": 11807, "oons": 11808, "inge": 11809, "ige": 11810, "iciary": 11811, "cular": 11812, "amount": 11813, "ĠÐ¼": 11814, "Ġstack": 11815, "Ġsake": 11816, "Ġsisters": 11817, "Ġrobots": 11818, "Ġreflects": 11819, "Ġparticles": 11820, "Ġoccasions": 11821, "Ġmotivation": 11822, "Ġflour": 11823, "Ġele": 11824, "Ġdesignated": 11825, "Ġcondemn": 11826, "Ġcommands": 11827, "ĠQual": 11828, "ĠPoll": 11829, "ĠMurphy": 11830, "ĠFisher": 11831, "ĠArts": 11832, "ublished": 11833, "stra": 11834, "olid": 11835, "mi": 11836, ".),": 11837, "Ġtestified": 11838, "Ġsteady": 11839, "Ġrestricted": 11840, "Ġritual": 11841, "Ġprojected": 11842, "Ġpledged": 11843, "Ġmomentum": 11844, "Ġintelligent": 11845, "Ġillegally": 11846, "Ġiconic": 11847, "Ġenvironments": 11848, "Ġdesired": 11849, "Ġdelayed": 11850, "Ġdil": 11851, "Ġcriteria": 11852, "Ġcombine": 11853, "Ġabsurd": 11854, "ĠThings": 11855, "ĠSteel": 11856, "ĠREUTERS": 11857, "ĠRand": 11858, "ĠMom": 11859, "ĠHud": 11860, "ĠCL": 11861, "thal": 11862, "matic": 11863, "looking": 11864, "iki": 11865, "ften": 11866, "enh": 11867, "brew": 11868, "around": 11869, "acent": 11870, "Sem": 11871, "CNN": 11872, "Ġscrutiny": 11873, "Ġradar": 11874, "Ġrall": 11875, "Ġpeer": 11876, "Ġgolf": 11877, "Ġfires": 11878, "Ġemphasis": 11879, "Ġearning": 11880, "Ġdisclosure": 11881, "Ġdetained": 11882, "Ġceiling": 11883, "Ġcous": 11884, "Ġbonds": 11885, "Ġarguably": 11886, "Ġadoption": 11887, "ĠTR": 11888, "ĠReds": 11889, "ĠPap": 11890, "ĠJoy": 11891, "ĠGre": 11892, "ĠEV": 11893, "sized": 11894, "rike": 11895, "race": 11896, "ospel": 11897, "ixel": 11898, "imb": 11899, "Jan": 11900, "ATED": 11901, "ASH": 11902, "/.": 11903, "Ġpas": 11904, "Ġnick": 11905, "Ġlighting": 11906, "Ġfract": 11907, "Ġformally": 11908, "Ġdonation": 11909, "Ġdele": 11910, "Ġdign": 11911, "Ġcontam": 11912, "Ġcondemned": 11913, "Ġbabies": 11914, "Ġbother": 11915, "Ġamongst": 11916, "ĠSche": 11917, "ĠSalt": 11918, "ĠRail": 11919, "ĠKnow": 11920, "ĠDS": 11921, "profile": 11922, "py": 11923, "osa": 11924, "laim": 11925, "ilia": 11926, "erving": 11927, "arded": 11928, "airy": 11929, "Ġtreatments": 11930, "Ġtrace": 11931, "Ġstartup": 11932, "Ġmysterious": 11933, "Ġmic": 11934, "Ġlibraries": 11935, "Ġincomp": 11936, "Ġeditorial": 11937, "Ġcomics": 11938, "Ġchocolate": 11939, "Ġanonym": 11940, "ĠSU": 11941, "ĠReid": 11942, "ĠFurthermore": 11943, "ĠDale": 11944, "ĠDVD": 11945, "stan": 11946, "kes": 11947, "ivan": 11948, "citation": 11949, "ailing": 11950, "Ġwings": 11951, "Ġvolunteer": 11952, "Ġviewing": 11953, "Ġtheater": 11954, "Ġspreading": 11955, "Ġsafer": 11956, "Ġrespected": 11957, "Ġpolling": 11958, "Ġinsist": 11959, "Ġimpressed": 11960, "Ġgut": 11961, "Ġdevastating": 11962, "Ġdelivering": 11963, "Ġcomplain": 11964, "Ġbugs": 11965, "Ġbip": 11966, "Ġbass": 11967, "Ġawkward": 11968, "ĠOcc": 11969, "ĠMcM": 11970, "ĠForces": 11971, "ĠDakota": 11972, "ĠCC": 11973, "ĠBul": 11974, "ĠÃ©": 11975, "ÎŃ": 11976, "unct": 11977, "track": 11978, "orient": 11979, "ologically": 11980, "iments": 11981, "ector": 11982, "Unfortunately": 11983, "Oct": 11984, "?)": 11985, "ĠÂ«": 11986, "Ġscenarios": 11987, "Ġrespective": 11988, "Ġreign": 11989, "Ġquotes": 11990, "Ġoutstanding": 11991, "Ġorange": 11992, "Ġmodest": 11993, "Ġmigration": 11994, "Ġlongest": 11995, "Ġhaz": 11996, "Ġexploring": 11997, "Ġexploration": 11998, "Ġconflicts": 11999, "Ġbulk": 12000, "Ġassemb": 12001, "ĠRemembrance": 12002, "ĠPence": 12003, "ĠFest": 12004, "ĠBears": 12005, "western": 12006, "rained": 12007, "ocus": 12008, "ocur": 12009, "Bet": 12010, "...\"": 12011, "Ġviable": 12012, "Ġsustained": 12013, "Ġpublications": 12014, "Ġpreval": 12015, "Ġpatent": 12016, "Ġnu": 12017, "Ġignor": 12018, "Ġfunctionality": 12019, "Ġdrafted": 12020, "Ġderived": 12021, "Ġchap": 12022, "Ġbra": 12023, "Ġbin": 12024, "Ġappearing": 12025, "Ġacquisition": 12026, "ĠWayne": 12027, "ĠParker": 12028, "ĠNeed": 12029, "ĠHend": 12030, "ĠDean": 12031, "ĠDraft": 12032, "ĠCorn": 12033, "ĠAgree": 12034, "umm": 12035, "shore": 12036, "main": 12037, "dad": 12038, "chi": 12039, "burn": 12040, "ateur": 12041, "aku": 12042, "agu": 12043, "UD": 12044, "Net": 12045, "Check": 12046, "Ġwalks": 12047, "Ġtent": 12048, "Ġtempt": 12049, "Ġsuggestions": 12050, "Ġspotted": 12051, "Ġshooter": 12052, "Ġsensor": 12053, "Ġhelicop": 12054, "Ġgraphic": 12055, "Ġgolden": 12056, "Ġdrones": 12057, "Ġcrops": 12058, "ĠWallace": 12059, "ĠVictoria": 12060, "ĠVenezuel": 12061, "ĠSound": 12062, "ĠRice": 12063, "ĠPlace": 12064, "ori": 12065, "leges": 12066, "asi": 12067, "Sch": 12068, "Clinton": 12069, ").[": 12070, "Ġwitnessed": 12071, "Ġsword": 12072, "Ġrotation": 12073, "Ġrelatives": 12074, "Ġrice": 12075, "Ġhumor": 12076, "Ġcoordinator": 12077, "Ġacted": 12078, "ĠSteam": 12079, "ĠStre": 12080, "ĠMcConnell": 12081, "ĠKerry": 12082, "ĠGil": 12083, "ĠFederation": 12084, "ĠFun": 12085, "ĠFro": 12086, "ĠCold": 12087, "ĠBu": 12088, "ĠBJP": 12089, "Ġ160": 12090, "uates": 12091, "raham": 12092, "ocity": 12093, "ilst": 12094, "ahl": 12095, "VERTIS": 12096, "Har": 12097, "Bel": 12098, "Ġugly": 12099, "Ġtrucks": 12100, "Ġtrains": 12101, "Ġthemes": 12102, "Ġrocks": 12103, "Ġrevenues": 12104, "Ġreaches": 12105, "Ġnewspapers": 12106, "Ġnode": 12107, "Ġgrateful": 12108, "Ġexisted": 12109, "Ġeru": 12110, "Ġchurches": 12111, "Ġbears": 12112, "ĠStock": 12113, "ĠPython": 12114, "ĠNCAA": 12115, "ĠMarx": 12116, "ĠLie": 12117, "ĠKa": 12118, "oga": 12119, "nie": 12120, "liminary": 12121, "former": 12122, "anded": 12123, "Share": 12124, "HP": 12125, "Ġsubsidies": 12126, "Ġscrap": 12127, "Ġpara": 12128, "Ġoccupation": 12129, "Ġgenerous": 12130, "Ġgreet": 12131, "Ġdeliberately": 12132, "Ġcomplexity": 12133, "Ġambassador": 12134, "Ġabstract": 12135, "ĠPear": 12136, "ĠNetanyahu": 12137, "ĠGoing": 12138, "ĠAnne": 12139, "Ġ67": 12140, "Ġ59": 12141, "âĶ": 12142, "such": 12143, "ighters": 12144, "abe": 12145, "Tom": 12146, "Second": 12147, "Bre": 12148, "Ġtrapped": 12149, "Ġretro": 12150, "Ġreflected": 12151, "Ġoffseason": 12152, "Ġnewsletters": 12153, "Ġhacking": 12154, "Ġendors": 12155, "Ġconverted": 12156, "Ġcontributing": 12157, "Ġconcert": 12158, "ĠWeiss": 12159, "ĠTyler": 12160, "ĠTotal": 12161, "ĠSingh": 12162, "ĠSel": 12163, "ĠBP": 12164, "ĠArgent": 12165, "zilla": 12166, "success": 12167, "auer": 12168, "Maybe": 12169, "Mult": 12170, "MC": 12171, "Bon": 12172, "AY": 12173, "Ġwisdom": 12174, "Ġtreating": 12175, "Ġtends": 12176, "Ġstir": 12177, "Ġresponding": 12178, "Ġproductivity": 12179, "Ġplanets": 12180, "Ġpedest": 12181, "Ġparks": 12182, "Ġpending": 12183, "Ġoffset": 12184, "Ġhumanitarian": 12185, "Ġforb": 12186, "Ġflexible": 12187, "Ġflip": 12188, "Ġbreach": 12189, "ĠThunder": 12190, "ĠTemple": 12191, "ĠText": 12192, "ĠEnt": 12193, "ĠChuck": 12194, "string": 12195, "mic": 12196, "mare": 12197, "bie": 12198, "Their": 12199, "Ġtoll": 12200, "Ġtensions": 12201, "Ġlung": 12202, "Ġheadlines": 12203, "Ġfiling": 12204, "Ġdiabetes": 12205, "Ġdirty": 12206, "Ġcontrolling": 12207, "Ġapprove": 12208, "ĠSupport": 12209, "ĠOx": 12210, "ĠNat": 12211, "ĠNa": 12212, "ĠFlynn": 12213, "ĠEdit": 12214, "ĠBuffy": 12215, "ĠBos": 12216, "Ġ1968": 12217, "rait": 12218, "oup": 12219, "ollar": 12220, "mart": 12221, "lett": 12222, "kees": 12223, "itate": 12224, "iors": 12225, "founder": 12226, "first": 12227, "ernand": 12228, "comed": 12229, "accept": 12230, "abul": 12231, "Ġtar": 12232, "Ġsupporter": 12233, "Ġserial": 12234, "Ġscared": 12235, "Ġjurisd": 12236, "Ġindict": 12237, "Ġhostile": 12238, "Ġgene": 12239, "Ġfont": 12240, "Ġexplosive": 12241, "Ġexpertise": 12242, "Ġengines": 12243, "Ġearthquake": 12244, "Ġdocumented": 12245, "Ġdispar": 12246, "Ġcounterparts": 12247, "Ġcommentary": 12248, "Ġbrains": 12249, "Ġapproaching": 12250, "Ġagreements": 12251, "Ġadvertisement": 12252, "ĠPartners": 12253, "ĠNorwe": 12254, "ĠLG": 12255, "ĠJess": 12256, "ĠBrussels": 12257, "ĠBh": 12258, "reck": 12259, "rc": 12260, "hero": 12261, "formance": 12262, "addy": 12263, "AB": 12264, "Ġverify": 12265, "Ġtransparent": 12266, "Ġshake": 12267, "Ġresidence": 12268, "Ġrelie": 12269, "Ġreceives": 12270, "Ġdecks": 12271, "Ġcircuit": 12272, "Ġchips": 12273, "Ġbatteries": 12274, "ĠResp": 12275, "ĠPur": 12276, "ĠHolland": 12277, "ĠHTC": 12278, "ĠArthur": 12279, "ĠAG": 12280, "prising": 12281, "orer": 12282, "ocy": 12283, "itably": 12284, "ben": 12285, "Sl": 12286, "Ġtourists": 12287, "Ġtob": 12288, "Ġrefugee": 12289, "Ġprevented": 12290, "Ġperformances": 12291, "Ġmotorcy": 12292, "Ġmasc": 12293, "Ġmakers": 12294, "Ġlyr": 12295, "Ġjet": 12296, "Ġenroll": 12297, "Ġaging": 12298, "ĠWake": 12299, "ĠVar": 12300, "ĠTreasury": 12301, "ĠThird": 12302, "ĠMas": 12303, "ĠLuke": 12304, "ĠHIV": 12305, "ĠCoalition": 12306, "Ġ68": 12307, "nik": 12308, "code": 12309, "alid": 12310, "Sy": 12311, "Having": 12312, "DB": 12313, "Ġsurge": 12314, "Ġscratch": 12315, "Ġpriorities": 12316, "Ġpowered": 12317, "Ġnaked": 12318, "Ġintensity": 12319, "Ġfrustrated": 12320, "Ġexcessive": 12321, "Ġexports": 12322, "Ġenterprise": 12323, "Ġdisappeared": 12324, "Ġcaution": 12325, "Ġanimation": 12326, "Ġagriculture": 12327, "Ġaccomplished": 12328, "ĠFriends": 12329, "ĠFerguson": 12330, "ĠDJ": 12331, "ĠChild": 12332, "named": 12333, "ello": 12334, "Ps": 12335, "Down": 12336, "BN": 12337, "ADVERTIS": 12338, "\":{\"": 12339, "Ġundermin": 12340, "Ġtrusted": 12341, "Ġsunasmine": 12342, "Ġstrain": 12343, "Ġstatistical": 12344, "Ġlifestyle": 12345, "Ġhearts": 12346, "Ġfright": 12347, "Ġembed": 12348, "Ġcycl": 12349, "Ġauction": 12350, "ĠKy": 12351, "ĠHTML": 12352, "valid": 12353, "speed": 12354, "sur": 12355, "quire": 12356, "oust": 12357, "obi": 12358, "oop": 12359, "keley": 12360, "km": 12361, "iva": 12362, "ente": 12363, "dev": 12364, "arenthood": 12365, "ailable": 12366, "Take": 12367, "QL": 12368, "2011": 12369, "Ġtower": 12370, "Ġsafely": 12371, "Ġmeantime": 12372, "Ġmarginal": 12373, "Ġmandatory": 12374, "Ġinitiatives": 12375, "Ġflights": 12376, "Ġepic": 12377, "Ġdamn": 12378, "Ġburned": 12379, "Ġbackup": 12380, "Ġathletic": 12381, "Ġalike": 12382, "ĠPas": 12383, "ĠModel": 12384, "ĠFilm": 12385, "ĠFarm": 12386, "ĠDal": 12387, "stick": 12388, "idding": 12389, "eded": 12390, "arer": 12391, "VR": 12392, "Michael": 12393, "Ġworthy": 12394, "Ġtheft": 12395, "Ġtechnological": 12396, "Ġstarter": 12397, "Ġshelter": 12398, "Ġsends": 12399, "Ġresolved": 12400, "Ġpartially": 12401, "Ġought": 12402, "Ġknocked": 12403, "Ġincoming": 12404, "Ġfunctional": 12405, "Ġemployer": 12406, "Ġeliminated": 12407, "Ġdistant": 12408, "Ġcrossed": 12409, "Ġconfirmation": 12410, "Ġalign": 12411, "Ġadvocacy": 12412, "ĠWade": 12413, "ĠTrue": 12414, "ĠNatural": 12415, "ĠMalays": 12416, "ĠExpress": 12417, "Ġ==": 12418, "storm": 12419, "ortunate": 12420, "oche": 12421, "mid": 12422, "fil": 12423, "aro": 12424, "Which": 12425, "Supp": 12426, "Mon": 12427, "Men": 12428, "Ġtanks": 12429, "Ġsecured": 12430, "Ġpregnancy": 12431, "Ġmeth": 12432, "Ġincorrect": 12433, "Ġgrabbed": 12434, "Ġflavor": 12435, "Ġattach": 12436, "Ġannually": 12437, "ĠWire": 12438, "ĠNorm": 12439, "ĠMedicare": 12440, "ĠMayweather": 12441, "ĠFa": 12442, "ĠBB": 12443, "ĠAnim": 12444, "Ġ1930": 12445, "Ġ1920": 12446, "test": 12447, "size": 12448, "rin": 12449, "omach": 12450, "keys": 12451, "hist": 12452, "aman": 12453, "Through": 12454, "FS": 12455, "Car": 12456, "Ġtwist": 12457, "Ġrebel": 12458, "Ġpainted": 12459, "Ġposed": 12460, "Ġpione": 12461, "Ġmandate": 12462, "Ġmales": 12463, "Ġlasted": 12464, "Ġkills": 12465, "Ġfrank": 12466, "Ġflesh": 12467, "Ġethics": 12468, "Ġbranches": 12469, "Ġaltogether": 12470, "ĠStewart": 12471, "ĠSoul": 12472, "ĠSN": 12473, "ĠPlayer": 12474, "ĠNap": 12475, "ĠInn": 12476, "ĠFind": 12477, "gence": 12478, "aughters": 12479, "agine": 12480, "Russian": 12481, "Obama": 12482, "Met": 12483, ".]": 12484, "Ġtraveled": 12485, "Ġtheoret": 12486, "Ġsecrets": 12487, "Ġscary": 12488, "Ġsheriff": 12489, "Ġreplacing": 12490, "Ġreposit": 12491, "Ġheaven": 12492, "Ġdiver": 12493, "ĠTable": 12494, "ĠShah": 12495, "ĠRap": 12496, "ĠNothing": 12497, "ĠMedicine": 12498, "ĠJimmy": 12499, "ĠAgainst": 12500, "Ġ63": 12501, "ÑĪ": 12502, "winning": 12503, "utt": 12504, "public": 12505, "isive": 12506, "allow": 12507, "avery": 12508, "Ġunnecessary": 12509, "Ġswimming": 12510, "Ġsquee": 12511, "Ġsnaps": 12512, "Ġresort": 12513, "Ġreinfor": 12514, "Ġprocessor": 12515, "Ġliver": 12516, "Ġinstantly": 12517, "ĠiPad": 12518, "Ġhier": 12519, "Ġexperiencing": 12520, "Ġexchanges": 12521, "Ġedited": 12522, "Ġdisg": 12523, "Ġcompr": 12524, "Ġcooking": 12525, "Ġbuilds": 12526, "ĠUniverse": 12527, "ĠStudents": 12528, "ĠReddit": 12529, "ĠPinterest": 12530, "ĠMotor": 12531, "ĠLady": 12532, "ĠFormer": 12533, "ĠDa": 12534, "ĠCampbell": 12535, "whe": 12536, "rah": 12537, "olk": 12538, "iao": 12539, "drop": 12540, "bet": 12541, "TR": 12542, "ĠÐº": 12543, "Ġtemplate": 12544, "Ġtechnically": 12545, "Ġsteep": 12546, "Ġreun": 12547, "Ġorbit": 12548, "Ġfrustration": 12549, "Ġfocuses": 12550, "Ġdisturbing": 12551, "Ġcelebration": 12552, "Ġalternatives": 12553, "ĠWrit": 12554, "ĠTun": 12555, "ĠStudy": 12556, "ĠStanley": 12557, "ĠSox": 12558, "ĠQuebec": 12559, "ĠImp": 12560, "ĠIV": 12561, "ĠHispan": 12562, "ĠDNC": 12563, "verning": 12564, "uv": 12565, "rose": 12566, "pling": 12567, "ims": 12568, "icut": 12569, "abl": 12570, "('": 12571, "Ġsuits": 12572, "Ġslower": 12573, "Ġsizes": 12574, "Ġreminded": 12575, "Ġrecy": 12576, "Ġrushed": 12577, "Ġprovincial": 12578, "Ġpressed": 12579, "Ġpreference": 12580, "Ġplacing": 12581, "Ġpile": 12582, "Ġmissiles": 12583, "Ġmild": 12584, "Ġinfected": 12585, "Ġfierce": 12586, "Ġdefendants": 12587, "Ġdeciding": 12588, "Ġcrowds": 12589, "Ġcontroller": 12590, "Ġclever": 12591, "Ġcrown": 12592, "ĠWinter": 12593, "ĠVik": 12594, "ĠSalv": 12595, "ĠQuest": 12596, "ĠPhotos": 12597, "ĠKal": 12598, "ĠCommunications": 12599, "ĠBloomberg": 12600, "ĠBC": 12601, "ĠAnti": 12602, "ĠAnna": 12603, "Ġ1988": 12604, "Ġ(-": 12605, "Ð¸Ð»": 12606, "Î¿Ïħ": 12607, "vious": 12608, "tha": 12609, "sign": 12610, "outheast": 12611, "izations": 12612, "itative": 12613, "esity": 12614, "bu": 12615, "Ġwheels": 12616, "Ġspy": 12617, "Ġpurely": 12618, "Ġprovisions": 12619, "Ġpatrol": 12620, "Ġminorities": 12621, "Ġlaptop": 12622, "Ġimaging": 12623, "Ġfurn": 12624, "Ġearl": 12625, "Ġbeef": 12626, "ĠRoose": 12627, "ĠRangers": 12628,
[...]
