Ġ t
Ġ a
h e
i n
r e
Ġt he
o n
e r
Ġ s
Ġ w
a t
Ġ o
e n
Ġ c
i t
i s
a n
o r
Ġ b
e s
e d
Ġ f
in g
Ġ p
o u
Ġa n
Ġt o
a l
a r
Ġ m
Ġ in
Ġo f
Ġ d
Ġ h
â Ģ
a s
Ġan d
i c
Ġt h
l e
o m
i on
l l
en t
Ġ l
Ġ n
Ġ re
s t
v e
l y
Ġ e
Ġb e
r o
Ġ g
i d
u t
o t
a c
Ġ T
Ġth at
Ġ on
Ġ I
a y
Ġ S
Ġ is
e t
i m
a d
a m
o w
âĢ Ļ
s e
i g
Ġf or
v er
Ġ A
l d
u r
c t
Ġ C
Ġ u
Ġs t
Ġ y
Ġ he
Ġ it
i r
at ion
it h
Ġw h
Ġ M
c e
t er
Ġw e
o l
i l
Ġw ith
Ġa s
c h
i ll
Ġ B
n d
Ġy ou
Ġ âĢ
Ġw as
er s
Ġ P
k e
Ġd e
Ġc on
he r
i f
Ġ r
at e
Ġa t
a g
Ġh a
Ġ H
Ġ W
Ġs e
Ġp ro
o re
p p
r i
u l
m ent
Ġ D
Ġa re
Ġc om
an d
u s
es t
a in
is t
Ġ 1
o p
Ġ R
ĠT he
ig h
Ġ 2
r om
t h
o d
Ġn e
Ġ F
âĢ Ŀ
u n
u m
Ġ (
re s
Ġe x
Ġ N
a b
Ġ v
e m
it y
Ġn ot
es s
Ġha ve
ou ld
o s
Ġo r
or t
Ġb y
an t
Ġ G
' s
i ve
Ġa l
Ġf rom
e l
ar t
Ġs u
Ġ L
o c
Ġs h
q u
n t
Ġth is
p e
igh t
u st
Ġ le
i es
Ġ E
Ġs a
en d
Ġc h
i e
Ġa b
ou t
ĠâĢ ľ
T he
0 0
al l
Ġp l
re d
ac k
Ġh as
al ly
Ġ J
Ġg o
ar d
Ġh is
ou r
om e
i v
Ġ j
g h
o st
e ar
a p
Ġt r
u d
a k
Ġ O
as t
Ġd o
Ġw or
Ġthe y
Ġb ut
Ġsa id
Ġw he
Ġw ill
Ġc an
r ou
Ġ U
g e
Ġ k
o k
ic h
Ġwh o
Ġa ll
id e
Ġin t
Ġ "
t her
Ġo ut
am e
i al
an s
Ġthe ir
ic e
f f
e ct
on g
ag e
p l
u re
i ke
on e
p t
Ġm ore
Ġm e
Ġu p
ion s
ou s
ac t
Ġa d
in e
Ġab out
b er
Ġ K
Ġwe re
i a
Ġs o
at ed
Ġon e
r a
o g
Ġh ad
im e
u b
e p
Ġc l
Ġu s
a re
u e
a ke
Ġ2 0
Ġw ould
c c
in d
Ġa g
ver y
Ġof f
Ġ im
Ġt e
Ġwh ich
Ġu n
Ġcon t
Ġcom p
i z
Ġbe en
Ġ en
s o
a u
ĠS t
p er
ig n
i p
ac e
ar y
Ġy ear
ĠT h
e w
v en
o ok
Ġl ike
e re
ay s
o se
r y
Ġp e
Ġm an
Ġre s
Ġin c
as s
i re
Ġs p
or d
Ġp er
ab le
it e
i b
Ġo ther
i le
ĠI n
Ġs ome
m er
op le
en ce
Ġ20 1
Ġo ver
ation s
Ġthe re
res s
k s
an ce
Ġd is
Ġal so
in t
Ġth an
Ġbe c
Ġne w
ul t
ou gh
Ġa r
ic al
ou nt
ow n
r u
a il
Ġwhe n
Ġyou r
Ġthe m
Ġa pp
on d
Ġwh at
Ġ qu
re e
Ġp art
p ort
Ġpe ople
f ter
Ġj ust
a v
or m
Ġan y
as e
Ġs c
Ġ Y
Ġhe r
Ġit s
ĠC h
Ġk n
l ic
Ġt ime
. âĢĿ
ac h
ĠI t
Ġ if
en s
Ġre c
o ve
Ġm y
i an
Ġg et
Ġt w
Ġint o
re at
ir st
ct ion
ou nd
o b
Ġwor k
Ġ V
d u
ing s
Ġ 3
or s
id ent
ic k
or y
it ion
Ġp re
ve l
Ġpl ay
Ġo ur
an g
, âĢĿ
in k
w n
au se
h ing
Ġs he
Ġ ro
ad e
at es
Ġn o
ĠH e
it t
ar k
ver s
' t
Ġa fter
Ġc ould
n e
Ġp ol
am p
nd er
on s
i ous
Ġf irst
Ġh ow
Ġ1 9
Ġc o
Ġf e
Ġh im
Ġa cc
a w
i ld
Ġat t
âĢ ľ
Ġ -
Ġp o
er v
ic t
he d
Ġon ly
Ġtw o
o v
Ġp r
c k
w e
is h
Ġs pe
f orm
Ġcom m
Ġa ct
Ġbe t
Ġb l
. "
ĠâĢ ĵ
f t
Ġb ack
t e
Ġm ost
n ing
, "
Ġde c
at er
c es
o od
if f
rou nd
rou gh
o y
Ġag ain
Ġd id
Ġa m
is e
is s
Ġu nder
Ġ [
u al
u ll
ent s
ĠâĢ Ķ
ub lic
l ud
Ġd es
Ġbec ause
d ay
Ġkn ow
Ġw ant
se l
Ġyear s
ter n
Ġn ow
Ġne ed
Ġcon s
r it
m an
Ġe ven
Ġin v
ment s
e c
Ġse c
ĠW e
Ġse e
Ġ 4
Ġad d
f ore
Ġe very
Ġin d
c ed
o ld
ur n
. .
Ġsu pp
Ġwhe re
u ch
pe ct
Ġm ake
j ect
Ġd on
ĠU n
o ll
oc k
I n
Ġe m
Ġ $
Ġl ook
um p
Ġthe se
Ġ 5
Ġbe ing
T h
Ġw ay
Ġm ay
ver n
ĠT r
os s
n g
i ly
at ing
ĠA nd
Ġe v
Ġb u
ation al
x t
i ed
ĠB ut
Ġman y
ie w
ro w
Ġr ight
on t
Ġre l
) .
as on
Ġre m
Ġinc lud
Ġde f
Ġth ink
Ġthe n
Ġd iff
Ġre g
ri b
Ġc all
ak ing
Ġth rough
it ed
as ed
Ġs ay
Ġp h
ot her
Ġth ose
Ġsh ow
Ġp res
Ġb r
Ġsh ould
Ġs y
Ġ very
Ġl ast
Ġf l
e ll
it ies
Ġim p
ur ing
le ct
Ġ2 00
s s
ow er
at h
mer ic
t y
Ġm uch
at ive
Ġst ate
Ġm on
l es
u nd
he n
Ġd own
Ġdo es
if ic
ot h
Ġas s
ĠW h
Ġbe l
om et
ar ly
ĠTh is
t ing
al s
Ġwe ll
w ard
Ġc ount
Ġo wn
ter s
Ġbe fore
Ġ end
ib le
ar g
ic s
u es
Ġst art
g r
Ġu se
an ge
re n
ou n
Ġl ong
ĠN ew
in ce
if e
Ġ ke
u p
Ġgo vern
t s
ĠA meric
Ġre port
Ġst ud
e k
Ġf in
Ġte am
b le
Ġm ade
ol og
ers on
Ġ ent
Ġgo ing
l p
Ġwor ld
f ul
Ġs m
Ġs ur
Ġsu b
y s
i x
is m
Ġgo od
il ity
Ġsu ch
c om
Ġagain st
u ally
âĢ Ķ
I t
i er
) ,
Ġg u
t ain
Ġpro v
Ġle ad
Ġpo int
en er
Ġe ff
or k
it s
Ġa c
Ġwh ile
ist s
Ġs et
Ġg ame
00 0
st em
ar s
Ġs ays
Ġst ill
Ġhe lp
a x
ill ion
we en
Ġg r
g an
us s
o ol
Ġin ter
c y
a h
Ġm in
rou p
im es
Ġo b
a ir
Ġt ake
c ess
Ġpro du
e f
m s
Ġst r
Ġcon f
Ġin st
sel f
u res
Ġoff ic
Ġs im
an k
al k
Ġdiff ere
n er
Ġbet ween
Ġ 6
Ġth ough
at ch
Ġdis c
oll ow
e ver
l ed
w ay
Ġs ign
Ġc ol
Ġs ame
an y
Ġn um
Ġl aw
Ġh igh
i o
Ġs omet
l and
g g
Ġ ed
at her
Ġc r
Ġt er
he s
ar ch
ut ion
W e
Ġo p
Ġth ree
h ip
Ġhe re
re ad
ou se
ĠR e
Ġa round
ĠL e
Ġre al
ĠY ou
a ve
Ġs er
Ġf ound
iv es
Ġgovern ment
vel op
Ġr un
Ġc our
Ġsy stem
o ot
am es
Ġre f
Ġp ublic
Ġ1 0
et s
Ġre ally
c i
ĠA r
Ġin s
ri v
ic es
ce pt
c ent
Ġs erv
Ġtr ans
Ġm od
Ġw om
o h
Ġex p
c er
a z
ĠA l
Ġsupp ort
p r
Ġf am
ire ct
Ġf act
Ġh and
ĠC l
y ing
Ġm ed
Ġm em
ĠTr ump
t on
c on
Ġus ed
m in
p h
Ġmon th
Ġc ar
al th
Ġex per
Ġd et
in s
Ġg roup
al e
en se
Ġb oth
Ġs l
Ġha pp
Ġc ur
Ġf ind
Ġspe c
Ġre t
ĠC om
Ġg reat
Ġre ad
Ġre p
Ġex t
. [
Ġd ay
ĠThe y
i vers
e red
Ġp erson
Ġc ap
Ġf r
ag es
e x
is ion
Ġto ld
_ _
Ġa ut
Ġd uring
ĠA s
Ġb ig
ul ar
Ġ 7
ak es
Ġwe ek
Ġf ollow
ĠI s
e e
Ġc ent
Ġde velop
a red
Ġis s
ch ool
- -
ĠS h
Ġw ar
Ġres p
in es
v ed
Ġo pp
ord ing
m ed
t he
ic ally
ie ld
Ġs ince
Ġf ew
W h
Ġc le
Ġto o
Ġc he
Ġre qu
Ġc re
Ġl ot
re nt
Ġle g
as h
Ġex pl
Ġc amp
a j
ĠI f
Ġbel ie
Ġpro t
Ġsomet hing
Ġ 0
Ġcont in
g et
Ġc or
at a
Ġdiffere nt
ent ion
n ess
an c
Ġpol it
ĠD e
Ġan other
u c
Ġg ener
Ġl ife
Ġp ut
d er
Ġin f
i k
Ġhe ad
Ġl oc
od y
Ġ 8
Ġth ings
ro ss
Ġinv est
Ġp ower
Ġas k
b ers
n ed
Ġpl an
Ġre le
ĠF r
th ing
o x
v ing
Ġf il
v es
ant s
Ġm ight
Ġp oss
Ġm et
Ġne ver
iz ed
Th is
Ġde p
r ic
Ġf ar
ut e
i et
Ġv ot
Ġcom e
Ġp ass
i ent
ar l
ar ge
re t
Ġfe el
Ġsec ond
ere st
Ġs oc
Ġcomm un
at t
Ġad v
Ġe ach
s on
Ġch ild
i ence
Ġg ot
Ġb us
ĠS e
Ġb est
2 0
Ġne xt
Ġar t
ĠU S
Ġp ost
in ess
i red
Ġse em
Ġqu est
v iew
Ġ .
Ġ '
itt le
l ing
Ġd irect
or n
Ġh ome
ĠA n
p le
iz e
Ġm ark
r at
Ġd ist
Ġop en
it al
ĠTh at
u g
Ġ 9
os ed
ĠâĢ ĺ
t en
Ġall ow
Ġpl ace
n ce
Ġde m
ĠF or
Ġe l
Ġm illion
Ġw r
Ġa v
ĠP ro
Ġh ard
Ġinclud ing
ch n
ĠB l
Ġto p
ate ly
Ġc are
Ġim port
a im
Ġper cent
Ġh um
w ays
gr am
Ġin form
Ġcont ro
ri end
Ġnum ber
Ġg l
ĠR ep
ab ly
Ġf our
Ġt ri
Ġres ult
Ġcomp le
l ess
Ġpro ble
Ġbet ter
Ġt urn
Ġ ide
1 0
r al
t t
Ġbu ild
Ġapp ro
u ro
a pp
Ġl ittle
le g
Ġb ro
e ad
Ġbe h
Ġwith out
Ġle t
Ġm il
Ġcount ry
B ut
Ġre st
Ġrec ent
Ġs chool
Ġinc re
r ation
con om
is hed
Ġint erest
Ġc ase
Ġse ason
one y
Ġm ov
Ġl ess
er ing
Ġm ove
c l
Ġan n
Ġf un
od e
Ġ Z
Ġle ft
Ġatt ack
in a
m e
am a
Ġst and
Ġd r
Ġke ep
g y
l ine
Ġ =
is ed
Ġpart ic
r act
at ure
Ġcall ed
en cy
u ck
Ġf ull
ĠThe re
ĠI nd
c o
Ġdid n
Ġus ing
Ġt est
Ġm ain
Ġwom en
âĢ ¦
Ġpre v
Ġw in
' re
Ġp op
oh n
Ġpol ice
H e
ain s
b e
Ġp ay
olog y
Ġfor m
a ign
id ed
ot t
Ġeff ect
in al
aj or
Ġpro gram
i ver
iv ing
Ġp os
Ġch ar
Ġal ways
Ġnew s
Ġv al
Ġd ata
read y
h or
Ġcomp any
Ġb ook
ĠS o
Ġpro cess
Ġcur rent
Ġre ce
ir d
Ġe conom
or th
in ed
ĠAmeric an
Ġl ist
Ġsm all
Ġl ater
g er
ivers ity
Ġe as
Ġpres ident
Ġcl ass
at ter
ĠS he
us ed
ĠC an
Ġp rom
ru ct
Ġb re
Ġcamp aign
Ġs ol
Ġch ange
i ans
Ġwh y
Ġb o
Ġcl aim
a ff
Ġp ast
Ġal ready
Ġf ree
Ġu nt
ard s
Ġth ing
Ġoffic ial
Ġc ity
ne y
Ġte chn
re en
Ġv iew
ĠG o
Ġle vel
Ġst ory
r ap
Ġs k
w it
iv en
Ġk ill
ĠP h
Ġhe alth
.. .
as es
Ġpro f
Ġj ob
iss ion
Ġm oney
ĠH ow
Ġo per
Ġ est
ur al
Ġre se
ĠUn ited
t o
Ġt alk
Ġab le
Ġh ist
Ġo ld
Ġbus iness
Ġex pect
le ction
s ide
i or
Ġhapp en
Ġv is
pl oy
Ġinform ation
Ġch ang
Ġpro ject
s c
st and
Ġa way
pt ion
Ġp ur
r on
er tain
he re
Ġte ll
ĠB e
Ġfam ily
Ġdoes n
le y
Ġor gan
Ġst re
Ġt y
ou th
Ġm ust
Ġm ajor
t ed
res ident
Ġm en
Ġle ast
id es
b y
Ġh op
Ġm ar
Ġen ough
Ġimport ant
Ġcon st
ur y
ĠA d
Ġm aking
Ġ1 8
Ġd ays
Ġs it
Ġ- -
Ġk ind
ur ity
ain ed
Ġrec ord
id er
Ġp at
ĠJ ohn
ĠO b
Ġf riend
Ġc ost
Ġ1 2
Ġ Q
5 0
u red
Ġde al
g u
Ġa ff
Ġc ame
end ing
Ġde l
er n
amp le
if ied
Ġl ine
pp ed
er al
ac y
al ity
Ġl a
el s
Ġ es
Ġwork ing
Ġg row
Ġv ar
ĠR uss
is ing
r or
is ter
an n
au gh
Ġdes ign
Ġpol ic
are nt
cc ess
Ġfor mer
S t
ri es
ĠS p
Ġunt il
Ġt ax
Ġde v
iv ed
us h
Ġl arge
ion al
Ġf ore
Ġ ve
on y
Ġto ok
r ist
w ork
Ġme an
ap s
ĠE uro
Ġv ide
Ġbec ome
Ġe lect
Ġed it
A s
Ġg ive
al f
Ġof ten
Ġw on
em ber
i ol
b r
oc rat
I f
Ġ19 9
Ġf und
Ġact ually
b s
Ġin tern
Ġacc ording
Ġf ac
ĠCom m
ar ing
o ad
ĠRep ublic
Ġe ver
Ġpolit ical
ĠM c
ain ing
at or
Ġ Ð
is on
Ġb as
at s
ĠM ay
o int
i qu
Ġhum an
m ost
Ġr a
Ġw ater
w h
Ġwhe ther
Ġa ir
c hed
Ġse ver
ĠM ar
it her
ĠS y
y ear
Ġplay ers
w are
Ġe qu
Ġp ress
Ġchild ren
Ġn ame
art ment
ĠP l
id d
i ber
ĠS c
m ber
Ġsh ort
ĠM r
The re
ĠA ll
ĠD em
ar n
an e
ĠP resident
Ġe arly
Ġn ight
Ġt imes
Ġchar ac
Ġde b
Ġha ving
ĠY ork
Ġpro p
E R
Ġg ames
Ġor der
Ġwor d
ĠO r
id ence
Ġmed ia
ver t
and s
ak en
ic le
Ġret urn
g in
ĠC ol
Ġd ri
end ed
Ġ1 1
Ġf ive
Ġsever al
en g
Ġdo ing
Ġb it
Ġs ing
le t
in c
ious ly
ĠA t
Ġme et
s h
Ġyou ng
ut ure
Ġmonth s
Ġmark et
our n
Ġper form
ort un
ra ft
ĠC on
Ġal ong
ro p
f or
Ġmil it
Ġc rit
ĠB r
Ġinv ol
or ies
Ġcour se
Ġd one
Ġf ight
Ġsu re
Ġapp ear
Ġse en
iz ation
Ġev ent
Ġsoc ial
ĠEuro pe
b ook
Ġse x
Ġto day
Ġh our
i ally
Ġc ertain
Ġw ent
Ġan t
ĠSt ate
it ing
Ġp ot
i am
Ġs ide
Ġquest ion
Ġlike ly
u ff
en n
ag ue
Ġcontro l
Ġb en
Ġdes c
Ġ201 6
im ate
Ġ1 5
ent ial
al d
ot s
Ġsu ccess
Ġon ce
Ġav ail
i um
Y ou
un e
b all
Ġposs ible
Ġch o
Ġact iv
Ġask ed
Ġ /
Ġinvest ig
ĠSt ates
em pt
Ġex ample
ub l
n ect
Ġy et
Ġp riv
Ġo cc
A nd
Ġcon cer
Ġ vers
Ġmem bers
Ġv iol
gg est
1 1
Ġprodu ct
or ld
g ress
Ġprot ect
Ġam ong
ur s
Ġproble m
Ġloc al
Ġ ,
re w
ail s
Ġthough t
Ġh old
Ġl ight
l er
iv id
Ġg iven
l f
Ġpro b
u ed
Ġann oun
Ġm akes
ĠW hen
Ġsu ggest
Ġre ason
Ã ©
o ber
Ġen g
Ġp ar
Ġaut hor
ĠO n
Ġunder stand
Ġf uture
on es
st er
' ve
Ġme ans
ver age
Ġkn own
Ġwith in
Ġac ross
Ġl ove
ens ive
ĠUn iversity
p or
Ġw rit
a f
Ġstr ong
Ġcl ose
ul ation
it ive
Ġph ot
Ġs ent
Ġn on
ĠN o
le ment
Ġcon d
int on
ĠH ouse
Ġ ]
1 9
Ġl im
1 2
ĠM in
Ġ201 5
Ġbelie ve
ĠOb ama
Ġor ig
oc i
it ions
ĠT e
Ġcommun ity
Ġother s
a i
Ġavail able
. ,
ed eral
ag ed
b ack
our ce
Ġc ut
Ġreport ed
Ġstart ed
* *
ore d
Ġsa f
n ot
Ġvide o
m y
Ġb ased
u ly
ort s
Ġget ting
Ġcle ar
ur ther
c her
Ġind ust
Ġ ident
ĠDem ocrat
Ġc reat
o f
Ġ X
Ġtr ying
Ġl ow
ĠC o
ar r
Ġm om
Ġide a
A T
Ġfollow ing
as ter
Ġag o
Ġl and
an ces
ie f
Ġf ail
' m
Ġde ath
ĠCan ad
en e
as hing
Ġexper ience
iet y
Ġ3 0
Ġn et
r ict
g ed
Ġ i
Ġh ig
Ġcom es
res ent
Ġf oc
ut es
ir on
re ed
Ġpart y
e b
F or
ĠCh rist
Ġs ix
Ġser ies
m ing
Ġal most
ĠC ent
og rap
Ġ1 6
re am
Ġn ational
ru g
Ġiss ue
ition al
Ġv ict
sel ves
Ġsay ing
u se
Wh at
ĠWh at
Ġlook ing
min ist
Ġany thing
Ġ z
Ġan al
Ġis n
th ough
Ġr ul
Ġacc ess
Ġacc ount
Ġ &
ĠA m
__ __
oc u
re st
Ġadd ed
wit ter
ĠS en
in ation
Ġind ivid
3 0
Ġcomp et
ĠF l
Ġdisc uss
Ġh alf
ot e
Ġserv ice
ĠE x
R E
Ġc a
Ġm or
Ġl ive
Ġj o
ĠCl inton
Ġhist ory
Ġ er
Ġbeh ind
Ġpres ent
Ġm us
os p
il ar
p ro
Ġm iss
ab ility
Ġpro per
ci ally
ward s
ĠP r
Ġne ar
ĠO ne
Ġt aken
Ġb ad
Ġto get
Ġtoget her
ere nce
Ġcomple te
Ġcour t
Ġqu ick
Ġf av
ĠB ro
Ġr is
i en
er t
Ġsec urity
Ġimp ro
Ġent ire
Ġem ploy
a id
I N
ap er
Ġf oot
Ġtr ad
e v
p s
Ġpr act
ĠS ec
ust om
if y
Ġtr y
Ġf all
Ġt re
Ġth reat
ĠAmeric a
Ġcom b
pl ay
Ġmilit ary
ĠC al
Ġindivid ual
at ors
ĠD on
ĠG r
u ge
Ġm ess
un ch
ĠP ol
Ġfr ont
Ġm ult
A N
Ġare a
ra w
Ġ1 4
ĠN orth
o ff
ĠA ust
Ġto t
Ġs um
p ar
Ġc oun
Ġp ubl
âĢ ĵ
Ġplay er
Ġb ill
ĠT o
er man
Ġs us
ĠE ng
ll ing
Ġpoint s
Ġbr ing
at ic
Ġsome one
Ġt aking
y n
ow s
O n
Ġf ace
Ġr ather
Ġpolic y
ĠI m
ĠC ity
Ġsing le
Ġcomp an
ar m
Ġstud ents
Ġb ody
A n
Ġel se
1 5
Ġ201 4
Ġprob ably
c hes
ar ter
Ġc and
Ġatt empt
Ġdec ision
ir c
Ġs w
Ġcom pl
Ġfil m
ĠN ational
ĠD ep
ĠW orld
ir l
ra el
Ġspec ial
A d
Ġpre t
W hen
m b
Ġs al
Ġlead ers
Ġfe at
re me
Ġe ither
s w
am ed
id s
Ġc ult
Ġstud y
p ly
Ġwant ed
ace book
Ġm ind
. )
Ġnot hing
Ġme as
Ġf ig
o on
Ġe y
1 6
Ġdesc rib
ro te
/ /
g o
Th at
pp ing
a ult
ac es
Ġcon nect
Ġc ou
Ġh ouse
Ġcom ing
Ġd ocu
ull y
Ġhow ever
Ġcon v
Ġright s
ĠM an
Ġke y
ive ly
Ġ Â
ĠB rit
Ġf ield
ĠW ar
Ġrese arch
Ð °
Ġch all
O N
ĠJ an
ĠE n
Ġim m
Ġf ood
Ġsign ific
Ġar gu
Ġre du
ic ult
Ġiss ues
n es
Ġrel ations
Ġw a
o ver
ol ution
ĠD av
ent ly
Ġben ef
ib ility
s y
v iron
c ing
" :
ri ed
r ing
Ġofficial s
Ġst ep
el t
Ġseem s
Ġro om
Ġcompan ies
un g
Ġm ass
e al
ĠA f
Ġd am
ĠE d
Ġbl ack
ashing ton
Ġevery thing
a ut
u ation
Ġtr a
Ġro le
Ġw rote
Ġh it
pe cially
Ġen c
ĠW ith
B C
Ġj ud
as ing
Ġd rug
Ġsp ace
ad es
Ġsim ilar
ĠG u
our ces
he ad
Ġo pt
Ġ201 3
1 4
Ġt arg
itt ed
Ġ #
Ġf urther
Ġout side
ĠA ss
um b
id ay
Ġbre ak
Ġinter view
Ġbe gin
Ġcharac ter
' ll
ro du
Ġst op
Ġprov ide
an a
Ġstate ment
S o
ĠA pp
Ġst at
Ġ1 7
Ġwho le
Ġoff ice
p ite
l ike
iv il
Ġbe gan
Ġth ird
Ġex ist
Ġrele ased
Ġc op
am er
ĠIn tern
se c
: //
Ġw atch
Ġex ec
ĠHow ever
Ġf ire
Ġin it
C h
Ġ201 7
Ġ1 3
ĠIs rael
ĠIn st
Ġb an
Ġfin al
Ġwom an
Ġtr ue
Ġsu per
ac ed
Ġre pl
Ġdevelop ment
Ġ1 00
Ð ¾
Ġne g
Ġpos ition
Ġf ederal
Ġd ue
Ġ201 2
Ġst ates
Ġhour s
Ġab ove
r an
Ġresp ons
Ġph ys
Ġev idence
ourn al
ĠS u
ograp h
Ġl ab
Ġcand id
ĠP art
n ow
l u
Ġad minist
b o
ĠJ ust
Ġ2 5
re g
a pe
ĠG e
Ġc ustom
Ġbec ame
Ġg round
Ġse lf
Ġcount ries
ĠW ashington
Ġcre ate
Ġp ick
Ġm atter
Ġhim self
ĠB ar
Ġshow s
e ks
Ġam ount
Ġe p
Ġrep resent
Ġs ound
Ġspec ific
Ġa ction
il t
Ġadd ress
Ġprof ess
ĠS outh
arl ier
Ġt reat
Ġd i
Ġal leg
Ġ19 8
Ġm ot
l am
is c
att le
Ġsignific ant
Ġserv ices
Ġex c
o id
Ġwas n
Ġinclud e
Ġthem selves
Ġcontin ue
I S
Ġd ou
l im
-- --
er y
l ish
Ġab s
c il
i od
Ġg en
Ġst ri
Ġd om
Ġbuild ing
Ġre d
ĠO ct
og n
Ġrun ning
Ġen er
ang u
Ġit self
viron ment
op h
Ġbel ow
Ġg un
Ġdet er
rib ut
Ġsim ply
Ġplay ed
Ġh ost
ur ch
ar th
Ġty p
Ġpret ty
idd le
Ġrele ase
Ġindust ry
Ġl arg
Ġgener al
r ight
Ġvers ion
1 3
Ġde ep
c he
Ġdiff icult
ob al
L E
Ġ5 0
as k
Ġag ree
om m
Ġplay ing
Ġh om
b or
at ur
ĠCh ina
og le
Ġneed s
Ġt em
Ġfriend s
Ġb all
Ġneed ed
Ġfor ward
Ġ <
Ġs ense
A S
w here
Ġp ri
Ġevery one
Ġ )
Ġes pecially
Ġch arg
H ow
a ul
Ġrecent ly
iqu e
Ġwe eks
Ġopp ortun
Ġl ate
Ġsa w
Ġd est
if t
Ġed uc
Ġc red
end er
Ġleg al
A R
Ġp ain
Ġm ag
Ġac cept
Ġgroup s
ĠR es
Ġqu ite
itt ing
ag er
on se
le v
ĠT witter
cc ording
Ġe lection
ep end
Ġin j
ĠNew s
ĠA M
Ġtr ack
u ary
Ġa p
ĠSy ri
ic ro
ent al
1 7
Ġche ck
o e
ĠA fter
Ġp le
ur d
Ġso on
Ġb ar
Ġcomm on
1 8
Ġso ld
Ġwr ong
s u
Ġl ost
w w
ĠSe pt
Ġsub ject
ĠH is
ist ic
Ġob ject
Ġan im
ĠM ed
Ġde ad
ĠF acebook
Ġhop e
h od
ĠW est
ĠDep artment
ĠC our
Ġbl ock
Ġon line
Ġl o
os ing
o ke
ĠWh ite
med i
Ġc e
Ġb illion
Ġener gy
Ġp arent
ir t
Ġtechn ology
Ġmom ent
Ġapp lic
Ġl ed
ot o
Ġper iod
Ġsu ff
ĠW ill
Ġr ad
Ġst ay
Ġhe ld
Ġchang es
Ġt al
o le
Ġrel ig
Ġperson al
r is
c ial
Ġmus ic
Ġst aff
t ime
il i
P h
Ġval ue
ir m
Ġsh are
Ġm at
Ġ2 4
ĠM e
ĠG erman
Ġwh ite
Ġfoc us
it ution
Ġvot e
Ġpr im
n ers
Ġan sw
Ġc irc
ac hed
Ġinst ead
Ġcons ider
ĠM ich
Ġp red
Ġre ve
Ġs ite
Ġres pect
e ed
ove red
ĠA b
2 5
ĠJ uly
Ġhig her
ĠAust ral
f ect
Ġresult s
Ġre v
ĠM arch
Ġeconom ic
pr il
Ġle ar
ĠRepublic an
Ġst ru
du ct
Ġwor ks
Ġkill ed
Ġpot ential
Ġdec l
id ing
Ġcomp ut
ill s
ĠS m
Ġsh oot
Ġlong er
as ons
Ġpriv ate
ĠD r
Ġm other
ud e
Ġup d
Ġne cess
Ġany one
Ġtot al
ag ing
ill ed
ight s
Ġannoun ced
i j
ĠA ug
Ġ :
r ain
ĠH ar
Ġreg ul
ĠC ar
Ġresp onse
Ġexp ress
ĠC ong
Ġword s
f er
Ġd en
ke y
The y
ĠM y
ĠM us
iv al
ĠRuss ia
Ġsur pr
Ġt it
ri pt
Ġp ie
Ġp ack
Ġris k
h aps
Ġ201 1
e es
ok es
u le
Ġcap t
Ġoff er
le ge
anc ial
un t
ond ay
Ġcons um
ĠJ une
re et
Ġrece ived
Ġb ase
l t
ĠThe se
p ut
or ing
Ġc ases
Ġeas y
Ġcont ract
il ities
it er
c ast
Ġw ind
Ġconcer n
Ġsc ient
ĠP e
Ġw ays
Ġs en
Ġproble ms
ang er
Ġsh ot
Ġfun ction
Ġcl ub
Ġart icle
av ing
h ood
am s
Ġquest ions
Ġrelations hip
Ġter ror
Ġ {
Ġex act
le ar
pl es
Ġe arlier
ate g
i res
Ġant i
O R
Ġexec ut
Ġcom ment
ĠP al
Ġl angu
ĠGo ogle
Ġle ave
ĠN ot
Ġwe bs
Ġmin utes
A t
i ents
Ġresp ond
ip le
ater ial
et er
Ġfav or
Ġp ort
ĠA pril
Ġins ide
end s
vert ise
Ġh y
Ġgo al
m it
g ing
Ġd iv
Ġph one
her n
Ġexpect ed
ĠM onday
Ġ ur
Ġen vironment
Ġv ol
y le
Ġre view
Ġw alk
b ody
Ġa ud
on st
Ġo il
Ð µ
ĠSt e
Ġpop ular
Ġro ad
Ġc ivil
ĠFr iday
at ural
Ġf ans
Ġinvol ved
Ġab ility
Ġa ge
ĠA ct
is l
Ġne arly
Ġc ode
e ch
A l
h am
Ġhe art
itt ee
ĠCong ress
ĠS ch
Ġs ource
Ġch ance
Ġcre ated
Ġorig inal
Ġ201 0
ĠN ove
he l
Ġbec om
Ġn ation
Ġdirect or
u el
Ġg irl
Ġspe ak
ĠDav id
Ġwork ed
Ġbro ad
olog ical
ues day
ĠCal if
T o
Ġtarg et
it iz
Ġimp act
E N
Ġcurrent ly
Ġa verage
ĠR ed
Ġpr ice
ĠJan uary
ĠC ount
ĠE m
Ġev ents
ap an
Ġwor th
Ġdef in
E D
Ġappro ach
b it
Ġf ather
Ġc al
o or
Ġl ack
in o
act ion
Ġs qu
re m
Ġest ab
ough t
cl us
re l
Ġvict im
Ġ19 7
le x
Ġfor ce
ĠCour t
Ġg ave
ut h
Ġt akes
Ġl at
om b
Ġpubl ished
Ġpl ans
Ġc ell
ll ed
ell ig
Ġim medi
Ġrequ est
Ġl og
Ġmeet ing
ĠS an
Ġso ft
Ġhappen ed
Ġr ate
Ġmod el
Ġl iving
Ġl ives
Ġt ou
ĠW ed
Ġdec ided
4 0
j oy
Ġreport s
ĠS ome
ĠG od
Ġsit uation
ov ed
Ġrequ ire
Ġcont ent
ct or
Ġter ms
Ġwe ap
? âĢĿ
Ġp ict
Ġm id
Ġcan not
Ġfore ign
ĠD o
ĠS und
ĠT uesday
os ition
rough t
Ġar rest
at ives
ĠE l
Ġintern ational
itt en
Ġst e
ĠCanad a
Ġincre ase
ĠG l
Ġmem ber
f ully
Ġturn ed
Ġinf lu
Ġgo es
a el
" .
Ġe t
Ġco ll
f ield
e xt
Ġwho se
Ġr ace
Ġcare er
ĠO ff
ĠGe or
n a
Ġquick ly
ĠWh ile
ĠAmeric ans
ct ions
b ased
Ġtr ade
Ġf em
Ġv ia
Ġbo ard
ĠT V
b l
Ġp ull
Ġnet work
Ġbu y
6 0
ip s
Ġe mer
Ġob s
Ġ |
or ters
ess ion
Ġfin ancial
is es
Ġd ig
es tern
op s
Ġsp ent
ord er
Ġus ers
ĠSept ember
orn ia
Ġmet hod
ĠIs lam
Ġne igh
Ġgl obal
S T
ĠP er
d d
Ġem ail
urs day
iz ing
ĠA ng
Ġteam s
ro wn
ĠF eb
es e
en ed
Ġh on
ra z
Ġm aterial
ru ction
Ġty pe
Ġaff ect
it es
Ġor d
ĠEurope an
et y
Ġcou ple
Ġadminist ration
ĠNove mber
Ġf re
ĠN ow
Ġint rodu
ic ated
Ġnum bers
Ġreg ard
us es
Ġhand s
ĠB y
nes day
i ers
Ġst ore
ĠC or
Ġass oci
Ġvis it
et t
Ġpre p
Ġlead er
at ory
âĢĿ .
Ġsec ret
Ġrec ogn
ĠOct ober
O ne
2 00
Ġp ers
ĠK ore
Ġ4 0
a ur
Ġsim ple
Ġh uge
v al
ĠJ apan
k y
Ġare as
Ġn orm
Ġto wn
Ġth ous
Ġs n
Ġ ill
Ġinclud ed
ĠSund ay
Ġtra vel
Ġcol lect
ch ie
Ġb i
ĠTh ursday
ĠH ill
Ġper fect
Ġget s
ĠAug ust
ĠA g
Ġwork ers
Ġst ruct
ĠRuss ian
is hing
Ġm atch
h a
ĠCalif ornia
Ġco ver
ce mber
Ġlook s
Ġb oy
Ġreve al
Ġkn ew
ĠWed nesday
Ġ2 1
age ment
r ay
Ġ }
ĠU K
Ġwant s
Ġc y
Ġv o
Ġbeh av
a ily
Ġto ol
f ace
g est
im in
en ces
Ġen joy
Ġl oss
Ġp age
Ġcap ital
Ġm is
Ġb ud
Ġeconom y
Ġl ower
Ġhe ard
m on
Ġ ...
ic o
Ġf air
Ġc ause
om p
um e
an i
Ġs ens
ou d
av y
) ;
Ġrul es
Ġmor ning
Ġfor ces
W ith
Ġprodu ction
Ġatt ention
Ġpartic ular
A fter
g es
Ġimpro ve
Ġleg isl
op e
Ġperform ance
Ġpartic ip
Ġw ide
] [
Ġs on
Ġf ear
O M
all ed
Ġf elt
Ġallow ed
" ,
d own
Â Ń
y ond
cher s
' d
ond on
R e
h old
Ġte xt
re ct
ar ily
ap t
Ġhe ar
Ġw ond
l oad
Ġpo ll
Ġb rought
ident s
Ġse par
ce ment
ĠP ar
er o
A C
Ġvar ious
Ġpro gress
Ġbu ilt
Ġtri ed
ĠS w
ĠDe cember
in ing
Wh ile
vertise ment
Ġmove ment
ĠR om
Ġstru gg
ĠBl ack
Ġj ournal
Ġeng ine
Ġadd ition
al t
Ġprev ious
und red
c ome
ĠAf ric
an ks
Ġre ach
ĠSt reet
Ġind epend
ĠJ ew
Ġ @
en ing
c ies
Ġspe ed
Ġle arn
Ġd ied
Ġfeat ures
Ġwebs ite
ak er
ar ies
Ġs ort
ec ause
Ġsur ve
ide red
Ġr ound
ĠC ont
Ġp aper
u k
Ġ2 3
z e
Ġep is
in ks
Ġre b
Ġtr aining
led ge
Ġse ven
Ġlat est
ĠT imes
sy ch
ib ly
Ġl iber
Ġim age
Ġcont act
ys is
Ġsex ual
Ġm ention
Ġve h
Ġparent s
v an
ul arly
Ġsee k
Ġopportun ity
w o
S h
Ġh or
I m
ce ed
am ent
Ġs ong
Ġdem and
ific ation
Ġ2 2
Ġcrit ic
Ġtalk ing
Ġb ott
ĠCount y
ren ch
Ñ Ĥ
im ately
Ġre pe
Ġen s
et h
Ġin n
Ġrequ ired
ĠK ing
Ġl ink
ib r
Ġse arch
Ġdocu ment
Ġfe ll
Ġp an
Ġad m
ĠBrit ish
atur day
Ġinvestig ation
il le
se qu
Ġsp okes
t r
Ġa chie
g round
Ġpop ulation
id ge
Ġb ank
T r
ĠP aul
ĠL ondon
c le
Ġdo g
Ġset t
Ġprev ent
Ġc ard
Ġansw er
ellig ence
? "
Ġcons idered
Ð ¸
un k
Ġcl imate
S he
Ġ ess
Ġser ious
Ġcon c
as c
Ġb ox
Ġ il
o o
m en
Ġgu y
ĠP ark
Ġclaim s
ĠS and
Ġ Î
Ġmess age
Ġlangu age
s et
ru ary
i ant
ic ation
ĠPart y
* ]
Ġon es
ĠS er
Ġmod ern
Ġdam age
e ared
id a
ur ning
ict ion
Ġpri or
Ġ[ *]
Ġeff ort
v ent
pp er
Ġe ight
Ġc itiz
Ġh ot
ĠMc C
Ġviol ence
Ġr out
Ġincre asing
Ġg as
Ġco ach
Ġu nd
Ġstud ent
ro om
Ġshow ed
ĠT ex
Ġprov ided
Ġup on
Ġp aid
Ġgrow th
Ġimm ig
ĠInd ia
Ġsl ow
Ġproduct s
ĠK e
Ġsaf e
Ġp en
it ch
Ġex am
Ġ200 9
ĠE ast
Ġreal ity
Ġexact ly
Ġsomet imes
Ġmed ical
l ight
Ġf ast
Ġex cept
Ġqu ality
ac her
I C
Ġprot est
Ġrem ains
Ġreg ion
osp ital
Ġsystem s
Ġf ix
Ġjob s
Ġeduc ation
ĠQ u
Ġare n
Ġlead ing
Ġcomplete ly
Ġcon duct
Ġob v
reed om
Ġcent er
d e
Ġext reme
ĠSen ate
Ġinterest ing
ĠC he
Ġvot ers
ic les
av es
Ġbig gest
Ġdef ense
Ġmov ie
ain t
Ġdou b
Ġcon vers
b ed
Ġs ize
Ġass ist
ĠDon ald
Ġch ief
ab or
ĠS aturday
erv ative
Ġh tt
im ent
er ve
Ġfin ally
row d
Ġwould n
Ġcons ist
Ġrese ar
Ġd ro
9 9
Ġ200 8
ly ing
Ġn atural
Ġexper ien
Ġdo ll
ad d
ĠM ark
Ġchang ed
ous ly
augh t
Ġh undred
os es
Ġpl at
ĠT ur
ĠP at
Ġext ra
ĠCent er
ar i
ĠC oun
ress ion
Ġn amed
Ġdes pite
Ġr ac
Ġbl ood
ent ially
Ġa w
r ast
en ge
Ġpo or
ou l
ĠFeb ruary
Ġd raw
Ġdev ice
Ġdet ails
m a
ist an
I T
Ġmajor ity
ĠM ore
Ġmain tain
2 2
Ġwr itten
Ġar riv
y l
Ġst ories
ap h
Ġread ing
ĠP ost
ens ion
Ġcor por
Ġlevel s
Ġc amer
ines e
E S
Ġr ange
u f
em s
he t
A L
s p
Ġcertain ly
ĠLe ague
) :
Ġattack s
ĠR ich
ĠC ons
h ib
e gr
Ġcontin ued
Ġ +
Ġdescrib ed
Ġm iddle
Ġpartic ularly
ĠF irst
Ġun f
ĠS erv
ag o
Ġcost s
Ġter m
ob ile
Ġw ife
Ġsum mer
Ġpur p
ĠI ran
ic ks
Ġm ill
Ġg iving
Ġcon cept
Ġpr ison
n y
er ry
il es
Ġsc reen
Ġav oid
Ġeff orts
Ġcar ry
op er
Ġsoc iety
Ġd anger
ĠM or
in ally
Ġstart ing
Ġgrow ing
Ġf ile
f ort
Ġl ay
Ġcho ice
Ġmult iple
Ġfoot ball
Ġ *
w ise
Ġoffic ers
ĠE ven
Ġ6 0
is ions
8 0
er c
Ġwr ite
ĠMin ister
Ġs le
Ġfig ure
Ġqu arter
ĠD es
ĠMus lim
n ces
Ġcult ure
Ġro b
Ġrec omm
Ġp ath
Ġim ag
Ġ= >
Ġto ward
Ġlook ed
u x
ir ing
Ġrem ember
Ġproper ty
Ġus ually
Ġst uff
Ġcomple x
Ġpress ure
Ġpart s
Ġthink ing
Ġhist or
ĠI nt
Ġsc ience
Ġdem onst
Ġce le
e ff
Ġsur v
Ġpur ch
Ġbe yond
Ġc at
ak ers
Ġspe ech
Ġp ark
ĠM ex
f ord
air s
Ġocc ur
Ġthrough out
in ary
Ġsaf ety
Ġpract ice
Ġd ate
ĠSyri a
am ing
Ġt our
Ġrem ain
ĠJ ames
Ġadd itional
ĠDemocrat ic
ut ions
Ġcould n
Ġu lt
on ent
Ġlaw s
Ð »
ber g
Ġde g
ur g
am b
Ġcandid ate
ĠS oc
Ġrece ive
uc lear
F L
Ġus er
Ġlet ter
Ġt able
Ġcomput er
Ġcop y
Ġstre ng
Ġ2 6
Ġto wards
Ġst ar
Ġcoun ter
ur t
b an
Ġal though
ar a
ĠI S
Ġcl os
ic ations
z z
om en
Ġme ant
Ġm ach
Ġcall s
Ġbl og
Ġread y
Ġbr ain
2 4
ĠN et
ĠTex as
im inal
ol ute
ĠN e
ro y
ar ian
Ad vertisement
Ġc ross
Ġs il
Ġst age
us ing
Ġimp lement
Ġchall eng
Ġsus pect
ĠInd ian
Ġcom ments
Ġar m
bo ard
Ġper haps
ĠS pe
Ġthous ands
____ ____
Ġinclud es
Ġwrit ing
Ġ Ã
Ġal one
ĠS im
ast ic
Ġey es
l in
it ute
it ness
im um
Ġd ark
Ġcond itions
Ġc rowd
Ġalleg ed
ĠApp le
port s
ch an
Ġdis app
ĠRepublic ans
ĠT or
Ġgu ys
Ġ2 7
il ies
ĠF rench
ĠMich ael
Ġop in
it or
Ġpresident ial
Ġo ption
Ġeffect s
ĠG ener
N o
Ġen em
Ġoffic er
Ġimmedi ately
3 5
Ġk ids
ab les
Ġsub st
Ġse ll
Ġh ous
ĠAustral ia
Ġtw e
Ġs at
m p
al es
b and
Ġenc our
ĠCh inese
Ġdeb ate
Ġa head
Ġmy self
ĠM on
A P
ad o
Ġdirect ly
Ġre asons
O P
Ġyour self
Ġw all
ĠSt ar
A ll
es ter
he st
f l
Ġf an
ate ver
Ġs we
Ġh ar
ĠH er
ent y
Ġ >
ru pt
Ġsc ene
lic k
Ġsus p
Ġse lect
Ġb and
Ġsm art
Ġplat form
ĠB en
ac hes
ĠM art
ĠDemocrat s
Ġsoft ware
Ġdo or
Ġ ver
st on
Ġa im
ĠIntern et
Ġ( @
Ġstand ard
Ġpre c
Ġbook s
Ġar ch
ĠV al
Ġil leg
Ġbe aut
Ġappear s
ic ient
augh ter
ĠWill iam
Ġle ague
ĠB ill
ra q
p art
ci ent
O T
Ġ ut
B I
Ġfor ced
ro ll
an ced
Ġg one
Ġcomm and
Ġ â
Ġn ature
Ġhapp y
Ġ2 8
ĠJ ack
Ñ ģ
Ġf a
ĠGo vern
Ġmov ed
ĠC r
or ney
O S
r s
Ġschool s
Ġrel ative
Ġanal ysis
ri ef
ĠB o
n ew
A M
Ġtou ch
N ow
Ġincre ased
Ġmov ing
Ġes c
an ch
U S
Ð ½
Ġmay be
Ġcle an
ock ed
Ġro ck
j ust
Ġnot e
Ġhelp ed
Ġbud get
ĠM ac
ire ction
Ġt en
Ġdesign ed
Ġp sych
Ġconf erence
id ers
Ġdiffere nce
ĠThe n
ĠAss oci
y an
i ance
Ġphys ical
Ġevent ually
Ġsh own
Ġpower ful
Ġnecess ary
Ġcont ribut
Ġdis p
ĠI I
c ul
Ġth row
m ore
ĠR ober
ĠSm ith
a ud
Ġcent ury
Ġag ency
le ase
Ġfail ed
Ġrelig ious
al y
Ġsen ior
ĠH ere
Ġpie ce
Ġfre qu
Ġcred it
ad em
Ġl ic
E x
Ġbro ther
r ated
m ine
Ġst ra
Ġeas ily
Ġdri ve
Ġpr ices
Ġdet ail
ĠD ay
Ġun ique
Ġtr ust
Ġcharac ters
Ġpos itive
Ġmean ing
Ġest im
ĠE U
w ood
Ġcomp ared
Ġch arge
Ġsign ed
1 00
Ġa ware
ĠFl or
P ro
Ġlim ited
Ġen for
Ġconf ir
it ation
ĠG reen
s er
Ġfam ilies
Ġdevelop ed
Ġb attle
ĠI raq
ri age
Ġsc he
Ġp us
Ġcr is
Ġc ities
Ġb al
Ġatt ract
Ġnot ed
Ġf irm
Ġdis play
Ġd riv
ro l
ven ue
Ġfe ature
ir th
Ġref er
Ġdec ades
Ġbegin ning
ĠSt ud
en cies
Ġc ast
2 3
Ġaut om
Ġcol lege
Ġ19 6
B e
Ġs un
Ġorgan ization
Ġchall enge
Ġprom ot
Ġapp eared
Ġre form
ore s
amp ions
Ġn om
ot i
Ġtr uth
ĠB ay
Ġcent ral
Ġpl aces
ĠD is
Ġem b
Ġcitiz ens
L e
4 5
Ġanal y
k i
Ġpass ed
Ġweap ons
Ġan g
Ġexecut ive
iv ity
ist ry
A ccording
âĢĿ ,
ing er
Ġfollow ed
ĠSu per
Ġlarg est
Ġla unch
Ġdeter min
Ġd raft
Ġcustom ers
Ġadv ant
ut y
Ġpl ant
Ġg ives
b um
res h
Ġn ice
in y
wh ile
sec ut
Ġtreat ment
ound s
Ġact ions
on ents
Ġsp ending
Ġb orn
U n
Ġdis e
ĠGeor ge
Ġsp ot
Ġmeas ure
ĠS chool
ĠâĢ ¦
or g
Ġke pt
A D
Ñ Ģ
co in
Ġactiv ity
ite ly
Ġpred ict
p re
Ġst o
Ġconf lic
ĠEng lish
ress ed
Ġprim ary
. âĢĻ
Ġindividual s
Ġcle arly
Ġint egr
Ġ ign
M y
Ġd rop
y a
Ġn uclear
Ġfe ed
Ġrel ated
m ar
N ew
Ġbe at
ĠO f
or ks
or ter
Ġseem ed
Ġbenef its
Ġm ist
ĠUn ion
Ġneigh bor
Ġtit le
Ġgr and
in n
H E
ĠH igh
Ġ x
on a
Ġknow s
Ġgr ad
A r
Ġfe et
ĠFr anc
ub e
Ġman ager
Ġr ap
Ġpe ace
N A
Ġcol or
ĠE arth
ĠCoun cil
Ġover all
Ġprev iously
Ġla un
ĠR ob
Ġem ot
Ġsp read
S ome
Ġus es
Ġopt ions
Ġcontin ues
so ft
Ġsp end
Ġr ule
Ġhigh ly
ĠFlor ida
Ġs end
Ġfull y
Ġapp arent
qu e
et ro
I A
Ġabs olute
in ated
Ġtr aff
Ġpolit ics
Ġide as
le ments
Ġfight ing
ow ers
uf act
Ġepis ode
= =
ĠEng land
c raft
Ġtri al
Ġpre m
Ġallow s
Ġ200 0
Ġvo ice
Ġha ven
Ġco ol
ĠAng el
": "
Ġsuccess ful
Ġm ix
k en
Ġresear chers
a res
Ġstra ight
i able
S P
Ġoff ered
ol ic
D on
Ġknow ledge
Ġgo als
Ġr are
Ġend ed
ĠU p
Ġmost ly
ic it
Ġinc ident
ĠT om
Ġclaim ed
Ġp ush
al se
Ġdri ver
Ġexp and
n own
Ġre ached
Ġl ines
ect ion
Ġal tern
Ġint elligence
Ġauthor ities
Ġsal es
Ġl iter
ag on
B y
Ġun c
ĠP ort
ing ly
e an
Ġlaw y
ag n
Ġf ine
ĠIntern ational
âĢ¦ âĢ¦
Ġmin or
Ġcall ing
Ġl if
Ġcom mer
ate gy
Ġcr iminal
il s
Ġm ission
lev ision
Ġinc ome
ĠChrist ian
9 0
Ġstre et
i h
Ġal bum
ĠPol ice
ant ly
Ġh ospital
ĠD ef
Im age
Ġown ers
Ġcris is
Ġsh ut
Ġsa ve
Ġres ources
R A
E O
Ġact ual
Ġcor rect
b ox
ĠA ir
Ġ200 7
Ġt ro
Ġstud ies
Ġcr ime
Ġwe b
Ġshoot ing
Ġjud ge
w ide
et ic
Ġbe g
Ġsupp osed
Ġlarg er
ĠL a
erv ed
ak s
Ġrecord s
Ġhapp ens
Ġdist rict
ĠB el
ot a
it ude
h tt
Ġsc en
Ġdr ink
v ille
um n
Ġr ates
Ġdev ices
ĠW ind
Ġp un
b on
Ġstat us
Ġr ank
Ġ ir
ve re
p ir
Ġmin ister
Ġl ose
ĠM icro
ic a
Ġey e
Ġfem ale
Ġpolic ies
Ġfavor ite
Ġac qu
ĠPh il
os h
Ï Ħ
I s
Ġconcern s
G et
Ġv irt
Ġwond er
P A
Ġtr ou
Ġte acher
Ġsee ing
Ġass ault
ic ate
Ġreg ular
il ed
Ġd irection
ĠPl ay
ĠF rom
ĠCom p
** **
Ġcomm it
o es
Ġpict ure
Ġsp ir
ĠM ost
Ġpat ients
ĠE very
Ġra ised
Ġme chan
Ġdocu ments
Ġc ry
ĠWe ll
Ġnorm al
Ġb order
ĠGerman y
ter m
Ġwill ing
Ġgreat er
Ġrespons ible
ĠSc ott
2 6
ic ago
Ġprov ides
Ġoff ers
Ġw ild
Ġprop os
Ġf reedom
oc ks
2 8
Ġdef end
ĠJohn son
g en
Ġcharg es
Ġca used
Ġbelie ved
ic ed
i pped
H ere
Ġs ources
Ġreveal ed
Ġg reen
2 7
Ġorgan iz
Ġneg oti
ĠSec ret
ĠG old
ri an
ĠR E
ĠGener al
Ġproject s
ĠFr ance
ĠÂ £
m ark
Ġj ump
Ġens ure
Ġlear ned
Ġinflu ence
ĠHe alth
ĠAr ab
C l
Ġper m
Î ±
u gg
Ġprogram s
se e
Ġex ch
Ġbehav ior
Ġapp l
ĠU k
Ġf it
Ġsl ight
Ġqu e
Ġdep artment
ĠA nt
Ġwa it
ĠW estern
ent ed
Ġc ars
ĠR ec
d om
ĠA ccording
Ġapplic ation
od ay
Ġb ur
ro id
Ġref lect
5 00
Ġqu al
Ġm ount
ĠSand ers
t a
Ġfeel ing
ĠL ou
ĠB re
S A
Ġm ap
Ġad ult
ĠM any
Ġl ik
ĠBro wn
ĠC ap
Ġ2 9
N ot
Ġent er
Ġle aving
Ġn ames
Ġcele br
se y
Ġbas ic
Ġw at
" ,"
r ont
Ġwh atever
Ġres idents
Ġsle ep
u ana
iver se
Ġst ation
Ġmar riage
ĠM P
Ġman ufact
Ġindepend ent
Ġad op
if ying
Ġtrad itional
Ġfund ing
r ant
us ion
eng th
---- ----
Ġrun s
ĠM il
u ild
Ġstr ategy
ĠTr ans
i os
Ġr ise
Ġagree ment
Ð¾ Ð
ra v
ear ch
Ġshow ing
ĠO ther
ĠL ab
ak ed
Ġm ur
Ġb rief
if ul
S c
Ġleaders hip
Ġ ice
ri ption
ĠH am
ĠFranc is
ij uana
ĠW il
ĠP ress
Ġc ards
ĠKore a
Ġpart ies
ĠA lex
Ġadd ing
as y
2 1
Ġpart ners
ĠS am
ĠJ ud
ic ial
IN G
Ġar g
O ur
Ġopen ing
ĠA P
i ation
. '
Ġconfir med
ĠPe ople
ĠN or
ĠComm ission
ĠA tt
i us
Ġf at
ĠM ike
ĠG et
s pect
Ġstreng th
Ġadvant age
s pe
Ġpost ed
Ġt end
Ġbas is
Ġarrest ed
ĠO h
Ġcamer a
we ll
ĠD el
Ġtem per
Ġoper ations
Ġm ax
ĠL et
ag s
Ġwh om
Ġr at
Ġinst all
Ġe ar
com ing
Ġphot o
Ġd ream
ĠRe g
ĠHill ary
Ġsol ution
Ġcho ose
Ġask ing
Ġag reed
ĠCh icago
Ġon to
Ġcreat ing
Ġrest rict
Ġdig ital
ill er
r am
g a
el ine
Ġprodu ced
i pp
p oint
Ġch urch
ur ance
ac ing
D A
Ġval ues
Ġman agement
Ġm er
Ġim pl
ign ed
ill ing
ad y
Ġacc used
ad ing
sc rib
c ont
Ġmill ions
Ġscient ists
Ġemploy ees
ibr ary
Ġmass ive
le vel
l ant
Ġocc as
ĠCh urch
rib ution
Ġweek end
Ġdrug s
ĠCanad ian
m at
Ġilleg al
Ġeffect ive
Ġestab l
Ġc atch
Ġb irth
How ever
Ġpr int
Ġbecom es
Ġse ction
Ġhundred s
z a
ograph y
ic ip
Ġb ed
Ġprodu ce
ĠUk rain
ci ence
Ġtr ain
Ġsp oke
Ġreturn ed
Ġcommun ities
Ġch air
v est
o om
Ġte levision
Ġpl ot
7 5
2 9
Ġinterest ed
ri al
od ies
Ġopen ed
ĠS un
and er
Ġserv ed
Ġe th
Ġc ru
Ġadv oc
Ġexpl ained
Ġdoll ars
Ġbr and
or ial
Ġv ill
ĠS l
t ies
Ġcompet ition
M r
Ġt ick
Ġelect ric
Ġam b
Ġgo ld
ur ies
The se
Ġwor se
Ġtyp es
ĠW all
Ã ¡
i pe
E T
Ġbenef it
n o
est ic
arl iam
Ġlear ning
ĠL ike
ce ll
az ing
3 3
Ġachie ve
Ġview s
ĠS up
r ants
ac ity
ĠJust ice
Ġre ject
ĠWh y
âĢ ĺ
Ġb ab
7 0
Ġinc red
st e
Ġopp osition
ĠComm ittee
r ate
Ġun like
Ġstri k
Ġhig hest
Ġhe aring
Ġprofess ional
is her
Ġprop osed
Ġcrit ical
ĠJ ose
ĠB er
in ct
Ġd aily
ĠB ecause
Ġv s
Ġim ages
ĠA ut
Ġpurp ose
Ġpat tern
arliam ent
Ġcom fort
Ġbecom ing
Ġ200 6
Ġte ach
Ġche m
Ġass um
Ġob tain
Ġit ems
ĠF ox
ord s
es h
B A
Ġet c
ph one
Ġinit ial
Ġhe avy
Ġn ine
ĠM od
Ġtell ing
Ġopin ion
ĠY our
Ġsh ip
Ġbelie f
Ġexpl ain
ĠM ag
Ġwe ight
Ġsur round
ĠN FL
Ġst ated
um an
ul ate
Ġwatch ing
Ġsupp orters
ĠIn c
ĠPal est
Ġpolit ic
Ġhe ro
b ing
a wn
ct ors
Ġneg ative
ĠAd d
Ġ8 0
ĠMicro soft
Ġlaun ched
Ġ9 0
w in
Ġvictim s
Ġst yle
Ġloc ation
ĠInst itute
Ġphot os
ĠLe g
Ġmil es
h ouse
ar io
Ġlim it
Ġact ive
k in
Ġcontro vers
ĠL iber
r ad
N N
Ġinvest ment
Ġiss ued
ĠCon st
ort hern
ol es
Ġsur face
ĠM o
Ġgener ally
Ġcond ition
Ġ200 5
out hern
Ġcomm ittee
Ġf resh
Ġdefin itely
Ġb omb
Ġsh ared
Ġdoub t
Ġco al
wit ch
m iss
Ġf ant
Ġbott om
re es
k nown
C on
Ġrepl ace
ist ics
Ġcl osed
te red
Ġcommer cial
ĠG reat
Ġk ick
go ing
Ġwor st
Ġjo in
Ġh us
y pe
od es
Ġintern et
e qu
ĠIslam ic
se ason
Ġmur der
ww w
ortun ately
Ġinst ance
Ġh ack
Ġfa ith
Ġentire ly
! "
Ġs pl
ĠM al
ĠL aw
z en
Ġvict ory
r ig
Ġargu ment
Î ¹
4 8
Ġwin ning
Ġstruct ure
Ġsol id
ĠMex ico
ĠBrit ain
ic i
Ġveh icle
Ġlegisl ation
p ri
R ead
ann el
Ġp et
ĠOff ice
Ġunderstand ing
Ġser ve
Ġs an
ã ģ
L A
Ġv ac
Ġsuggest ed
om an
Ġr an
ĠC up
Ġapp eal
ĠC EO
Ġfind ing
Ġrest aur
Ġput ting
Ġjust ice
re y
ove l
Ġco verage
Ġdanger ous
o ly
ar ant
Ġres ist
Ġrequ ires
Ġredu ce
Ġm ale
Ġd ie
Ġm icro
Ġacc ur
Ġassoci ated
Ġth us
ĠSup reme
ĠSec urity
R es
I D
ear s
ĠU N
ren cy
Ġwe alth
Ġhtt p
Ġcandid ates
Ġbusiness es
ad a
Ġg e
O U
Ġfl oor
Ġd aughter
Ġexist ing
r im
oy al
Ġnot ice
Ġjo ined
Ġhold ing
oss ible
Ġestab lish
Ġdeb t
b re
Ġdriv ing
Ġre act
Ġmar ijuana
Ġcontin u
Ġas pect
O L
Ġdest roy
Ġactiv ities
ĠK en
wh ich
m m
Ġtraff ic
Ġpl ays
Ġcomp ar
ĠH all
Ġw itness
Ġmeas ures
b ut
Ġsit es
ĠM at
om as
ĠâĢ ¢
Ġextreme ly
Ġcharg ed
ĠP et
Ġsu it
Î ¿
3 6
Ġn orth
Ġback ground
Ġanim als
ud d
and a
ang ing
and on
E C
Ġf alse
ĠS ince
om s
Ġtrans fer
Ġc ateg
ĠG ood
ĠF e
i est
Ġm obile
Ġdise ase
Ġdec ade
ĠIm ages
Ġn ar
ig an
Ġother wise
Ġdou ble
Ġann ual
c ious
Ġthe ory
Ġdiscuss ion
ĠM iss
.. ..
Ġsp orts
Ġe at
Ġcan cer
ĠG ame
h an
Ġnot es
ĠB it
g ar
Ġrepe ated
Ġg ay
ĠF ound
v ention
res p
A meric
Ġeas ier
Ġc aught
Ġkeep ing
Ġf igh
ĠB ig
ĠA re
g ency
Ġsupport ed
Ġold er
Ġconst ruction
Ġupd ate
Ġspec ies
Ġsc ore
ĠD ist
Ġspe ct
Ġn or
Ġhas n
ĠJ er
ĠO ver
ri ve
an o
Ġref ere
ili ar
h ow
Ġd er
it z
Ġsurve y
Ġsmall er
Ġpl aced
Ġfar m
Ġag gress
a ven
Ġwa iting
n ight
Ġconflic t
oll y
ol f
ir gin
5 5
ck now
Ġlab or
Ġdef e
ont o
ad er
Ġpres ence
Ġdisc overed
Ġcons ervative
ĠLou is
app ed
Ġtr uly
Ġsol ar
p en
Ġtell s
Ġr ough
ĠP ut
ĠO ur
ĠComm un
l a
Ġl oad
Ġgu ess
ĠRober t
Ġwe l
Ġun iversity
Ġrecomm end
Ġdown load
o very
ill a
Ġplan ning
Ph oto
Ġfeel s
Ġbelie ves
ĠCh ris
Ã Ń
Ġe arn
Ġra ise
ĠJew ish
ĠB ush
Ġconcer ned
Ġc ore
B l
ĠRich ard
ĠM ars
v ant
n el
Ġoper ation
Ġinit i
w orks
ad ium
Ġlarge ly
Ġgr ant
ĠWind ows
up s
G B
Ġk id
Ġconvers ation
g ers
Ġdel iver
or row
l ig
Ġsepar ate
Ġs ides
Ġoff ensive
Ġconnect ion
Ġatt end
ĠG ar
ĠAr t
! !
Ġtre nd
ĠF in
Ġstep s
Ġhom es
Ġfr ame
Ġbl ue
ĠP C
Ġallow ing
Ġun it
Ġt ough
Ġass ess
ĠT re
rib ute
est s
ĠM ad
ul f
m ail
r ick
Ġnews p
Ġcor ner
is er
e ah
an cy
Ġh arm
Ġprotect ion
Ġconc lud
Ġcon sequ
ĠSt ep
ĠB ank
Ġtal ks
Ġspokes man
ĠM er
ĠInst ead
l or
Ġtwe et
Ġsto pped
Ġst ick
Ġs outh
ul ated
su it
a it
P S
Ġsc ale
Ġneighbor hood
at ically
ron ic
Ġident ified
ĠCar ol
3 4
ĠF ore
is ation
ic on
ens es
Ġdec isions
ow l
ot ed
Ġtri p
Ġmiss ing
Ġcirc um
ĠL os
ul a
itution al
gh an
iz es
M ore
Ġdet ect
Ġa cknow
ĠS al
Ġstr ateg
Ġpart ner
Ġman aged
Ġimmig ration
Ġfig ures
Ġcoun cil
Ġtrans form
Ġhus band
ĠIsrael i
b our
Ġl ength
Ġgirl s
Ġenfor cement
Ġcont ain
Ġaud ience
oc r
B S
Ġ3 1
Ġsk ills
Ġthan ks
is f
hen s
cept ion
Ġfoc used
Ġdef ensive
Ġm ig
Ġinterest s
Ġbeaut iful
ĠPro f
Ġn ovel
ĠWe b
Ġappro pri
ĠQ ue
ĠP M
ĠGovern ment
Ġturn s
Ġha ir
Ġab use
h i
ĠServ ice
ĠFr ank
Ġcomm ission
ĠD irect
ur ation
anc ing
Ġuse ful
Ġtool s
Ġro ll
Ã ³
il ing
4 4
3 2
Ġex clus
os ure
Ġt ask
Ġset ting
C C
Ġm ental
Ġfil es
Ġb ul
ĠA c
oc al
Ġaff ord
ĠM os
Ġd ed
Ġb atter
ĠI r
3 7
Ġref uge
! âĢĿ
Ġobv ious
Ġhum ans
Ġbe er
Ġ3 5
Ġple ase
Ġmach ine
ĠPar is
ĠM et
Ġmod els
Ġhe at
wh at
Ġfail ure
ĠAssoci ation
Ġ201 8
f erence
a e
Ġseek ing
Ġtest ing
ĠR em
Ġcomm itted
u ct
re al
ony m
ĠLe e
ĠJ im
ver se
r d
Ġex erc
Ġf uel
Ġcomb at
Ġapp oint
Ġrad io
ĠS ur
Ġp air
are n
Ġst ress
ĠSecret ary
and om
Ġs itting
Ġprov iding
Ġc ash
ĠR yan
c ks
Ġwe ak
Ġcont ext
âĢ ¢
k ins
EN T
Ġsuggest s
Ġins p
Ġhealth y
ĠPr ime
Ġwind ow
land s
] .
3 9
Ġintrodu ced
ĠPalest in
M A
Ġgener ation
Ġs am
ĠF BI
rib le
g l
as hed
ampions hip
Ġtrans port
Ġkill ing
Ġinj ury
Ġa ward
st ream
ock et
E L
Ġpre fer
az ine
Ġtest s
Ġhappen ing
Ġe lements
ruct ure
oc ol
Ġmention ed
Ġinn ov
Ġimp ossible
Ġfour th
ĠE v
Ġwor ry
Ġcorpor ate
ĠP re
ĠAl though
Ġ200 4
ĠT wo
Ġrem oved
Ġcell s
Ġam azing
ook ing
Ġsupp ly
Ġstart s
Ġsold iers
Tr ump
3 8
ĠJ eff
ce l
d o
Ġfund s
s en
p m
D P
ĠIn ter
ort ion
ic y
Ġt ack
Ġplan et
ĠThe ir
Ġdec ide
yn am
Ġintern al
Ġfin ished
ĠA ri
i ot
Ġph il
Ġestabl ished
se mb
in ter
Ġbig ger
Ġabsolute ly
ĠJ oe
ĠAfric a
ĠAf ghan
u ke
end ment
Ġthere fore
Ġposs ibility
m akers
U p
u nder
ob by
Wh y
Ġdep end
Ġapplic ations
ĠS il
i pl
4 7
Ġse a
Ġme re
Ġdom in
ĠT ime
ĠM ont
ĠJapan ese
ĠC ath
ans ion
Ġsy mb
Ġcol le
ĠMart in
ĠG roup
Ġspir it
Ġslight ly
Ġrem ind
Ġg ain
ĠG OP
ĠAfric an
u ate
Ġpresent ed
uck y
ag ues
Ġident ity
ĠSyri an
el ess
Ġw ish
Ġter rit
Ġer ror
ĠP ak
I L
Ġv ision
Ġst ock
Ġrelative ly
Ġreg ist
ĠM el
Ñ ĥ
r un
Ġe arth
w ith
Ġhelp ing
Ġcol lection
Ġaccount s
Ġy ards
Ġve ter
Ġprofess or
Ġdeg ree
T C
Ġprep ared
Ġclos er
ĠP eter
Ġ7 0
Ġsecond s
ĠP ublic
Ġh ate
Ġarriv ed
ĠM ass
ĠAngel es
R ep
Ġgr ab
Ġd at
F C
E ven
Ġapp re
ĠM ary
ĠLab our
ĠAl so
i pping
Ġmem ory
ĠM iddle
f e
Ġv ul
Ġtr ail
Ġdeter mine
ic ide
ar ks
4 9
Ġdom estic
Ġban ks
Ġ/ /
Ġun less
Ġcritic ism
y p
it ect
Ġt im
Ġco ld
ĠV irgin
Ġvot es
Ġmark ets
Ġenvironment al
Ġatt orney
at ures
Ġocc up
ĠPl an
ack s
Ġun ion
Ġplan ned
Ġown er
Ġgr aph
Ġg ender
e y
4 6
Ġbal ance
Ġcopy right
Ġb ought
Ġag encies
ĠJ ones
ĠG al
ĠAt lant
v in
dd en
Ġpr inc
Ġinter act
Ġf ol
ĠT er
rou d
ol a
I P
Ġsk in
Ġrespons ibility
Ġpl enty
ĠO ut
v is
k a
id ering
Ġincreasing ly
Ġdro pped
Ġhon est
ĠU nder
ict ed
r ange
er ous
Ġcl in
Ġcar ried
ĠT im
F rom
Ġc as
ĠTor onto
d en
D es
Ġv ast
Ġfam iliar
ĠAnd roid
Ġstand ing
Ġoper ating
Ġcon clus
Ġap art
Ġag ent
ĠCol or
Ġad just
Ġloc ated
Ġb row
ĠP ac
Ġpers pect
ĠCent ral
ress ive
ag an
A m
3 1
Ġtax es
ĠD en
ĠCh ar
Ġrelig ion
Ġregard ing
Ġfell ow
ap ers
Ġexper ts
Ġsurpr ise
Ġar ms
Ġspe aking
Ġser ver
Î ½
o ch
Ġfact ors
Ġf le
Ġgu ard
Ġanim al
ut ers
p ret
ain ts
Ġun its
Ġdevelop ing
ĠU s
Ġfil ed
Ġcl ick
Ġb odies
Ġapp ly
ĠPro t
ĠPh oto
c oh
Ġun s
Ġult imately
Ġstri ke
Ġat h
ĠTh ose
pro f
J ust
Ġte en
Ġrev olution
Ġn one
Ġequ ip
Ġchang ing
Ġaltern ative
Ġsound s
Ġs ch
ov ing
g n
az on
Ġtrans l
out s
E very
Ġsu dden
Ġpl ants
Ġint ended
Ġhous ing
ĠTh omas
Ġwrit er
Ġt ourn
Ġpro secut
Ġexch ange
ste in
Ġstand ards
Ġgl ass
Ġenem y
Ġc overed
Ġgu arant
ĠS ant
ol it
Ġc raz
ost on
O W
Ġsu st
Ġl osing
m as
Ġrep orters
Ġcap acity
Ġse qu
Ġp it
ĠRes earch
Ã ¶
ro s
Ġelect ions
ĠFrancis co
Ġsp ort
ĠUS A
ra ve
O f
C A
Ġcons ult
Ġapparent ly
Ġcut s
ĠV er
ĠCol lege
L ast
Ġte le
ell y
Ġpro ve
y r
n ame
w ing
Ġwere n
Ġsub s
Ġoff ering
ĠS pr
Ġt ight
Ġhelp s
idd en
P l
Ġed ge
Ġpoint ed
i as
ad ed
Ġexper t
Ġexp ensive
Ġdep art
Ġimag ine
iss ions
hed ul
Ġvar iety
Ġbro ken
ĠL ast
ĠAn y
rast ructure
ol ved
Ġqu ant
Ġpay ing
Ġpan el
Ġorganiz ations
Ġins urance
Ã ¤
I ON
Ġo dd
Ġestim ated
ĠM ur
ab led
Ġde ploy
Ġac adem
Ġa id
uc ks
Ġl ived
ĠR ock
ĠD ec
Ġsc ript
Ġp il
gy pt
Ġtw ice
Ġdetermin ed
Ġar my
h and
T V
ĠDist rict
pl ace
ly mp
av a
Ġsec ure
Ġexpl os
m al
cl ass
Ġun ivers
Ġfl ow
Ġbring ing
Ġset s
ri er
ord in
n et
Ġvul ner
ĠV e
Ġse m
Ġthan k
Ġmot iv
ĠN ov
og ue
Ġconv ention
ap ter
all s
ĠCarol ina
Ġsp ring
Ġexper iment
ĠFound ation
st ate
Ġrap id
Ġdist ance
Ġdi pl
ro g
ly n
Ġfin ish
Ġequ al
Ġcl im
ĠEn em
os en
D o
Ġse asons
Ġpie ces
Ġargu ed
Ġpro spect
Ġ199 0
ã ĥ
ester day
Ġinvol ve
l ife
Ġse lling
Ġfor ms
ĠS ing
m o
ist ed
6 5
Ġv ir
Ġconduct ed
ocr acy
Ġsc hedul
Ġexpress ed
p erson
Ġsc r
u zz
Ġb ike
ĠC amp
ĠJ ournal
Ġgovern ments
Ġb reat
ob ody
ce an
ĠAr my
ri e
ock ing
en ced
Ġpot entially
Ġf ired
G o
C H
Ġj ail
ĠSc ot
ĠR o
Ġopp osed
Ġe lement
p et
Ġr id
ĠP lease
ĠG ree
os ite
4 2
Ġrul ing
Ġpropos al
Ġposs ibly
P e
Ġser iously
Ġmar ried
Ġscient ific
Ġend s
use um
ov es
im al
Ġy es
Ġdevelop ers
Ġcre w
Ġbro ke
ro ad
n oon
Ġd in
m et
Ġspecific ally
ĠI ll
Ġst ret
Ġequip ment
ĠAustral ian
Ð° Ð
Ġconst ruct
ĠO lymp
w ar
l o
P D
Ġr ich
L et
Ġsh all
Ġvot ing
Ġsignificant ly
Ġbo ost
Ġauthor ity
ĠB ern
b ur
Ġphil os
ph as
ed d
Ġref used
rel ated
Ġt act
Ġoccur red
Ġcapt ion
ĠUkrain e
ĠS qu
ĠN H
Ġ ;
ive red
Ġl oved
Ġfact or
Ġexc ited
Ġdisc l
ĠS her
p ay
or al
he red
Ġst ars
ĠB oston
olog ies
g ment
] ,
Ġpl us
Ġm aster
Ġdipl om
Ġden ied
Ġcol umn
Ġcar bon
Ġobv iously
Ġse ctor
Ġorig inally
Ġdes ire
in ent
Ġmin imum
Ġm ut
re f
ber t
0 1
Ġtre ated
Ġsurpr ising
Ġsupport ing
Ġel imin
ĠRom ney
y m
ure au
por ary
Ġfac ing
Ġchem ical
k et
ĠH en
ĠF ederal
ow nt
Ġg rew
ĠTur key
W ell
F irst
Ġrecord ed
Ġdisapp oint
ĠPut in
ĠE SP
ang ed
Ġpr ime
Ġh un
ĠS ub
ob b
id el
Ġi Ph
Ġbab y
Ġret ail
Ġlead s
Ġafter noon
ĠJ es
ĠCh ief
Ġ200 3
E M
Ġpass ing
ĠW al
Ġ5 00
Ġ3 2
th at
ic an
ap ed
A b
Ġrem ove
Ġp ages
Ġh urt
erv ation
ac he
Ġs witch
Ġpurch ase
Ġfam ous
ĠWe ek
ĠO nce
u it
Ġper man
Ġhy p
ĠJ o
re ens
C an
ĠY es
ĠM L
le ts
Ġreg ime
Ġmethod s
Ġl ibrary
ĠC arl
ain e
Ġth r
Ġrem ained
Ġinf rastructure
Ġc art
ĠC ru
Ġbut ton
Ġappre ci
ĠMich igan
ĠESP N
stand ing
Ġhe av
Ġh ol
ĠT HE
ribut ed
U T
Ġveh icles
Ġstre ets
Ġsign s
Ġperspect ive
Ġf if
Ġmin ute
Ġcap able
ru it
C OM
Ġweap on
Ġchalleng es
Ġbel ong
il ty
Ġvide os
Ġpack age
Ġinst it
Ġfor get
ĠCol umb
h ab
Ġrespond ed
Ġm ent
Ġfl ight
r um
I G
Ġind ic
Ġhand le
Ġgovern or
ĠR ub
Ġm arg
Ġgreat est
Ġcont rast
ĠJ on
as ure
Ġs ac
Ġlot s
Ġcult ural
ĠCh arl
p ass
Ġem ails
Ġconsum ers
our s
in i
all as
I R
Ġyou th
Ġa st
ĠH arr
ĠF ire
on om
i ro
Ġtal ent
ĠB oth
ĠB et
ĠB BC
Ġ4 5
ion ally
coh ol
ash ion
N D
Ġwe aring
Ġvot ed
Ġmess ages
Ġg ar
Ġdis miss
ĠWilliam s
ĠWh o
S e
Ġpull ed
Ġord ered
Ġlist en
Ġer a
Ġelect ed
ust er
S pe
Ġup gr
Ġreport ing
Ġbroad cast
ur b
Ġt on
Ġs ession
Ġind eed
ĠD aily
es ters
c ol
Ġrout e
Ġopp onent
Ġcons idering
ĠMed ia
Î µ
tern al
m osp
Ġco ff
Ġbas ically
ru ption
S ince
Ġs ad
Ġfac es
Ġf aster
ĠM a
ound ed
Ġun able
Ġcal cul
ĠL at
Ġtr ig
Ġre nt
Ġident ify
Ġher self
ĠVirgin ia
ĠR oad
ĠN AS
ĠEnem ies
Ġ Ï
k ay
al ing
Ġsat isf
Ġhop es
Ġaffect ed
ĠO l
T A
Ġsupp l
ĠS aud
am in
ab ilities
Ġw ood
Ġsubst ant
ĠI P
S p
anc he
I M
, âĢĻ
Ġmot ion
Ġg ather
Ġtro ops
Ġp itch
Ġlawy er
Ġexperien ced
Ġalleg ations
ĠR iver
ĠM att
ĠK illed
ĠE gypt
u pp
ob e
Ġpos itions
Ġappro ved
ul ations
Ġse at
Ġqu iet
Ġp owers
ĠF ed
it able
Ġr ain
Ġl it
Ġent ertain
Ġadv ance
Ġadm itted
ĠP ower
ĠD uring
Ġstrugg le
Ġr andom
Ġpict ures
Ġdel ivered
Ġacc ident
un te
Ġtalk ed
Ġpriv acy
Ġinst ruct
Ġent ry
ast e
H is
Ġleg it
Ġemer gency
Ġcoll abor
ĠBit coin
u a
Ġwrit es
Ġviol ent
Ġt urning
Ġhe ll
Ġeven ing
app ing
Ġnewsp aper
Ġb oss
Ġappear ance
ad or
Ġpick ed
d ate
ar p
Ġshould n
Ġro w
Ġdri vers
Ġad vert
ĠC ur
( )
Ġv an
Ġreal ize
ĠM em
re land
Ġliber al
Ġcl ient
Ġ19 5
ens ions
LE T
F ollow
= "
Ġtechn ical
Ġdiffere nces
Ġclass es
Ġappropri ate
ĠF ree
u ations
om pl
Ġp roud
Ġopportun ities
Ġexperien ces
se ll
al ed
0 5
Ġsh ift
Ġout l
Ġmat ters
, '
Ġvis ual
Ġpublic ly
Ġpro ced
Ġag ents
ĠD ou
ill y
P er
Ġp ip
ĠWil son
ĠR od
m ates
Ġwe ar
Ġstate ments
ĠL in
ĠH aw
reg on
Ġnum erous
Ġfind ings
Ġfact s
Ġcraz y
Ġcomb ined
Ġsub scrib
4 3
Ġb urn
ol ar
Ġwide ly
Ġupd ates
Ġpolitic ians
Ġmot or
Ġf ly
Ġre new
ĠS ports
is ters
Ġfr ust
Ġcent re
ĠJose ph
ra wn
I V
Ġmod e
Ġcommit ment
i at
Ġsh ape
ri p
D S
Ġgu ilty
ĠCl ub
ĠB raz
Ġ200 1
ner gy
as tern
Ġfl at
st one
Ġdis s
Ġcl ot
ĠSoc ial
ĠL ib
ĠC NN
ĠAnd rew
am ental
Ġtarg ets
c alled
ad ow
ĠA v
ill ance
Ġrem aining
res ents
er g
Ġr ide
Ġc raft
Ġbeg ins
ĠS T
is hes
h ost
f ree
com m
Ġstand s
Ġreported ly
Ġdr am
en ger
Q u
Ġtrou ble
Ġmiss ed
Ġex cell
Ġd ynam
Ġbuild ings
Ġb ound
ĠS cience
or age
as p
Ġsuff ered
Ġsecret ary
Ġperform ed
Ġfor g
Ġcircum st
ĠJ ul
ĠJ r
ĠB ob
ic ing
od d
g ia
ani el
Ġpercent age
Ġdecl ared
ĠD an
Ġterror ist
Ġm and
Ġinit ially
du c
Ġsh op
Ġle aves
Ġconf idence
ed ia
C ont
Ġre action
x y
An other
Ġevery body
Ġair craft
ĠMed ic
Ġ3 00
ed s
c os
M any
ĠRe ad
t op
P R
Ġredu ced
z er
x ual
us iness
form ation
Ġs ale
Ġm al
Ġfac ed
Ġadv ice
l i
il it
Ġre venue
Ġf ra
Ġf illed
Ġdiscuss ed
ĠS ee
ĠDirect or
un ction
or a
Ġpr in
Ġcom ed
Ġappro x
ang ers
Ġres ident
Ġa f
ul s
E n
Ġse vere
ĠH ol
ER S
Ġwar m
Ġsqu ad
Ġour selves
Ġcomple ted
Ġb are
Ġarg ue
Ġar med
Ġaccept ed
ĠW ild
ĠAs ia
amp ion
Ġnecess arily
Ġinj uries
Ġg iant
Ġdo ctor
ĠSte ve
ĠJew s
ĠEx p
Ġaut h
ĠBl ue
ut ation
om in
m ond
Ġtyp ically
ĠiPh one
Ġfil ms
ĠW ood
ĠB ur
ĠB oy
our ney
es ome
Ġacc ompl
ã Ĥ
and al
T S
Ġref erence
Ġprom pt
Ġpat ient
Ġj oint
Ġcr ack
h t
Ġg ang
Ġconsist ent
Ġconnect ed
ĠOh io
et te
ess or
Ġmor al
Ġfav our
Ġcont ains
r id
Ġs ke
Ġobject s
Ġl augh
Ġinter pret
Ġdeb ut
D uring
7 7
ĠSw ed
ĠSh ow
Ġres olution
Ġconf ident
ĠY et
ĠD allas
ph y
ord ers
om ing
az a
T ube
Ġsu c
Ġread ers
Ġoff ense
Ġb att
Ī Ĵ
i i
Ġte ch
Ġbehav i
ĠIs land
erv es
O ther
# #
Ġp hen
Ġdog s
ĠR on
ĠP enn
ĠL ake
ĠI reland
op y
Ġz one
Ġwar ned
Ġd ial
Ġb ond
ĠG M
c are
Ġt un
Ġpro ceed
Ġmag azine
Ġattempt s
ĠPro ject
ĠKore an
m ission
Ġs ought
Ġeffect ively
ĠTe chn
ĠP ri
ĠCl ass
c ons
D am
Ġrestaur ant
ĠG en
ĠColor ado
ig er
Ġs ister
Ġgu ide
O ver
Ġpr ay
Ġmov ies
Ġedit or
Ġdel ay
Ġcr imes
Ġclass ic
ĠMuslim s
ĠH ome
ĠAm azon
Ġplan e
Ġnear by
Ġlaw suit
Ġarch itect
ĠCath olic
ĠB ook
Ġrece iving
Ġenem ies
Ġem phas
Ġcl oud
ĠR el
ĠO regon
Ġ200 2
Ġro t
Ġconf ig
ĠM ount
resp ond
ot ic
ne ll
Americ an
l ong
O RE
Ġval id
ĠF ollow
or ry
Ġst orm
Ġon going
Ġlab el
Ġch ain
Ġapp s
ĠT ra
w hel
ard en
ab b
Ġrep resents
Ġexpl ains
Ġclose ly
ĠR ad
ve y
0 6
Ġy esterday
Ġsubs id
Ġsp ons
Ġsh ots
ĠVal ley
ĠR am
st s
f ire
Ġhead s
Ġdef ault
ĠPak istan
ĠN Y
ĠK im
D e
, [
Ġtourn ament
Ġlist ed
ĠD C
z ona
Ġmult i
Ġmon it
Ġhtt ps
Ġfl o
Ġcolle agues
Ġannoun cement
ĠGu ard
Ġmy ster
Ġm ort
Ġadd s
Ġactiv ists
er ation
du le
Al though
Ġth inks
Ġquarter back
Ġfor t
Ġappl ied
ĠSy stem
ĠIm age
ĠAr ch
p ire
ell ow
Ġopt im
Ġnet works
Ġexp ansion
n s
Ġthough ts
Ġp ure
Ġconsequ ences
Ġc ook
ĠL ove
st ood
ig g
Ġdec re
Ġadv anced
iz z
A pp
Ġtr ick
Ġpro hib
Ġbr ight
ĠJack son
Ġt iny
Ġf ill
Ġev al
Ġwe ather
Ġsong s
Ġsk ill
Ġdecl ined
y th
ev in
etro it
I nd
Ġpract ices
Ġp ra
Ġen h
Ġboy s
ird s
ab in
8 8
Ġt ree
Ġco oper
it a
O C
Ġres c
Ġlink ed
Ġimpro ved
Ġexam ples
ag ers
Ġint ention
Ġc ere
end a
U L
0 9
Ġconf irm
Ġco ast
Ġab andon
ĠW ik
ĠSt an
ĠE ll
d ef
cer tain
Ġunlike ly
Ġmaterial s
Ġgun s
Ġess entially
Ġat mosp
ĠP rem
ĠG ra
ar ters
M ay
Ġrele vant
Ġr ally
Ġn ations
Ġche ap
ĠT oday
ĠB ack
Ġw ave
Ġtrans ition
Ġteacher s
Ġs ick
Ġal t
S S
Ġw ins
Ġfun ctions
Ġconsum er
Ġbl ow
ĠPh ot
ĠI N
ĠD NA
ĠBro ok
c hen
00 00
Ġvol unte
Ġmom ents
Ġmag n
Ġal cohol
ĠGr and
m es
Ġm ir
Ġinvest ors
ĠT urn
ĠE ach
Ġ id
t witter
r as
ac le
Ġr ail
at i
6 4
Ġsuc ceed
Ġn ative
Ġinj ured
Ġhold s
Ġcamp us
ĠSe attle
or se
c an
________ ________
Ġinstit utions
Ġcan n
Ġacknow led
ĠAn other
us al
htt ps
Ġsign ing
Ġre in
ut s
Ġne ither
Ġd ownt
ess ions
ans as
0 7
Ġrough ly
Ġmov es
Ġdo ctors
Ġath let
omet imes
Ġtot ally
Ġschedul ed
Ġrequire ments
ĠS ign
olly wood
9 5
ĠBraz il
Ġ198 0
p ost
ition ally
g as
em ploy
S ee
Ġl ie
ir ty
Ġsub sequ
Ġpus hed
Ġhistor ical
Ġfrequ ently
w ater
ac ter
O h
Ġsurpr ised
Ġrepl aced
Ġrem ote
iqu es
Ġalleged ly
ĠS ky
Ġ ing
red it
ok en
Ġse es
Ġr um
Ġimmedi ate
Ġess ential
ĠM s
Ġyoung er
Ġsome what
Ġimport ance
Ġexpress ion
Ġdeal ing
ĠAfghan istan
r ating
c ow
M ost
Ġr ub
Ġmay or
Ġca uses
ĠChrist mas
ic ious
ger y
ent ure
Ġwalk ing
Ġra pe
ĠH ist
ĠF ord
ĠA T
w ord
t ion
p ower
al o
Ġs and
Ġr ising
Ġpl ed
Ġv ice
Ġear ned
Ġdat ab
Ġart icles
ok ed
av ig
at o
Ġsurve illance
Ġopp osite
ĠSec ond
Ġ3 6
Ġhop ing
Ġfair ly
ĠW ork
w oman
ol s
al a
J ohn
A F
Ġstud io
Ġfund amental
Ġcont est
Ġbr ings
ĠN BA
Ġinst ru
Ġf ish
Ġb ull
Ġany where
it ar
f riend
Ġwas te
Ġdescrib e
Ġattempt ed
ĠY ear
olog ist
Ġun us
Ġsk y
Ġrem ark
Ġconf ront
Ġbatter y
u y
ok ing
ath an
Ġspl it
Ġfor med
Ġfol ks
Ġexpl o
ĠAn n
Ġ4 9
Ġopp onents
Ġem br
ocrat ic
hip s
b orn
Ġprotest s
Ġfac ility
ĠConst itution
4 1
Ġtrans p
Ġsh if
Ġselect ed
Ġis ol
ĠT al
ĠSaud i
ĠO pen
y ou
f oot
ch o
Ġw ire
Ġur ban
Ġdetail ed
Ġart ist
Ñ Į
u able
Ġtemper ature
Ġexcell ent
Ġcre ation
Ġ3 3
Ġch annel
ĠV ict
iven ess
c ur
Ġhigh light
Ġhard er
Ġfollow s
Ġexpl an
Ġexerc ise
Ġent ered
ĠDe velop
ĠAri zona
ad el
F F
Ġsurround ing
Ġpost s
ĠM ax
f ortunately
ay lor
8 5
Ġinvol ving
Ġd u
Ġcond em
ĠT O
ĠN AT
om a
Ġsuff ering
Ġheav ily
ĠS ov
ĠFor ce
Ġmechan ism
Ġcr ash
Ġcomfort able
Ġbu ying
Ġb ag
ĠSp ace
ĠM iller
ĠDis ney
Ġwith d
Ġthreat s
Ġterror ism
Ġsqu are
Ġregul ations
Ġphilos oph
Ġp arliament
Ġmarket ing
Ġfr anch
Ġauth ors
ĠIt s
ĠD un
pe x
htt p
Ġst ood
Ġrelationship s
Ġplay off
Ġmanufact ure
Ġl atter
Ġill ust
Ġfigh ters
Ġcircumst ances
ĠD etroit
ul ous
ĠH el
el lect
Pe ople
Ad d
Ġknow ing
ĠW he
3 00
al ty
al le
Ġman age
Ġkind s
Ġf ashion
Ġdeg rees
Ġch art
Ġact or
ĠE nergy
Ġt rib
Ġsche me
Ġfor th
Ġex hib
Ġemot ional
ĠScot land
Ġpus hing
Ġcreat ive
Ġwar ning
Ġl ies
Ġin put
ĠYou Tube
Ñ ĭ
Ġcommun ication
Ġca using
ĠL ife
ce ived
Ġfl ood
Ġc ert
ĠC ub
ĠC ast
âĢ¦âĢ¦ âĢ¦âĢ¦
Ġvirt ual
Ġsent ence
Ġprot esters
Ġover whel
n am
h us
Ġnar row
Ġun l
Ġsc ored
Ġem pt
Ġcoff ee
Ġbre aking
in em
Ġwat ched
Ġun known
Ġstore s
Ġm outh
Ġfeat ured
Ġadult s
ĠTe am
ĠH un
Ġliter ally
Ġinc or
Ġalong side
Ġab ortion
ĠW ars
Ġsh aring
Î ·
er ate
Ġtr uck
Ġrad ical
ĠE ric
igh ter
The n
Ġmet al
Ġindust rial
Ġcomb ination
ĠS C
Ġvers ions
Ġm ine
Ġexist ence
Ġdiv ision
ĠS ar
ĠR ights
ĠBar ack
ĠMay be
ĠB at
Ï Ĥ
if orm
Ġstre am
Ġk it
Ġhard ware
Ġcarry ing
Ġb on
6 6
Ġvol ume
Ġde ck
ĠRe v
ĠOn ly
p ool
ll er
ide o
C lick
Ġsim pl
Ġprof ile
Ġinsp ired
Ġhe ight
Ġfl u
ĠBo ard
Ġphen omen
Ġbas ket
Ġb le
ĠRom an
ĠE lect
Ġext ent
Ġact s
ĠIn f
semb ly
k er
g reg
b oy
Ġwin ner
Ġris ks
Ġprom ote
Ġb at
ĠAs ian
ĠA venue
ra id
l ines
Ġlic ense
Ġcon cent
Ġappro val
Ġ[ +
ĠD ie
Ï ģ
ou ston
oc key
ere nces
Ġrepeated ly
Ġfem in
ĠW alk
ke l
isc ons
c a
Dam age
== ==
Ġwin ter
Ġrecogn ize
Ġdeath s
ĠYou ng
ĠW omen
en a
ate ll
T wo
Ġattack ed
iscons in
in er
het ic
0 4
Ġst orage
Ġsome body
Ġmist ake
Ġcor respond
ĠCons ervative
um ber
Ġreg ional
Ġpark ing
Ġl ock
ĠK urd
ul es
Ġn orthern
ĠStep hen
P ost
Ġup coming
Ġreturn s
Ġprec ise
ĠA ff
Ġ199 9
onym ous
Ġfl ag
Ġeff icient
Ġe ast
Ġdi agn
Ġal ive
ĠT op
ĠEn ter
ef ully
b ar
al ian
M an
Ġint ent
Ġg rown
Ġfe e
ĠL ight
ver ty
ut ch
p ie
or ation
Ġtyp ical
Ġj ourney
Ġexper im
Ġdef ence
Ġde leg
Ĥ ¬
ars h
a un
Ġsy n
Ġg od
Ġfra ud
Ġan cient
Des pite
Ġse lection
Ġdep th
Ġcur rency
M ar
Ġpo verty
Ġmat ches
Ġhouse hold
Ġdeep ly
Ġany way
ĠSt and
ĠM ot
ĠG all
ĠC amer
s m
ren ce
ici ency
Ġst im
Ġsa v
Ġrep orter
Ġprotect ed
Ġincre ases
Ġimp ressive
ĠW in
ol ve
og an
Ġad apt
os is
Ġprom ise
Ġhar ass
Ġded icated
Ġcustom er
ĠR ight
ĠPalestin ian
he m
az e
T e
P ol
Ġw ake
Ġman ner
Ġexp osed
Ġloc ations
Ġch ampion
ĠIr ish
ĠI D
r ors
r ich
o oth
m itted
ing u
ang es
Ġz ero
Ġt ort
Ġproper ties
Ġdef ined
Ġdec line
Ġs now
Ġrefer red
Ġh at
Ġassist ant
ĠSte ven
pect ed
ĠC IA
pr int
Ġupd ated
Ġserv ing
Ġprov ed
Ġm ob
Ġha bit
Ġform al
Ġexc iting
Ġev olution
Ġcy cle
Ġcompet itive
Ġall ies
ĠMos cow
ĠH ollywood
ĠAd am
r ong
int end
C E
Ġvar i
Ġunder stood
Ġtop ic
Ġbu g
ĠN S
arr ing
Ġphot ograph
Ġmil k
Ġhe l
Ġfind s
Ġelectric ity
Ġcon ver
Ġbl ame
Ġb id
se a
n ic
m pt
P r
ĠÐ ¿
Ġstrong er
Ġstr ange
Ġout put
Ġfe es
Ġexpl ore
ild ren
an ish
Ġtest ed
Ġman ip
Ġimmig rants
Ġe ating
lud ing
ind ing
g ent
Ġus ual
Ġter rible
Ġlik es
Ġide al
Ġdo zen
Ġchair man
Ġas ide
ĠI d
ĠD own
ĠD ark
w est
ord an
Don ald
Ġrefuge es
Ġpre gn
Ġmain stream
Ġjournal ists
Ġf asc
Ġaggress ive
ĠChar les
am ily
Ġsu icide
Ġobtain ed
Ġbe ar
ĠK h
ast s
I nt
Ġp ounds
Ġp ic
Ġoffic ially
Ġde als
Ġcomp ens
ĠPol it
ĠG ames
on na
am m
ack ing
Ġproper ly
Ġph ase
Ġpass ion
Ġl inks
z y
ult ure
Ġs ending
Ġencour age
Ġelse where
Ġdisc over
Ġapprox imately
ĠO ld
ĠDav is
ĠC ard
r ations
6 8
Ġown ed
Ġm urd
Ġdist ribution
Ġdem ocracy
Ġcon gress
ĠJes us
ĠAut hor
Ñ ı
ch ain
c ia
Ġterrit ory
Ġsche dule
Ġpro of
Ġob lig
Ġdefin ition
Ġconclud ed
Ġansw ers
ĠL ong
ĠH uman
ann y
E d
0 8
Ġdes per
ĠTh ank
ĠHen ry
{ "
g ame
Ġter min
Ġtarget ed
Ġstr ing
Ġcrit ics
Ġass ets
ĠT H
ĠF ar
ĠAg ain
Ġout come
Ġag enda
ĠDes pite
ĠD iv
Ðµ Ð
iam i
et ts
es c
An y
Ġsur gery
Ġput s
Ġnews let
Ġcontro lled
ĠS um
Ġ4 8
Ġ icon
." [
Ġsit uations
Ġfac ilities
Ġaud io
ĠJud ge
se x
b urg
Ġto w
Ġesc ape
Ġcl ar
ĠT it
P U
Ġthreat ened
Ġr iver
Ġhon or
Ġemploy ee
ĠK n
aw a
Ġreason able
Ġprom ised
Ġis land
Ġhot el
Ġh all
Ġev il
Ġcon ven
ĠW isconsin
ĠSov iet
ĠP R
u ine
Ġext ended
Ġch ose
Ġb unch
Ġact ing
p an
Ġfound er
Ġfix ed
g or
ax y
ad s
7 8
ĠSer ies
ot al
op her
ir a
au g
Ġw est
Ġpur s
Ġperfect ly
Ġcontrovers ial
Ġatt ended
ĠP en
ĠL ord
Ġs ight
Ġprom inent
Ġem issions
Ġcompar ison
ĠU t
ĠNAS A
ot es
0 3
Ġsu gar
Ġstru ck
Ġpay ments
Ġoper ate
Ġcapt ured
ĠMay or
ĠIS IS
Ġ197 0
w an
o pping
ival ent
Ġwalk ed
Ġreal ized
Ġdestroy ed
Ġart ists
ĠE duc
Ġthem e
Ġt ies
Ġslow ly
Ġregul arly
ĠTh ough
Ġre tain
Ġlawy ers
Ġh its
ĠComp any
et her
L ike
Ġperman ent
Ġp ed
Ġlim its
Ġgener ate
Ġf lex
Ġend ing
Ġdrink ing
Ġconst antly
ĠSoc iety
ĠC ross
ĠB uff
ig en
Ġs outhern
Ġk il
ĠBr ad
le te
er a
Ġwrit ers
Ġsp in
Ġsome where
Ġr ival
Ġprop ag
Ġf lying
ĠP ay
ĠDef ense
t le
man n
m l
c ers
az i
Ġsh ield
Ġr u
Ġn arr
Ġhous es
Ġ3 4
oc ation
Ġswe et
Ġl iqu
Ġk ing
Ġfun ny
Ġargu ments
Ġaim ed
Ġaccur ate
ĠTur k
b el
Ġtrad ing
Ġpoll s
Ġcol on
ĠGeor gia
Ġstret ch
Ġsome how
ĠW ay
ĠH ouston
nes ota
k o
it arian
Ġu pper
Ġsan ctions
Ġs oul
Ġreject ed
Ġpay ment
Ġparticip ants
ĠSe a
ĠNet work
ĠL u
ĠK elly
ĠA C
u ated
st ers
5 8
Ġshe l
Ġresult ing
Ġcomp rom
ĠAd minist
u an
M P
I I
Ġre ward
Ġprim arily
Ġfield s
ĠC le
ĠAtt orney
as hes
Ġconclus ion
ĠP an
ĠL ew
re p
E A
Ġwor ried
Ġtre es
Ġsupport s
Ġmere ly
Ġdis ag
ĠM S
un es
Ġs in
Ġest ate
Ġd ress
Ġan x
ĠO s
Ġ3 8
Ġwhe el
Ġdefe at
Ġaw esome
ĠM ic
av or
Ġwel come
Ġf uck
Ġcontribut ed
Ġcontinu ing
Ġbrow ser
ĠM en
us hed
ens us
P LET
Ġsudden ly
Ġstrong ly
Ġp od
Ġcho ices
Ġc able
ir ms
A LE
9 8
Ġtest im
Ġs ample
Ġra ising
Ġord ers
Ġj ury
Ġgen uine
d ro
Ġpun ish
Ġmax imum
Ġint ellect
Ġincred ibly
Ġh ur
Ġben ch
ĠK evin
we ight
ific ations
Ġw estern
Ġmix ed
Ġinf ect
Ġim per
Ġfew er
Ġd rawn
Ġcons cious
ĠSp ain
w orld
t es
l an
erv atives
Ġshe ll
Ġregist ered
Ġpurp oses
Ġhead ed
Ġdec ent
Ġclaim ing
Ġaspect s
ĠPort land
ow ered
O r
N C
Get ty
Ġvill age
Ġun w
Ġconst it
5 7
Ġt ied
Ġpl astic
Ġdatab ase
Ġbus y
ĠT aylor
the w
Ġp al
Ġincred ible
Ġbase ball
Ġb ath
um s
ih ad
Ġrul ed
Ġcomp onent
ĠW ater
ĠM iami
ĠCont in
ow ed
Ġun iverse
Ġr ig
Ġcompl aint
l ights
ick en
ens ity
Ġsol utions
Ġch osen
ĠC all
uild ing
ol en
im a
as er
Ġrequest s
Ġperson ally
Ġg ap
Ġc up
Ġamount s
ĠF re
ĠF ield
ĠAm endment
Ġval uable
Ġsust ain
Ġit em
Ġinform ed
Ġdri ven
ĠSu pp
ĠH om
u ce
re te
O D
Ġfoot age
Ġf ake
Ġenc oun
ĠR ay
ĠL and
ĠD aniel
z ens
it ors
g ender
0 2
Ġprof it
Ġposs ession
c ript
Ġmag ic
Ġfall ing
Ġcompl icated
rim ination
COM PLET
ĠN ote
ĠDe ad
ĠB ell
ĠAg ency
l og
Ġteach ing
Ġrout ine
Ġnot iced
Ġh idden
ĠNAT O
l ist
id ency
Ġw al
Ġinn oc
Ġfeat uring
Ġempt y
Ġdirect ed
ĠP S
ĠMin nesota
ĠH y
Ġ4 00
P C
COMPLET ED
Ġsign al
Ġr ing
Ġpil ot
Ġf inger
Ġe gg
Ġdownt own
Ġassist ance
Ġass ume
ĠO per
ĠJer sey
Ġ1 50
Ġret ire
Ġprocess es
Ġbl ocks
Ġatmosp here
ĠV an
ĠDe v
ĠAc adem
ar ry
adel ph
U R
In st
F r
E W
Ġrep utation
Ġgrant ed
Ġfeel ings
Ġext ensive
Ġd uty
Ġd ry
Ġad s
ĠD i
âĢĻ .
k l
ino is
im m
' ,
Ġvulner able
Ġnew ly
Ġgot ten
Ġex cess
Ġent hus
ĠN SA
ĠL abor
6 7
Ġve get
Ġunus ual
Ġun p
Ġst uck
Ġfif th
Ġcut ting
ĠW at
ci ples
Ġt aught
Ġph r
Ġover se
Ġorgan ized
Ġlet ters
Ġjournal ist
ĠSp anish
ĠF ort
ĠC am
ab is
Ġstrugg ling
Ġstr ict
Ġover l
Ġind ex
Ġcour ts
Ġbr idge
level and
Ġw id
Ġport ion
ĠNH L
rat or
os pex
b a
C ol
Ġth read
Ġs atell
Ġrel ief
Ġplot ospex
Ġn obody
Ġarm or
ĠJ ac
ĠCru z
ur a
r ates
or ic
ian a
d is
Y es
Ġreg ions
Ġne uro
Ġme at
Ġbre w
ĠT y
ĠT est
ĠC oll
l ad
il arly
T oday
Ġrec overy
ĠServ ices
ĠR us
r ary
Ġsy mpt
Ġpar am
Ġang ry
ĠF il
c r
adelph ia
Ġscen es
Ġform at
Ġeng age
Ġcomp re
ĠM oh
ĠC ivil
O nce
Ġrepresent ed
Ġfranch ise
Ġdr ag
Ġany more
ĠB ull
part y
ess ed
R el
B ecause
Ġob st
ĠTh anks
ĠSt ill
ĠS ol
ot ten
ins on
h o
R ec
M ean
ĠÐ ½
Ġco ordin
ĠB ru
ams ung
am i
Ġnegoti ations
Ġcontrol s
Ġcompet e
ĠV ol
ĠG reg
f ast
**** ****
Ġsh ares
Ġsa ved
Ġret urning
Ġresist ance
Ġkeep s
Ġinf l
ĠZ eal
ĠW atch
ob s
mon th
Al so
Ġst ations
Ġent ity
Ġcomp onents
Ġcapt ure
ĠSpe cial
ĠIt aly
Ġ7 5
ort ed
Ġwonder ful
Ġso le
Ġacc omp
ĠW here
Ġ3 9
st yle
ost er
ose xual
m ont
m ate
ach us
O ff
Ġworld wide
Ġmed ic
Ġaf raid
ĠB rian
v y
ion e
av al
Ġstruct ures
Ġap artment
ĠT ake
ĠRe al
is an
Ġpain t
Ġnarr ative
Ġin qu
Ġdist inct
Ġdem ands
Ġconst ant
Ġc rop
Ġar range
ĠColumb ia
Ð º
ut ral
Ġvis ited
Ġtrou b
Ġstat istics
Ġcru cial
Ġcateg ory
Ġadv is
ll a
atur ally
O b
Ġt ank
Ġse ats
Ġsc andal
Ġhad n
Ġgood s
Ġcompl aints
ĠR un
ĠEduc ation
y ard
idel ines
e z
as ks
Pol ice
Ġveter an
Ġt or
Ġestim ates
Ġel ite
Ġcont ained
ĠK ent
Ï ĥ
m od
iz on
ag a
ab il
B O
Ġto ler
Ġtick et
Ġsuccess fully
Ġdis aster
ĠR ick
ĠH it
ou ver
el and
ce ler
at hered
V ER
Ġmain ly
Ġent it
Ġdin ner
Ġcommun ications
Ġb ail
ĠS outhern
ĠIt alian
ul ating
ograp her
ack ed
Ġwe ird
Ġl oyal
Ġinst alled
Ġestablish ment
ĠPac ific
ĠD id
achus etts
Ġwar ming
Ġun employ
Ġr ural
Ġback ed
ĠRe agan
ĠN ations
ĠE r
ĠB est
r ific
as ters
S ec
Ġshort ly
Ġro ster
Ġp ump
Ġin ev
Ġexpl icit
Ġexcept ion
Ġequ ivalent
ĠJ ordan
ĠF air
Ñ ĩ
ear ing
Ġprov ince
Ġnom ine
Ġf est
Ġcor ruption
ĠV R
ĠE conom
ĠA D
Ã ¼
p o
or ia
it i
em en
Ġobs erv
Ġfore ver
Ġautom atically
ĠF our
n i
ep ing
eng ers
c ription
M S
Ġpo ol
Ġp in
Ġmark ed
Ġcont em
ĠZeal and
ĠFore ign
ĠE astern
Ġlangu ages
ĠF oot
u gh
l ers
Ġst adium
Ġf irms
Ġch ances
ĠG i
ĠAust in
el a
anc ouver
Ġtrack s
Ġprep are
Ġepis odes
Ġ( $
v a
ever al
b ro
ab s
Ġun iform
ĠO ak
Mean while
Ġtechn ologies
Ġrare ly
Ġperson nel
Ġobs erved
Ġminor ity
Ġcorpor ations
st ar
spe c
qu arters
ou red
5 9
Ġen able
Ġdevelop er
Ġdescrib es
ĠPhil adelphia
ar on
Ġt ie
Ġloss es
Ġg ift
Ġengine ering
Ġcollect ed
ĠN ight
ĠIn vest
g un
Ġjud ges
ĠPrem ier
ĠCo ast
ĠB owl
rent ly
ap es
al i
Ġun certain
Ġtestim ony
Ġla id
Ġd im
Ġcomput ers
ĠC leveland
og ether
he nt
gor ith
Ġinc l
Ġdep ression
Ġc ited
Ġacadem ic
ĠT w
Ġ4 2
m aking
-------- --------
Ġup set
Ġt ag
Ġprior ity
Ġg ro
Ġfound ed
Ġdep ending
Ġcry pt
ĠH ot
ow a
ld er
Ġt ur
Ġst able
Ġoffic es
Ġcount y
Ġant icip
ĠSt one
ĠJ osh
ĠD am
ĠBe fore
ĠB usiness
if ies
Ġscen ario
Ġmy th
Ġlaw makers
Ġd iet
Ġcy ber
ĠPro gram
ĠL y
Ġ3 7
Ġr ating
Ġfin ance
Ġext ension
Ġclub s
ĠIll inois
GB T
A A
Ġinterview s
Ġg all
Ġfant asy
Ġcreat es
ĠT ony
ib ilities
ap se
Ġw age
Ġt ail
Ġint ense
Ġevery where
Ġeng aged
ĠTe le
ĠJ ava
ĠGet ty
ï ¼
sc ape
ot ype
on ance
j a
C om
Ġwall s
Ġpen alty
ĠR en
a ire
N e
Ġwar rant
Ġsuff icient
Ġrob ot
Ġprogram ming
Ġlo an
Ġl oud
Ġdel iber
ĠMex ican
ĠC ro
r imin
iver pool
i very
ĠG un
it als
in ity
for ce
Ġregard less
Ġrec ording
Ġpass es
Ġfl aw
Ġcoun sel
ĠBe ach
um er
rom e
on ic
Ġtechn iques
Ġsurv ive
Ġmeet ings
Ġfound ation
Ġf old
ĠC D
in ations
S E
M L
Ġprodu cer
Ġp ace
Ġexpect ations
Ġe lev
ĠA L
Ġper pet
Ġmar ks
Ġdoll ar
Ġ199 4
i el
Ġstrik es
Ġl es
pr ise
or ough
ist ent
ab ama
Ġvis ible
Ġiniti ative
Ġh ole
Ġbelief s
ĠLin ux
Ġ Ñģ
ix ed
con f
Ġn ut
Ġg aming
Ġcivil ians
ĠMo ore
ĠC y
wh o
th ony
rou s
rat ors
epend ent
af e
ALE X
5 6
Ġst ake
Ġpip eline
Ġgener ated
Ġdiscuss ions
Ġcoal ition
Ġbr ut
ĠC ome
d a
Ġsol ve
Ġfeed back
Ġc ro
Ġadop ted
ĠV iew
ĠOr gan
w rit
Ġpro te
Ġf ought
ĠT em
ĠF C
v iously
u ous
rap h
ent h
Ġtit les
Ġj e
Ġex ists
Ġannoun ce
ĠAl i
ig ure
a is
Ġch apter
Ġaff ili
ĠL uc
ĠG er
7 6
Ġspe ll
Ġrid ic
Ġprinc iple
Ġprin ciples
Ġcont aining
Ġbill s
Ã ¨
u ing
s hip
ri a
ret t
int erest
f rom
Ġbl ind
ĠPol icy
ĠN ation
i xt
Ġserv es
Ġph ones
Ġexplan ation
Ġexp osure
Ġequ ally
Ġb es
Ġal gorith
ĠCent re
um in
ik es
el f
ag ram
< /
Ġpl ate
Ġn avig
Ġlight s
Ġch a
ĠMin istry
ĠL ine
Ġ5 5
Ġ iron
the re
ip al
he mat
Ġro les
Ġre ar
Ġinvolve ment
Ġenjoy ed
Ġadvert ising
o pp
Ġv en
Ġth in
Ġth ick
Ġrestrict ions
Ġgu itar
Ġcamer as
Ġabs ence
ĠE nd
r ative
ict ions
e lect
Ġrank ed
ĠMass achusetts
ĠH T
Ġret ired
Ġrem em
Ġpublic ation
Ġinv ited
Ġemer ged
Ġdes k
Ġcontrovers y
Ġb om
Ġap olog
enn y
an es
Ġpriv ile
Ġcare fully
Ġbo at
Ġb urd
ĠP arliament
ĠN ever
ĠN BC
ĠF ull
ĠC are
ĠB all
p at
Ġun ex
Ġun com
Ġprov iders
Ġen orm
Ġ[+ ]
ĠS amsung
ĠR og
ĠD ig
th is
pir acy
ile y
ater n
Ġt all
Ġrec ru
Ġg athered
Ġch ampionship
ĠTh ree
ĠSt adium
ĠChrist ians
ĠCamer on
s es
ned y
Ġthous and
Ġsymb ol
Ġst ead
Ġinvol ves
Ġext ract
Ġcampaign s
ĠV ancouver
ĠSant a
Ġtouch down
Ġto x
Ġtack le
Ġsusp ended
Ġpro ven
Ġdo ors
Ġdisc ipl
Ġcom ic
Ġany body
ĠAr m
ri ers
ol ars
P resident
8 6
Ġconv in
un icip
arr ass
Ġprocess ing
Ġmove ments
Ġh ang
ĠTurk ish
ĠJ ason
ĠB alt
or ne
ink ing
anche ster
F acebook
Ġspect rum
Ġrac ial
Ġh ired
Ġdep uty
ĠU ber
ĠGl obal
ĠCh ampionship
ub ble
f all
c ore
Wh o
C o
Ġunc lear
Ġsc ope
Ġas ks
ĠV iet
ĠC at
port ion
E l
Ġw ides
Ġsh arp
Ġh itting
Ġdo zens
ĠS now
ĠM ah
ath y
Ġresult ed
Ġg ear
Ġent ering
Ġconsist ently
Ġbare ly
ĠS k
ĠH on
ĠH ard
ĠCon f
p read
intend o
I F
Ġvisit ors
Ġsu p
Ġsign ature
Ġrec all
Ġext rem
ĠSe ason
ĠR oss
ĠPr ice
ĠDevelop ment
ĠB an
us hing
ro lled
D r
Be fore
A G
5 1
Ġth rown
Ġtax pay
Ġsp r
Ġrespect ively
Ġrepresent ative
Ġparticip ate
Ġm el
Ġfriend ly
un ior
k ed
5 4
Ġw ages
Ġr aw
ĠAtlant a
il ton
S U
L C
Ġsh ock
Ġprofess ion
Ġper mit
Ġimplement ation
ĠO F
ĠAll en
Î º
s erv
ow ing
im p
ann a
W ill
Ġv ital
ĠT ri
ĠSen ator
ĠS P
il a
alle l
M AN
5 2
Ġrecogn ized
Ġhistor ic
Ġconst itutional
Ġbeg un
Ġb oot
ĠI owa
v ard
ment ed
au c
Th ose
St ar
Ġemploy ment
Ġchalleng ing
Ġag ric
ĠPer haps
ĠN orthern
ĠMe an
ĠAdminist ration
B ack
Ġsw ing
Ġro ot
Ġre ly
Ġpartners hip
Ġover t
Ġeas tern
Ġbr ill
Ġban ned
ĠAs h
te xt
sel s
ott ed
9 6
Ġintellect ual
Ġcl ients
ĠF red
in f
D av
ĠHe ll
Ġut il
Ġto m
Ġsc ream
Ġperm ission
Ġo cean
Ġhol iday
Ġfarm ers
ĠV is
ĠM aster
ĠDie go
Ï ħ
we et
less ly
R ef
Ġsubject s
Ġsmart phone
Ġseem ingly
Ġread s
Ġconv icted
Ġ6 4
up id
s ing
ograph ic
aw ay
Ġmach ines
ĠB as
ĠAcadem y
act ive
Ġin ject
Ġcontract s
ĠN ick
ĠN ev
ĠL ink
ĠL ind
ĠAb out
ov al
j o
ge on
Ġsw im
Ġreach ing
Ġnot ion
Ġf iction
ĠMed ical
ĠF und
us ive
end ers
R uss
% .
Ġwithd raw
Ġsuggest ing
Ġpet ition
Ġlog ic
Ġconvin ced
Ġcann abis
ĠF ood
hel sea
Ġopin ions
Ġjo ining
Ġest imate
Ġachie ved
ĠAl abama
ic er
h ar
a us
S te
Ġtrad ition
Ġhard ly
Ġg ained
Ġdist ributed
Ġbasket ball
Ġatt ached
ĠR et
ĠM ajor
ĠL GBT
Ġ( âĢľ
Ġ ~
ph ones
h all
bur gh
ĠÐ ²
Ġst olen
Ġsam ples
Ġprodu cing
Ġinvestig ate
Ġcompre hens
ĠLe vel
ut ies
sen al
act ions
+ +
Ġy ield
Ġres ource
Ġnorm ally
Ġlic ens
Ġfall en
Ġdeep er
Ġaut o
ĠMat thew
ĠA BC
ry pt
b ec
b al
Ġphys ic
Ġp atch
Ġinvestig ating
Ġill ness
Ġh ook
Ġground s
ĠAnt on
re ts
ol ves
ol t
Ab out
Ġtweet ed
Ġs oph
Ġexclus ive
Ġass ass
ĠVe gas
ĠS cient
ĠR oyal
ĠN ext
ĠN avy
ter ing
be at
ach ing
abin et
Y our
T E
H A
Ġsuspect ed
Ġro ok
Ġoverwhel ming
Ġmount ain
Ġmanufact uring
Ġl ands
Ġh ide
Ġexpand ed
Ġemb arrass
c ut
Ġsubstant ial
Ġre nder
Ġinter face
Ġdesc ription
Ġaware ness
ĠRus sell
ĠP ack
ri ent
ant ic
M e
Ġwides pread
Ġfail ing
Ġdisc overy
ĠH or
c les
20 14
Ġsp aces
Ġrecomm ended
Ġread er
Ġl os
Ġg ra
Ġfact ory
Ġbeh alf
ĠH as
ĠG aza
ĠF er
Ð ´
w orth
u er
sec ution
ann els
Ġm ail
Ġind icate
Ġdest ruction
Ġair port
ĠMc G
ĠH art
ec ut
c ase
b ell
Ġst un
Ġrecogn ition
Ġpop ulations
Ġphilosoph y
Ġm os
Ġm o
Ġg onna
Ġconc rete
ĠWh ich
p age
os it
il er
as ion
Ġâ ĪĴ
Ġrapid ly
Ġlist ening
Ġg am
Ġex ceed
Ġelect ronic
Ġb ars
Ġaff airs
ĠH ospital
y er
f ront
es y
Ġw ing
Ġthe rap
Ġsympt oms
Ġrec over
Ġout r
Ġmon itor
Ġmind s
Ġhor ror
Ġfollow ers
Ġconvers ations
Ġbehavi our
omm od
Ġpres um
Ġpract ical
Ġpattern s
Ġjo ke
Ġh o
Ġcomed y
Ġcas ual
ĠP res
ĠI ce
ĠCo oper
Ġ199 5
ing ton
c ling
P M
4 00
Ġconsum ption
Ġbr anch
ĠK ir
Ġ âĢĻ
ï ¿
Ã³ n
Ġt ip
Ġext end
Ġent re
Ġdisc rimination
ĠMcC ain
Ġ199 8
r ical
h ot
enn es
Ġsal t
Ġre vel
Ġleg s
Ġl uck
Ġal ien
Ġ6 5
x it
omet hing
ier ce
ar re
S ub
Ġw aves
Ġview ers
Ġsett lement
Ġmen u
Ġlegit imate
Ġl ists
Ġd rew
Ġco vers
Ġc ogn
Ġb orrow
ĠL iverpool
Ġ19 60
i y
Ġvir us
Ġsp ark
Ġm oon
Ġf ault
ĠIn formation
ĠH ay
ĠCont rol
ĠC arter
Ð ¼
y stem
oun ced
ol is
he ast
S en
Ġtr ained
Ġtick ets
Ġsh r
Ġle ts
Ġl ying
Ġinnov ation
Ġclass ified
ĠK at
ï¿ ½
im ore
h igh
cl aim
Ġst eal
Ġowners hip
Ġind icated
Ġfant astic
Ġed ition
Ġcont ribute
ĠS n
co ver
aint iff
AR T
Ġspokes woman
Ġre ven
Ġpropag anda
Ġlik ed
Ġfl ash
Ġfall s
Ġball ot
ĠU se
ĠMark et
ĠL yn
ĠCon nect
ĠA z
prof it
ic ity
he ld
c ar
Ġv ary
Ġt aste
Ġso il
Ġrefer ring
Ġprot ocol
Ġm arch
Ġgr ass
Ġfear s
Ġcol ors
ĠKen nedy
in ction
h our
ĠâĢ Ŀ
Ġsc reens
Ġconnect ions
ĠPro v
ĠO tt
ĠHarr is
ot yp
P P
Ġrespons es
Ġredu cing
Ġre n
Ġmed ium
Ġleg end
ĠK ick
isc al
C ross
Ġtrack ing
Ġstrateg ic
Ġpubl isher
Ġphys ics
Ġm aps
Ġl in
Ġimplement ed
Ġdis pl
Ġdev ast
Ġd ict
ĠM anchester
ĠG T
ĠF urther
ed a
e en
5 3
Ġst ages
Ġobject ive
Ġhead ing
Ġhand ed
Ġac celer
ĠRep ort
ĠP oint
ĠM u
âĢĻ ,
m ary
Ġvers us
Ġtri es
Ġmonit oring
Ġcom pe
ĠGovern or
Ġ199 6
pre ne
f ound
ect ive
ab eth
Ġredu ction
Ġentertain ment
Ġass ert
Ġacc us
ĠU C
ĠTh us
ĠRe uters
ĠML S
z ed
m ony
et ary
Ġtri als
ĠR oy
al ia
ak h
C ons
Ġwork er
Ġinter vention
Ġdynam ic
Ġdraw ing
Ã ¥
ud es
ty pe
U nder
M c
Ġst ere
Ġro se
Ġel ig
Ġcare ful
Ġbrother s
ĠI T
O s
Ġreg ulation
Ġout s
Ġno ise
Ġl obby
Ġc ust
Ġad mit
ĠO S
ĠMus ic
ĠA h
ĠA I
olog ists
nd um
et ime
B oth
? ?
Ġsens itive
Ġroad s
Ġc os
Ġbeaut y
Ġast ron
ĠWalk er
pl us
d es
6 1
Ġrequest ed
Ġl i
Ġdes erve
Ġassess ment
Ġact ors
ĠKing dom
ĠHist ory
ĠHar ry
ĠDiv ision
ĠAn thony
ust ed
ind er
are t
10 1
Ġtw enty
Ġo kay
Ġgr id
Ġdel ivery
ĠT ro
ĠNor way
ĠIndian a
ĠB ow
ĠB art
um a
te en
ick et
AN D
Ġrem arks
Ġrac ist
Ġprogress ive
Ġne utral
Ġinstru ment
Ġg ent
Ġd ance
Ġam id
ĠU lt
ĠT en
ĠM ORE
ĠLew is
ĠE p
ri k
ir ts
inc luding
C he
Ġpass engers
Ġorig in
Ġacknowled ged
ĠR ose
ĠC O
Ð° Ð»
ou ch
an ing
9 7
Ġthe ore
Ġinvestig ators
Ġdis rupt
ĠSpr ing
ĠH a
ĠC ore
ĠA F
Ġ4 4
Res onance
9 4
Ġprof its
Ġneigh bour
Ġch at
Ġacc ommod
ĠEm pire
ĠCh air
Ã ±
o is
ir y
em in
az z
Damage Resonance
Ġte a
Ġsm ooth
Ġsil ver
Ġquestion ed
Ġnot ing
Ġnomine e
Ġne ck
Ġdismiss ed
Ġattempt ing
ĠGree k
we red
t hen
se ct
ord on
M s
Ġreg ister
Ġrec ip
Ġhand ful
Ġa ver
ĠGal axy
pl oad
ist ing
if er
ed ing
Ġsc oring
Ġhand ling
Ġencour aged
Ġbreak s
ĠM id
ĠL as
ĠAr men
yl um
o en
d y
Ġupgr ade
Ġsuff er
Ġacqu ired
ĠM useum
âĢĶ âĢĶ
re c
ask a
Ġtrans gender
Ġterror ists
Ġsc an
Ġmiss ile
Ġcover ing
ĠT our
ĠQue en
ĠGra ham
ĠG ov
ĠD ata
ĠC redit
og s
P art
Ġâ Ĥ¬
Ġwhen ever
Ġwebs ites
Ġvot er
Ġvac c
Ġult imate
Ġtechn ique
Ġpre par
Ġguarant ee
Ġent r
Ġe uro
Ġass ign
ĠN intendo
ĠL ive
ĠJust in
ĠC irc
Ġ4 3
y o
w r
og en
nt il
ivers ary
am ber
P lease
Ġtemper atures
Ġtem porary
Ġresc ue
Ġr het
Ġjud gment
Ġimprove ments
Ġex ternal
ĠSh are
ĠF reedom
ple te
h r
d it
ag g
N BC
A ss
ĠÃ ł
Ġw edd
Ġsm oke
Ġres ign
Ġrep rodu
Ġperson ality
Ġenorm ous
um es
U N
Ġtre m
Ġindepend ence
Ġfor cing
Ġcollect ive
ĠEd ward
ĠBro ad
ili pp
ick ing
H er
H S
Ġsuppl ies
Ġsh opping
Ġleg acy
Ġintrodu ction
Ġattack ing
Ġar rive
ĠUt ah
ĠProf essor
ĠIn s
ĠB ang
ut ed
sc ale
in ch
ian o
g ian
Ġw ww
Ġvirt ually
Ġs orry
Ġpl ug
Ġinc ent
Ġcontribut ions
Ġcons piracy
Ġarg ues
Ġa x
ĠS om
ĠN ic
ĠE s
ĠC S
room s
Sc ript
" )
Ġst one
Ġpurch ased
Ġp apers
Ġmist akes
Ġdisag ree
Ġatt itude
ĠLe ader
ĠDel hi
ĠCl ark
Î ¼
rib utes
ik h
AT E
Ġstay ed
Ġsecond ary
Ġlow est
Ġl ucky
Ġimprove ment
Ġbro wn
Ġb orders
Ġaddress ed
ĠSqu are
ĠJ am
ĠHar vard
ĠE van
ĠB a
ã Ģ
Ġt iss
Ġm ice
Ġfigh ter
Ġbe ll
ĠN iger
ĠBro ther
ĠArab ia
it age
E P
Ġview ed
Ġthe at
Ġt one
Ġreform s
Ġpar allel
Ġmeas ured
Ġmat hemat
Ġgener ations
Ġan ger
Ġabs or
ĠWith out
ĠInt elligence
ĠE qu
ĠA cc
y e
or gan
Ġw ine
Ġsur f
Ġste el
Ġshould er
Ġfund ed
Ġd ying
Ġcirc le
Ġcere mony
ĠS ir
ĠC helsea
ĠB ad
ĠAl ber
R L
Ġwe lf
Ġun ions
Ġsh it
Ġj ur
Ġing red
Ġh ockey
Ġcele b
ĠSher iff
ĠC re
ĠAss ad
ĠAP I
Ġ199 7
app y
G l
Ġwelf are
Ġste pped
Ġso vere
Ġske pt
Ġpack ages
Ġm ole
Ġinc idents
Ġh int
Ġc ats
ĠUS B
ĠSt r
ĠRe view
ĠKe y
ĠF amily
ult y
or ge
ij ing
ere my
New s
A re
> >
Ġth rew
Ġp orn
Ġeff iciency
Ġcelebr ate
Ġaut hent
ĠO nt
ĠCon ference
ĠAssoci ated
ult ane
ol n
ber ry
ack et
O ut
. -
Ġur ged
Ġcount s
Ġb ureau
ĠFr ont
Ġ4 1
Ġ ÏĦ
l van
d em
b ors
X X
20 10
Ġw ars
Ġthrow ing
Ġspeak s
Ġsh out
Ġpurs ue
Ġj oy
Ġg ir
Ġf ur
Ġdem ocratic
Ġche cks
Ġbrill iant
Ġadvoc ates
ĠO K
ĠCommun ity
ĠB ry
Ġ4 7
z ing
w as
8 7
6 00
Ġprosecut ors
Ġn aturally
Ġfr ag
Ġexecut ives
Ġentit led
Ġdr one
ĠS uch
ĠR a
ĠII I
ĠA ND
tr ans
so le
em an
Ġst upid
Ġlet ting
Ġhuman ity
Ġframe work
Ġcop ies
Ġcl ip
Ġappreci ate
ĠK ansas
ĠH u
ĠA p
Ã ¾
w atch
ant ed
W here
D ef
Ġliqu id
Ġharass ment
Ġfore st
Ġch annels
ĠL ist
ĠH ind
ĠC ook
ish op
arch y
Ġspokes person
Ġinnoc ent
Ġhyp ot
Ġhom eless
Ġhead quarters
Ġclin ical
ĠRober ts
ĠO N
ĠMag ic
ĠLat in
ĠL ittle
Î »
yth on
s l
or ious
od ed
lf riend
it o
Th ough
C omp
Ġtom orrow
Ġregul atory
Ġprison ers
Ġp a
Ġign ore
Ġhop ed
ĠPro p
ĠH D
ĠAtlant ic
ound ing
g ener
Ġy ellow
Ġt asks
Ġland scape
Ġdr ama
Ġcon ce
Ġcap tain
ĠPat rick
ĠBr idge
um ble
scrib e
er ted
d oor
d on
ct r
and y
Ġsm ell
Ġsal ary
Ġrat ings
Ġland ing
Ġg rav
Ġd iversity
Ġassoci ation
ĠU r
ĠRub y
ĠGold en
ĠBern ie
rop ri
orm al
d ney
c est
Ġrook ie
Ġphenomen on
Ġbreat h
Ġblock chain
ĠScott ish
ĠS ab
ĠB i
8 00
Ġstud ied
Ġpres idency
Ġphr ase
Ġequ ality
Ġd ust
ĠEn vironment
ĠB ureau
h op
ag h
C T
Ġtransport ation
Ġrefere ndum
Ġimpro ving
Ġdep ends
Ġdemonst rated
ĠP ict
ĠH o
ie v
br idge
S ource
Ġwind ows
Ġstud ying
Ġperform ing
Ġpe ak
Ġmid field
Ġl ocked
Ġeth nic
Ġdriv es
Ġdon ations
Ġcounter part
Ġcl osing
ĠCr ime
l aw
ang el
Ġsp ots
Ġp ig
Ġh am
Ġgu est
Ġgreat ly
Ġex it
Ġant ib
Ġabandon ed
Ġa er
ĠR os
ĠL i
u ction
port ed
ou ri
Ġsy nt
Ġrel ax
Ġphys ically
Ġlo ans
Ġinc om
Ġf ed
Ġdiv ided
Ġcap abilities
ĠS ometimes
ĠE ag
unt u
iv als
is p
am med
St ill
J P
7 4
! )
Ġsc ores
Ġr ational
Ġm useum
Ġh ung
Ġcent ers
Ġc oc
Ġbl ast
ĠD et
ĠB L
ĠAlex ander
Ð ²
m ade
in als
ah u
' .
Ġser vers
Ġprep aring
Ġoverse as
Ġnom ination
Ġi P
Ġcritic ized
Ġco aches
ĠOr ig
ĠDen ver
S m
M B
Ġth orough
Ġs ed
Ġrepresent atives
Ġprem ium
ĠN OT
ĠG irl
ĠComm on
ĠBalt imore
ĠB attle
ĠB ab
Ġ199 3
ils en
Ġtact ics
Ġreve als
Ġprogram me
Ġmonth ly
Ġins isted
Ġin ner
Ġf ulf
Ġf ing
ĠA ud
st ract
inc oln
ag ic
Y et
Ġsch olars
Ġc ul
Ġbi as
Ġaccompl ish
ĠTechn ology
ĠM ake
the y
sy lvan
it ter
c rib
back s
Rel ated
Ġsh ips
Ġr aces
Ġmem ories
Ġkil omet
Ġer rors
Ġdist ract
Ġdef ine
Ġcateg ories
ĠMean while
st arter
riv ing
om y
Ġtrans it
Ġport ray
Ġle ct
Ġf ab
Ġentre prene
Ġdram atic
Ġd ump
Ġcitiz en
ĠInd eed
ĠG ary
ĠD ar
ĠBe ck
ĠAnd re
er ies
R em
Ġwar n
Ġsubsequ ent
Ġsett ings
Ġr om
Ġqu oted
Ġlo ose
Ġimportant ly
Ġf ate
Ġdifferent ly
Ġanx iety
ĠUn fortunately
ĠC ow
ĠA k
r if
oun ce
S L
Ġreplace ment
Ġg ate
Ġf ool
Ġdemand ing
Ġargu ing
ĠV ill
ĠBe ijing
Ġ4 6
Ġ20 20
m ers
in ating
est ed
b ow
OL D
Ġvis iting
Ġviol ation
Ġintrodu ce
Ġint im
Ġhy per
Ġg al
Ġfl ags
Ġdisc our
Ġd ad
Ġab road
ĠPat ri
ĠD ream
ĠC A
ult ural
s ight
ord inary
omp son
g roup
Ġunf air
Ġmilit ants
Ġcompet ing
ĠSt at
ĠR ef
ĠJ ay
ĠIran ian
ĠChe ck
re ction
he ll
he im
el le
ecut ive
ap ing
Ġwat ers
Ġpre ced
Ġord inary
Ġmin istry
Ġcust ody
Ġcont rad
Ġbi ological
Ġb owl
ĠW W
ĠHe ad
Â °
o z
b ian
b i
all ing
Ġsem i
Ġre verse
Ġm unicip
Ġl unch
Ġg if
Ġf et
Ġcoll apse
Ġarchitect ure
Ġact ively
ĠT rib
ĠJ erry
ĠFoot ball
ĠB ron
Ġ5 2
ien ces
at ar
ass ador
% )
Ġunex pected
Ġsum mit
Ġr ush
Ġprodu cers
Ġp or
Ġhelp ful
Ġcomprehens ive
ĠL im
ĠC BS
ĠAnd erson
kl ah
h y
ch ange
Ar t
Ġt ens
Ġh ire
Ġgu idelines
Ġd ating
Ġche st
Ġbott le
Ġb acter
ĠS af
ĠRev olution
ĠM ir
ĠH ave
s a
pl ate
od ing
n on
W atch
R I
N ote
20 16
Ġunivers ities
Ġtrig ger
Ġse vent
Ġliter ature
Ġar c
Ġal ter
Ġactiv ist
ĠM ain
ĠDe ath
ĠA st
land o
K e
" .[
Ġs orts
Ġrepresent ing
Ġrecommend ations
Ġpoint ing
Ġp our
Ġm ad
Ġlay er
Ġhealth care
Ġappoint ed
ĠL am
ĠKe ep
m aker
er ia
em ed
ass y
and o
Ġw ounded
Ġstay ing
Ġst ability
Ġsh ame
Ġscient ist
Ġodd s
Ġmaintain ed
Ġl ad
Ġi OS
Ġex ha
Ġemploy ed
Ġeduc ational
ĠSe an
v ision
sylvan ia
klah oma
el son
R ed
R C
E m
Dav id
Ġt ips
Ġsatell ite
Ġman aging
Ġh al
Ġbu ff
ĠBl oom
st al
le ans
est y
ast y
Ġunemploy ment
Ġpers u
Ġf ro
Ġcongress ional
Ġbar rel
ĠT a
ĠSar ah
ĠRad io
ĠOther s
ĠGuard ian
ĠF A
ĠDo es
Ġ- >
ib an
enn is
e ven
Cross ref
Ġw rest
Ġtrem end
Ġstri p
Ġst y
Ġsim ultane
Ġdemonst rate
Ġdef icit
Ġd iverse
Ġblock ed
Ġanaly st
ĠOlymp ic
ĠK han
ĠBre xit
w a
b ered
% ,
Ġv es
Ġt ired
Ġr anks
Ġr amp
Ġpl aintiff
Ġj u
Ġd ates
Ġcre am
Ġcour ses
Ġclot hes
ĠW olf
ĠSt art
ĠM oon
ic ism
h ard
f und
com es
act s
M ed
Ġtal ented
Ġstrugg led
Ġrat io
Ġinv ent
Ġgather ing
Ġdro ve
Ġcivil ian
Ġbit coin
Ġan s
ĠK ar
ĠC ost
Ġ1 000
em ic
Ġus age
Ġsoc cer
Ġsett led
Ġover come
Ġmod ule
Ġdocument ary
Ġcomp at
ĠV ice
ĠMar c
ar ms
ad i
ab et
Ġvo ices
Ġreview s
Ġrele ases
Ġpo ison
Ġplatform s
Ġhom osexual
Ġfore cast
Ġdead ly
Ġcont ribution
Ġbroad er
Ġad equ
Ġaccess ible
ĠU b
r ison
ac hel
9 3
Ġk iss
Ġdisc ount
Ġc ig
ĠOak land
ĠN ilsen
arg o
ap ore
T O
IC E
Ġthreat ening
Ġro of
Ġpopular ity
Ġmin i
Ġincor por
Ġfrequ ency
Ġform ula
Ġfight s
Ġf oss
Ġdis order
Ġde lic
Ġconsider ation
Ġcomp are
Ġbank ing
ĠY eah
ĠSil ver
ĠR aj
ĠE xt
ra pped
mark et
ig ation
d el
Ġwe igh
Ġtit led
Ġstat ist
Ġman if
Ġinvest ments
Ġfund ra
Ġcommon ly
Ġappro ached
Ġadv iser
ĠX box
ĠPr ince
ĠP ent
Ġ \
v o
ub b
ig ious
T H
Ġw ider
Ġstrik ing
Ġrestaur ants
Ġper ceived
Ġless ons
Ġe c
Ġconcept s
ĠOr leans
ĠL incoln
ĠHow ard
ĠH oll
ĠB on
ĠA ction
al ysis
R S
Ġsh adow
Ġo xy
Ġn ose
Ġenthus i
Ġche ese
ĠS at
ĠOnt ario
ĠH op
ĠF riend
T ER
B M
Ġpredict ed
Ġpers ons
Ġl ens
Ġdead line
Ġconfig uration
ĠL ook
ĠK ong
ĠF ant
ro ck
ke ep
iz abeth
ak a
Ġsp oken
Ġfocus ing
Ġenh ance
Ġc iting
ĠPh ilipp
ĠGar cia
ĠB udd
r ac
hold ers
ct ic
comm un
amb ling
9 2
Ġweek ly
Ġreb els
Ġr if
Ġpre f
Ġposs ess
Ġcompens ation
Ġchar ity
ĠP op
ĠM ill
tr ue
p a
et ers
ag ger
Ġstre aming
Ġrem oval
Ġprov ision
Ġprom ises
Ġmin ing
Ġj ihad
Ġf iscal
Ġdist ingu
Ġdiscuss ing
Ġcred its
ĠT es
ĠSwed en
ĠF al
ot te
im mer
em ption
Ġprotect ing
Ġop ens
Ġmembers hip
Ġmem o
Ġlegisl ative
Ġfac ilit
Ġcal m
Ġb irds
Ġar ray
ĠTh ompson
hes is
8 1
Ġunder lying
Ġcan ce
Ġassum ed
Ġass igned
Ġappear ances
ĠS ony
ĠMor gan
ĠM it
ĠL o
ĠAr senal
vertise ments
aren cy
Ġrece iver
Ġpolit ically
Ġn ic
Ġmon ster
Ġhigh lights
Ġg rave
ĠMan agement
h att
Ġt ut
Ġqu ote
Ġe ager
Ġdiv or
Ġdef ending
Ġcontact ed
Ġc ock
Ġbl ank
ĠU FC
ĠSy dney
ĠPenn sylvania
ĠEng ine
ĠEd wards
el ing
V D
6 3
Ġtr ave
Ġtarget ing
Ġrel iable
Ġinter ior
Ġign ored
Ġgen etic
Ġam endment
the less
l arge
j ud
en cing
ann on
Ġv ig
Ġsuspect s
Ġn erv
Ġgrad uate
Ġf iring
ĠMc K
ĠM ach
ĠB rew
sh ire
l ock
iam ond
b its
O V
D is
) )
Ġwedd ing
Ġtwe ets
Ġprom ising
Ġins pir
Ġhor se
Ġemer ging
Ġch icken
ĠZ e
ĠS us
ĠPalestin ians
on ly
cel ona
ail ed
P G
Ġsil ence
Ġencoun ter
Ġan cest
Ġaddress es
ĠS in
ĠS E
ĠP riv
ĠP i
ĠCh ildren
ĠAb b
Ġ5 3
t d
ism s
is ons
gr ad
ar ity
S im
Ġstim ul
Ġroom s
Ġrec on
Ġopen ly
Ġm ood
Ġgir lfriend
Ġf ruit
Ġe ase
Ġdisp ute
Ġdis h
Ġche aper
Ġburd en
Ġattract ive
Ġann iversary
ĠO klahoma
usal em
ik a
av ed
Re uters
Ġsm ile
Ġrepl ied
Ġcent uries
Ġc ow
Ġbu ck
ĠN i
ĠJ ean
Ġ ?
th rough
m ans
aw are
N S
ĠP erson
ĠLiber al
Ġ199 1
pl ed
min ute
m ind
le e
k ing
i ate
e als
b n
at tered
ac c
Up date
9 1
Ġsy mp
Ġspirit ual
Ġset up
Ġhy dro
Ġdomin ant
Ġback ing
Ġar bit
on ge
ir ate
ial s
Re g
B D
ĠÐ ´
ĠÎ ±
Ġsure ly
Ġgen es
Ġexperim ents
Ġdial ogue
Ġcl ock
ĠTal iban
ĠS ix
ĠPh ys
ĠD utch
ĠD isc
ĠC lick
ĠAm ong
ĠAff airs
th ird
new s
bre ak
ate ful
ac on
7 1
Ġrock et
Ġline up
Ġh osp
Ġdise ases
Ġconvention al
Ġchild hood
Ġbur ied
Ġb ow
Ġaward ed
ĠUs ing
ĠTh rough
ĠM etro
ĠG ib
ĠAr k
oy d
ep s
app er
Ġse ized
Ġpl ain
Ġmedic ine
Ġmeaning ful
Ġmarg in
Ġhost ed
ĠP y
ĠMr s
ĠA ren
ÑĤ Ð¾
pt ions
og y
ir s
ac co
Th anks
C or
Ġsen ator
Ġm art
Ġesc al
Ġcar ries
Ġbut t
Ġart ific
ĠP a
Ï Ģ
su pp
ows ki
he rent
a fter
St ory
Ġsurv ival
Ġround s
Ġrhet oric
Ġm ath
Ġl oves
Ġkit chen
Ġimpl ications
Ġd ub
ĠMod i
om ed
f are
con st
T ime
6 9
2 50
Ġv end
Ġst ance
Ġsh ocked
Ġr iding
Ġpsych ological
Ġmem or
Ġkn ee
Ġinstruct ions
Ġinst ances
Ġexec ution
Ġelig ible
Ġconv ince
Ġco inc
Ġag es
Ġab ilities
ĠJ eremy
Ġ1 20
ude au
ter y
pt on
n ull
aw ks
S C
20 12
Ġw et
Ġt ape
Ġst ats
Ġsix th
Ġridic ulous
Ġremark able
Ġr iders
Ġple ased
Ġl ux
Ġin equ
Ġbe ating
ĠViet nam
ĠJer usalem
ĠF O
ĠEm ail
p ack
itt s
che ll
L Y
Ġwealth y
Ġprinc ipal
Ġm ouse
Ġinfl ation
Ġadv enture
ĠThere fore
ĠP ers
ĠMar io
ĠG iven
ĠEx per
Ġ5 1
~ ~
ugh t
re qu
C ur
Ġter r
Ġpo ly
Ġlo op
Ġgr ade
Ġgl ad
Ġdam aged
Ġbill ions
Ġbe ach
Ġans wered
ĠV lad
ĠA R
k ill
it ual
is a
f ol
M ENT
Ġsil ent
Ġprecise ly
Ġle ak
Ġhop efully
Ġent ities
ĠW as
ĠSing apore
ĠS a
ĠEx pl
ĠCh o
Ġ _
Ã §
du ction
Inst ead
Ġweak ness
Ġun pre
Ġsubst ance
Ġpropos als
Ġproced ure
Ġm ask
Ġengine ers
Ġcr imin
ĠP ot
ĠL ow
ĠD er
ĠB M
ĠAlber ta
Î ¯
S u
7 2
Ġse ed
Ġnewslet ter
Ġcoach ing
Ġas ylum
ĠMary land
ĠL A
ĠE ff
ĠCh annel
res hold
as ant
ak i
Ġtrend s
Ġte eth
Ġsubscrib e
Ġinterpret ation
Ġevery day
ĠWhe ther
ĠT ok
ĠO p
ĠH old
ĠDig ital
Ġ9 5
ump h
m ble
b in
Ġtort ure
Ġscr ut
Ġphotograph s
Ġindust ries
Ġg ains
Ġfl ed
Ġdiplom atic
Ġden y
ĠR ather
ĠOr ange
ĠKent ucky
ĠEx ecutive
ĠBru ce
ĠA le
th ur
j s
d ed
ced ented
book s
Ġwhere as
Ġun ve
Ġstop s
Ġoutr age
Ġmer ch
Ġliber t
Ġl ip
Ġg ross
Ġcooper ation
ĠTr ade
ĠP age
ĠP D
ĠG ulf
ĠCor p
ang le
Ġins pect
Ġgu ests
Ġaut onom
Ġadop t
ĠTe ch
ĠP ass
ĠA ward
Ġ201 9
Ġ( "
or ous
ocol ate
in stein
ennes see
c re
" >
Ġst em
Ġsen ators
Ġro ots
Ġn in
Ġman ual
Ġelimin ate
ĠStan ford
ĠI ron
ĠD O
ĠA lp
tain ment
old s
oc ial
it ary
fl ix
H T
G ood
Ġunivers al
Ġtown s
Ġstrateg ies
Ġpull ing
Ġpod cast
Ġplayoff s
Ġneigh bors
Ġmod ified
Ġinc hes
Ġd ual
Ġaim s
ĠPl us
ĠOr lando
ĠKick starter
ĠCap ital
ra ig
p ed
ard o
am ine
Ġtrans actions
Ġst ored
Ġre vers
Ġleg ally
Ġke ys
Ġcons ent
Ġag ed
ĠW H
ĠPro duct
ĠG ordon
ĠC op
ĠBar celona
Ġ5 6
opy right
f r
et he
N ext
Ġretire ment
Ġrepe at
Ġre nd
Ġmyster y
Ġm ile
Ġexpl aining
Ġdom ain
Ġdisplay ed
Ġarriv al
ĠT ype
ĠRon ald
ĠI M
it udes
g ets
ac are
8 3
Ġz inc
Ġwond ering
Ġut ility
Ġsold ier
Ġro y
Ġpro s
Ġper ception
Ġl ift
Ġinst itution
Ġdescrib ing
Ġb read
Ġb ands
ĠT own
ĠGree ce
th rop
7 9
Ġsuper ior
Ġsub mitted
Ġsign als
Ġprefer red
Ġpar ad
Ġm ac
Ġinter f
Ġexplos ion
Ġcons ervatives
Ġafford able
ĠH ong
ĠG h
ĠE D
ĠD ave
ĠC ON
p ress
h ire
el ve
e le
br id
E G
Ġref use
Ġoccas ionally
Ġob sc
Ġencour aging
Ġe cho
Ġcharg ing
Ġall iance
ĠY emen
ĠSim on
ĠS ure
ĠN ik
ĠH ero
ĠD om
ĠAd v
oh an
lim ited
igen ous
ere van
ar at
alt ies
F A
8 9
Ġt u
Ġnerv ous
Ġbe ings
ĠY an
ĠT ower
ĠBrook lyn
we ek
ot ing
on z
igh th
d ated
by n
b ury
E arlier
Ġsa ving
Ġl ady
Ġins ight
Ġdemand ed
Ġaccept able
ĠO cean
ĠMiss ouri
ĠHar per
ĠBat man
ten ance
ors hip
l ow
ib l
ere nt
er ts
a ver
M ich
Ġsearch ing
Ġpunish ment
Ġp uzz
Ġp icks
Ġinvestig ations
Ġinf o
Ġg ig
Ġextra ordinary
Ġexpand ing
Ġbul let
ĠL ibrary
ov a
oc a
ac o
Ġveter ans
Ġu pload
Ġtox ic
Ġsurprising ly
Ġsub sc
Ġsc ar
Ġrec alled
Ġgraph ics
Ġexecut ed
Ġcommand er
ĠUkrain ian
ĠStud ies
ĠM and
ĠIm m
we ather
v as
se ction
iet ies
a eda
Ġt ons
Ġse ar
Ġrec ipe
Ġle aked
Ġintegr ation
Ġgame play
Ġfun eral
Ġearth qu
Ġcoll aps
Ġch ronic
ĠWh it
ĠMur ray
ĠF ather
ĠE ve
ĠB al
sc reen
re ll
f ish
che ck
an im
7 00
20 15
Ġvolunte ers
Ġro lling
Ġproced ures
Ġph arm
Ġopp ose
Ġo rient
Ġmort g
Ġinf ection
Ġdisc rimin
Ġcogn itive
Ġbatt les
ĠS av
ĠP ope
ĠE C
Ġ19 50
ri x
ri ors
on ing
li hood
l ay
c ott
ay a
Ġwitness es
Ġton ight
Ġrel ation
Ġnot able
Ġintegr ity
Ġh anging
Ġdisappoint ed
Ġacknow ledge
ĠS ection
ĠD uke
ĠB uck
ĠAnton io
im ir
ht ml
cept ions
Ġtim ing
Ġprov ider
Ġpr on
Ġn a
Ġmus ical
Ġle an
Ġl apt
Ġinqu iry
Ġimp ression
Ġcompe lling
Ġchalleng ed
Ġbre ast
ĠM ult
ĠG DP
ĠEl izabeth
ĠAuthor ity
ge red
ear ly
am ous
P re
D em
8 4
** *
Ġtr illion
Ġtop ics
Ġtem por
Ġt ables
Ġsusp ic
Ġprote in
Ġpres ents
Ġpass enger
Ġoper ator
Ġdifficult y
Ġcollabor ation
ĠRep resent
ĠB ox
s ub
am acare
U RA
H z
Ġtravel ing
Ġsol o
Ġs its
Ġneighborhood s
Ġjust ify
Ġinter action
Ġgen re
Ġex port
ĠEnter tainment
Ġ199 2
w alk
ut er
u i
ll or
C al
7 3
Ġy eah
Ġpresent ation
Ġout lets
Ġint r
Ġinst inct
Ġemot ions
Ġcl er
ĠT ennessee
ĠP sych
ĠHam ilton
ĠH oly
ĠCor por
ĠCharl ie
ĠC ode
Ġ %
ut en
re nd
lud e
hatt an
ent er
ap olis
ĠÐ ¾
Ġunc ons
Ġtransp arency
Ġrem oving
Ġrac ism
Ġparticip ation
Ġg est
Ġfavour ite
Ġfat al
Ġdef ect
Ġbon us
Ġar r
ĠV ideo
ĠSt ation
ĠM ess
ĠC H
iz za
cos ystem
ad ers
Ġvar iable
Ġst ro
Ġsp an
Ġqu it
Ġphot ographer
Ġpass age
Ġocc urs
Ġkid n
Ġg ri
Ġdr inks
Ġdeleg ates
ĠSt ory
ĠInd ependent
ĠD ick
ĠBel ow
th ood
ix on
h as
aut hor
U ST
C I
Ġthe ories
Ġsh irt
Ġembr ace
Ġcons ensus
ĠMar vel
ĠK ill
ĠBar b
vern ment
oen ix
T unes
Ch rist
Ġwh ist
Ġth reshold
Ġshe et
Ġsex ually
Ġs wit
Ġpr ide
Ġpoll ution
Ġmanufacture rs
Ġf o
Ġdefe ated
Ġcreat ures
Ġconscious ness
Ġar ts
ĠCome y
w ind
th an
ru p
row s
iz arre
ist ant
g ood
ar ia
He y
Ġunder t
Ġt ear
Ġsav ings
Ġpass word
Ġoxy gen
Ġopp osing
Ġoper ators
Ġh oles
Ġdesper ate
Ġdeploy ed
ĠC ou
ig ration
__ _
P aul
Ġmaintain ing
Ġkn ock
Ġjournal ism
Ġcor rupt
Ġassoci ate
Ġass et
ĠR s
ĠR h
ĠR est
ĠL og
ĠKurd ish
ĠB or
Ġ2 50
ult s
ol ph
m ad
in st
M od
B r
Ġtremend ous
Ġsusp ension
Ġsent enced
Ġresident ial
Ġrequire ment
Ġpick ing
Ġpan els
Ġmother s
Ġmiss ions
Ġfing ers
Ġdistrict s
Ġdist ribut
Ġcommun icate
Ġbrut al
Ġbad ly
ĠS ci
ĠD omin
à ¤
y es
ter ror
en ess
ac re
O K
M IN
8 2
1 50
Ġviol ations
Ġsub mit
Ġres erved
Ġrec overed
Ġpromot ing
Ġisol ated
Ġinst ant
Ġimp osed
Ġb old
ĠP ant
ĠMic hel
ĠJava Script
ĠH ug
ĠB ra
ĠB oe
od ox
G ener
Ġv ocal
Ġp unch
Ġp ocket
Ġmod erate
Ġint ellig
Ġhosp itals
Ġfil ter
Ġcreat ure
Ġcou ples
Ġaccur acy
ĠTr udeau
ĠT ed
ĠR oll
ĠPer ry
ĠP od
ĠM other
ĠE PA
ĠB arn
u ment
ist ance
est yle
c our
ast ing
Ġwant ing
Ġv oid
Ġpregn ant
Ġdis abled
Ġd imin
Ġcontem porary
Ġconstit u
Ġcon sole
Ġadvoc ate
Ġaccomp an
ĠSp ir
ĠMan hattan
ĠF inally
ĠAl an
} ,
v i
st rong
port ation
own ed
ot ion
j amin
im ize
T op
Spe aking
Ġunder ground
Ġse ctions
Ġpol ar
Ġl ibr
Ġgu id
Ġforg otten
Ġfac ulty
Ġdream s
Ġcon vert
Ġcheck ed
Ġcert ific
Ġacqu is
ĠLib ya
ĠInd ians
ĠF ive
ĠBl ood
ke e
ene z
d ing
c or
b ound
Ġsp o
Ġsimultane ously
Ġend orse
Ġdirect ions
Ġc ave
Ġav o
ĠOn line
ĠNev ada
ĠMiss iss
ĠM ove
ĠInst agram
ĠCon vention
Â Ĵ
s he
St ep
Ġse gment
Ġrevolution ary
Ġland ed
Ġir re
Ġgu ards
Ġfrequ ent
Ġexclus ively
Ġev olved
Ġe lder
Ġcreat or
ĠPol and
ĠMont real
ĠHaw ai
bour ne
ater al
M ac
Le aks
Ġtiss ue
Ġp ill
Ġinv asion
Ġdepend ent
Ġconst itution
Ġare na
Ġappro aches
Ġ !
âĢ ³
as ury
V iew
U I
St ate
Ġunpre cedented
Ġtr aged
Ġpubl ishing
Ġprospect s
Ġpromot ion
Ġoccas ion
Ġg ym
Ġengine er
Ġdist ur
Ġdisapp ear
Ġcop s
Ġcamp s
Ġben e
Ġb urning
Ġb ases
Ġanaly sts
Ġan onymous
ĠStand ard
ĠH ond
ut her
d iv
Pl ay
Ġtransfer red
Ġsh oes
Ġsh ocking
Ġrec ruit
Ġprompt ed
Ġpolitic ian
Ġpeace ful
Ġpart ly
Ġintegr ated
Ġexp ense
Ġco ins
Ġbr ands
ĠUn ivers
ĠS aint
ĠM un
ĠDr agon
rif ice
oph ob
ne cess
F inally
Ġste ering
Ġst ating
Ġsett le
Ġsequ ence
Ġrequ iring
Ġown s
Ġmotiv ated
Ġh unt
Ġd uration
ĠSt ore
ĠD ur
ĠCo al
ĠAren a
iz er
## ##
Ġsurv iv
Ġman agers
Ġdro pping
Ġd ies
Ġang le
ĠT el
ĠP A
ĠM arg
ĠJ enn
ĠComm ons
Ä ±
mer ce
it ol
ik ing
ch ing
O G
Follow ing
D id
Ġsurv ived
Ġs ne
Ġrepresent ation
Ġprofession als
Ġinterview ed
Ġhost s
Ġhero es
Ġdef ender
Ġclot hing
Ġcho osing
Ġbene ath
ĠNet flix
ĠMount ain
ĠK r
ĠA S
Ġ9 9
o vers
ir ates
e lection
ative ly
V P
Per haps
Ġt um
Ġsub tle
Ġperiod s
ĠVlad imir
ĠT ax
ĠOlymp ics
ĠN ature
ĠL ear
ĠJon athan
ĠHit ler
ĠF all
r ics
qu est
d ict
angu age
ĠÐ ¸
Ġrout es
Ġguarant eed
Ġfle e
Ġentr ance
Ġe cosystem
Ġdesign s
Ġconcer ning
Ã© s
st op
ree k
og g
it ure
art ed
ar ation
ades h
Ġrele asing
Ġlay ers
Ġg arden
Ġev ident
Ġegg s
Ġdepart ure
Ġdel ight
Ġdeb ates
Ġde emed
Ġb ot
Ġb ones
Ġb its
ĠP T
ĠOb amacare
ĠHe at
ĠHarr ison
ĠC reat
ol ving
n atural
m ath
lud ed
le ft
id o
i Leaks
anc hes
a a
G u
C L
Ġsc rew
Ġresear cher
Ġrefere nces
Ġjud icial
Ġindic ates
Ġbut ter
Ġbl amed
Ġbank rupt
Ġb ubble
ĠMit chell
ĠC ustom
ĠC ase
ou b
is k
b es
U r
N ame
F urther
Ġrec re
Ġpri ze
Ġnation wide
Ġn urs
Ġexam ined
Ġeconom ics
ĠO R
ĠLouis iana
ĠJ ane
ĠGi ants
ĠF inal
ĠBer lin
ĠB ase
ĠAll iance
ĠA ge
sc ar
b ase
G e
E ach
A ct
Ġrest ore
Ġr ib
Ġh ip
Ġgent le
Ġdes ert
Ġcomprom ise
ĠWar ner
ĠTes la
ĠH al
ĠBl ake
ĠB enn
Ġ7 6
Î ¬
w ill
itts burgh
d s
act or
B est
: :
. :
Ġwire less
Ġtrail er
Ġsee ks
Ġrad iation
Ġpur su
Ġp ow
Ġorgan ic
Ġobserv ations
Ġlab our
Ġin her
Ġcou p
Ġatt ending
ĠSt aff
ĠS ource
ĠM obile
ĠI an
ĠChrist opher
ĠAb u
u h
ry ing
d ie
ast ed
P L
M us
Ch ina
Ġwhere ver
Ġtri ps
Ġsoph istic
Ġrep air
Ġoccas ional
Ġmig rants
Ġinvestig ated
Ġhun ting
Ġh iring
Ġexp enses
ĠN ob
ĠH aving
ĠFore st
ĠD ak
ust ing
ug by
qu es
out e
ous es
ne g
m ay
ist a
in ck
fort able
Post ed
Ġspeak ers
Ġposs ibilities
Ġoper ated
Ġmir ror
Ġlog ical
Ġkill er
Ġfor um
Ġdom inated
Ġbirth day
ĠSwed ish
ĠProt ection
ĠG ates
ĠCom b
ĠC ould
ol as
il ation
br ance
ars on
P at
F l
Ġsupp lement
Ġsa uce
Ġrac ing
Ġr ic
Ġpro secution
Ġlog o
Ġdepart ments
Ġcont rary
Ġbeat en
Ġalgorith m
ĠM ap
ĠG OLD
ĠFollow ing
Ġ> "
Ġ198 6
qu er
l s
h ill
gr aph
fe ld
f unction
bre aking
bor ne
N Y
Ġteam mates
Ġsu ck
Ġregist ration
Ġmurd ered
Ġlif etime
Ġl obb
Ġkey board
Ġfoss il
Ġeng aging
Ġconf used
Ġc abinet
ĠY ang
ĠT ai
ĠN elson
ĠG ard
ĠEvery one
w ed
f ather
On ly
Ġtele phone
Ġsp awn
Ġpro be
Ġlong time
Ġk m
Ġj er
Ġdevelop ments
Ġc inem
ĠTr ust
ĠPent agon
ĠInd ust
Ġ8 00
âĢ¦âĢ¦âĢ¦âĢ¦ âĢ¦âĢ¦âĢ¦âĢ¦
ri or
p g
C omm
C P
Ġquant um
Ġpro portion
Ġple asure
Ġh ub
Ġh arsh
Ġem p
Ġelect oral
Ġdr unk
Ġdet ention
Ġcrimin als
Ġconven ient
Ġconf usion
Ġco ord
Ġch ip
Ġathlet es
Ġaccept ing
ĠPhil ip
ĠM A
ĠLe ft
ĠDes ign
ĠB urn
Ñ ħ
ie re
app ropri
M ark
Ġut ter
Ġra ises
Ġpri est
Ġpost ing
Ġmain tenance
Ġconv iction
Ġan ch
ĠW ould
ĠS on
ĠRob inson
ĠN ich
ĠMore over
ĠE vent
ĠE st
ĠD od
ĠCanad ians
Ġ vert
v ia
inc ome
h alf
gr ade
W he
Ġviol ated
Ġun a
Ġsubsequ ently
Ġra id
Ġpubl ish
Ġh orm
Ġdram atically
Ġcapital ism
Ġback s
Ġb ird
ĠH amp
ĠF orm
ĠB ud
ur ches
u j
s ome
s ki
friend ly
au x
ass ion
ans on
\ \
T ON
Ġres olve
Ġprof ound
Ġorgan is
Ġinspir ation
Ġinflu ential
Ġexplicit ly
Ġen act
Ġdest ination
Ġcor n
Ġconsider able
Ġcol our
Ġbo ards
Ġb ump
Ġappl ies
Ġann oy
ĠY erevan
ĠH an
ĠCor byn
ond uct
g al
d isc
ac les
UT ERS
L ist
G r
Ġto ss
Ġt ong
Ġt ap
Ġrel uct
Ġref ers
Ġproduct ive
Ġover night
Ġingred ients
Ġfab ric
Ġcon ced
Ġcle ared
Ġcheck ing
Ġblock ing
Ġball s
Ġacc ord
Ġac id
ĠY OU
ĠS everal
ĠS et
val ue
ul se
t ic
io x
ethe less
erg us
d r
A ut
Ġstrugg les
Ġr h
Ġpost er
Ġj unior
Ġf ails
Ġeng agement
Ġelect ron
Ġd uties
Ġclos est
Ġcar rier
Ġc ens
Ġbath room
Ġattract ed
Ġab und
ĠS port
ĠK ings
ĠGu y
ĠEvery thing
ĠDe b
ĠC apt
ĠAre a
itt y
is dom
her s
h uman
end ar
com p
ari os
E X
B en
==== ====
ĠÏ Ģ
Ġth ro
Ġinflu enced
Ġi Tunes
Ġgl obe
Ġb izarre
ĠN one
ĠM ail
ĠIraq i
ĠInt el
ĠE T
off s
l if
Ġsing er
Ġnow here
Ġmus cle
Ġmet ers
Ġinf ring
Ġinev itable
Ġimm une
Ġhand led
Ġfuck ing
Ġas sembly
Ġam bit
ĠP rom
ĠLe on
ĠFant asy
ĠCl imate
w all
on er
ol i
ipp i
ip edia
form ed
et ry
ag en
6 2
Ġworld s
Ġsleep ing
Ġsh ipping
Ġinter ven
Ġdesign er
Ġdecre ase
Ġcur ious
ĠS ac
ĠL ater
ĠG ab
ĠE ver
ĠCap tain
Ġ8 5
o j
g ly
CA A
Ġt ab
Ġrec k
Ġinvest ed
Ġin box
Ġhor rible
Ġh iding
Ġel abor
Ġdocument ation
Ġbox es
Ġacc um
ĠTh ink
ĠNet her
ĠL arry
ĠG ro
ĠC PU
ĠB ou
ĠAs sembly
Ð° Ð½
res a
olit ical
ll y
Th ree
PA UL
L ook
For mer
20 13
Ġtrans mission
Ġt ension
Ġsurround ed
Ġspeak er
Ġsim ilarly
Ġperm itted
Ġobs er
Ġless on
Ġintim id
Ġident ical
Ġcha os
Ġc ake
Ġbuy ers
Ġbel t
Ġadv ent
ĠUb untu
ĠS D
ĠOr der
ĠMar ine
ĠCommission er
secut ive
ro v
m other
m illion
lyn n
ar med
Y eah
A V
Ġtherap y
Ġsupposed ly
Ġsh ops
Ġro lled
Ġpres erve
Ġf el
Ġf are
Ġdo ctr
Ġdef ended
Ġcorrect ly
Ġal ert
Ġaffect s
ĠN azi
ĠH ung
ĠH uff
ĠH ann
ĠEd ition
ĠComm and
om ic
ock ets
n an
gg ed
ex p
boy s
G E
Ġsub ur
Ġsto pping
Ġsm oking
Ġprepar ation
Ġm it
Ġl one
Ġfest ival
Ġcur ve
Ġce ase
Ġbrief ly
Ġartific ial
ĠStud ios
ĠOff icer
ĠHe art
Ġ5 4
sel ess
otyp es
h al
af i
? âĢĻ
Ġreact ions
Ġpack ed
Ġp upp
Ġout comes
Ġorgan isation
Ġme al
Ġjump ed
Ġj okes
Ġin aug
Ġimpact s
Ġguid ance
Ġform ation
Ġexc use
Ġcor rel
Ġcelebr ated
Ġbomb ing
ĠUn it
ĠTok yo
ĠSo ft
ĠP o
ĠM MA
ĠLe ban
ĠLe af
ĠE lection
Ġ7 2
Ġ6 00
inck ley
ere n
ar ians
Th ank
T P
Pro f
DA Y
Ġv oc
Ġtrans action
Ġtaxpay ers
Ġsm ugg
Ġreal istic
Ġprodu ces
Ġkick ed
Ġdeal t
Ġcourt esy
Ġbacter ia
Ġb ags
Ġal ph
Ġadv ised
ĠTurn er
ĠO il
ĠMars hall
ĠEgypt ian
w ich
ut ter
u ating
sec urity
in ite
enez uel
G ame
Ġwin ners
Ġvis its
Ġv it
Ġt orn
Ġst amp
Ġs essions
Ġpred ec
Ġphot ography
Ġout f
Ġnight s
Ġmunicip al
Ġf ishing
Ġemploy ers
Ġdrop s
Ġcompl ained
Ġat he
ĠT erry
ĠSh ort
ĠF ig
ĠEag les
ĠContin ue
ĠCh ange
ĠAF P
Ġ198 9
Ï Į
inc ial
ick ed
g ate
d ri
ber y
ac ular
LA URA
Ġw ise
Ġuncertain ty
Ġsl ot
Ġsens ors
Ġprosecut or
Ġp ose
Ġlimit ations
Ġimp ose
Ġf ut
ĠPh ill
ĠJ e
ĠD ub
ĠCo le
z b
sec ond
ress ing
ergus on
abet es
R ich
P al
P I
Ġv enture
Ġun necess
Ġreg ret
Ġprivile ge
Ġexpect ing
Ġd a
Ġbet a
ĠQue ens
ĠMel bourne
ĠHam as
ĠColl ins
ite ment
U C
Ġtou g
Ġsustain able
Ġre ass
Ġinequ ality
Ġfin ishing
Ġdes p
ĠS aints
ĠR u
ĠR aven
ĠCom put
ĠChair man
ĠB ir
ĠB and
ÑĤ ÑĮ
le ading
k ward
i ens
i ac
d irect
ant e
W S
T IS
Ġthe r
Ġremem bered
Ġoper ates
Ġlaunch ing
Ġep id
ĠT am
ĠHun ter
ĠH ur
ĠC as
ĠBl ock
ĠB eng
Ġ< /
umb l
row ing
ro ph
id al
g ov
H ave
Ġw ound
Ġunf ortunately
Ġuncons cious
Ġpra ised
Ġambit ious
Ġa wards
ĠV in
ĠN ative
ĠL B
t own
st ory
ond er
arent ly
F O
Ġto ile
Ġspeed s
Ġspec ulation
Ġrese mb
Ġinnov ative
Ġfig ured
Ġf er
Ġexpect s
Ġdon ors
Ġdon ated
Ġcons ists
Ġcon secutive
ĠW ord
ĠRes erve
ĠGOLD MAN
ĠBr andon
ĠBl og
Ï ī
uck er
et ing
d i
any ahu
Tr ans
EM ENT
D C
AT CH
Ġun e
Ġsuggest ion
Ġpled ge
Ġpat ri
Ġmean while
Ġlux ury
Ġload ed
Ġke en
Ġhe s
Ġg rip
Ġdest ro
ĠV en
ĠRuss ians
ĠE b
ĠCh ampions
ĠC os
ĠC itiz
ue z
ren cies
play er
orne ys
ier re
b ull
Ġteen ager
Ġt ale
Ġreview ed
Ġrenew able
Ġrec onst
Ġr anging
Ġprint ed
Ġparticip ating
Ġorient ation
Ġnot ably
Ġmount ains
Ġmin imal
Ġin sect
Ġequ ipped
Ġd ressed
Ġcont ents
Ġcompet itors
Ġb one
Ġall y
ĠV o
ĠMar ia
ĠH unt
ĠF itz
ĠDou gl
ĠD rive
ĠC ell
ĠBen jamin
ĠAd ams
Ġ( )
oc ated
is d
g ary
bo ards
amp a
Ad vertisements
Ġtrad ed
Ġsac rifice
Ġrank ing
Ġquestion ing
Ġoccup ied
Ġen viron
Ġconstruct ed
Ġaw ful
Ġavail ability
Ġass ists
ĠSnow den
ĠR ome
ĠMcC on
ĠInd ones
ĠH inckley
ĠEconom ic
ĠE mer
âĢ¦ .
â ĪĴ
Ã ł
u z
l ook
f i
ern el
ell er
b ig
ER E
C ap
B ook
Ġy ell
Ġtraged y
Ġpromot ed
Ġold est
Ġf its
Ġf ert
Ġdirect ors
Ġcount less
Ġcharacter istics
Ġbott les
Ġbom bs
Ġb arg
Ġanal ys
Ġaccus ations
ĠW ard
ĠM oto
ĠCharl otte
Ġ5 7
id en
d ep
( );
Ġvol unt
Ġt ears
Ġsole ly
Ġrob ust
Ġord in
Ġmechan ics
Ġint rig
Ġimp rison
Ġide ology
Ġhousehold s
Ġhar vest
Ġfl av
Ġcour age
Ġconclus ions
Ġautom atic
ĠWik iLeaks
ĠSt ew
ĠP ittsburgh
ĠNether lands
ĠC raig
ĠAnd y
ĠAdd itionally
Ġ5 8
â ĸ
esh mo
eral d
be ing
F i
Am ong
Ġst atic
Ġsl ide
Ġregard ed
Ġr ivals
Ġqual ified
Ġpro st
Ġpoor ly
Ġmin isters
Ġl ib
Ġjo eshmo
Ġinf ant
Ġg host
Ġfood s
Ġdes erves
Ġcalcul ated
Ġassum ption
Ġaccompan ied
ĠMP s
ĠH and
ĠCh ance
Ġ q
âĢĿ )
z one
w ords
r ition
on ed
ic ating
i ated
d og
b ecause
M art
F e
A tt
A g
Ġv ent
Ġquiet ly
Ġpress ing
Ġne ur
Ġl as
Ġhe lic
Ġam pl
ĠWar ren
ĠW ales
ĠMississ ippi
ĠH ad
ĠG a
ĠCap itol
Ġ6 6
Ðµ Ð½
wh ite
per t
if ier
i Ã³n
es ides
Is rael
A nt
ĠÎ º
Ġstreng then
Ġsing ing
Ġqual ify
Ġexperim ental
ĠUn like
ĠOtt awa
ĠN on
ĠF R
Ġ198 7
pie ce
ol ine
le ton
is ible
I X
E E
Ġven ue
Ġuncom fortable
Ġt ill
Ġsignific ance
Ġmanif est
Ġm isc
Ġinteract ions
Ġexam ine
Ġcru el
Ġbo om
ĠW y
ĠTre k
ĠSh ould
ĠD rug
ĠB ible
ĠA ccess
Ġ6 2
us er
th ink
t ra
m ir
ight ing
d ata
back ed
ab out
J o
Ġpain ful
Ġin hab
Ġgrad ually
Ġfasc inating
Ġequ ity
Ġdev oted
Ġb ol
Ġadminist rative
ĠW i
ĠR ow
ĠO pp
ĠMan ager
ĠL es
ĠL aur
ĠHamp shire
ĠF uture
for ward
bl ock
atern ity
as mine
am y
am ents
St ud
R ight
Bl ack
Ġw ore
Ġsum mary
Ġsophistic ated
Ġpain ting
Ġme ets
Ġclin ic
Ġbur st
Ġbu nd
Ġappoint ment
ĠS ud
ĠRec ords
ĠM D
ĠJac ob
ĠA aron
un ity
t wo
ro c
le ep
ixt ure
her iff
el come
cent ury
c ap
R ad
MIN A
L a
Ġwh is
Ġsy nd
Ġsent iment
Ġsec ular
Ġr ou
Ġmechanism s
Ġl ane
Ġimper ial
Ġen abled
Ġdr um
Ġdec or
Ġad j
ĠW right
ĠS S
ĠP AC
ĠN az
ĠM uch
ĠBr us
ul um
th odox
op les
olit an
im ens
hand ed
f ox
em brance
IR MINA
Ġsevent h
Ġsepar ated
Ġse eds
Ġpsych iat
Ġprevent ing
Ġdispl ays
Ġco in
ĠPh oenix
ĠM M
vers ion
um ing
o ons
ing e
ig e
ici ary
c ular
am ount
ĠÐ ¼
Ġst ack
Ġsa ke
Ġs isters
Ġrob ots
Ġreflect s
Ġpartic les
Ġoccas ions
Ġmotiv ation
Ġfl our
Ġe le
Ġdesign ated
Ġcondem n
Ġcomm ands
ĠQ ual
ĠP oll
ĠMur phy
ĠF isher
ĠAr ts
ubl ished
st ra
ol id
m i
. ),
Ġtest ified
Ġstead y
Ġrestrict ed
Ġr itual
Ġproject ed
Ġpled ged
Ġmoment um
Ġintellig ent
Ġilleg ally
Ġicon ic
Ġenviron ments
Ġdes ired
Ġdelay ed
Ġd il
Ġcrit eria
Ġcomb ine
Ġabs urd
ĠTh ings
ĠSte el
ĠRE UTERS
ĠR and
ĠM om
ĠH ud
ĠC L
th al
m atic
l ooking
ik i
ft en
en h
b rew
ar ound
ac ent
S em
C NN
Ġscrut iny
Ġrad ar
Ġr all
Ġpe er
Ġg olf
Ġf ires
Ġemphas is
Ġear ning
Ġdiscl osure
Ġdet ained
Ġce iling
Ġc ous
Ġbond s
Ġargu ably
Ġadop tion
ĠT R
ĠRed s
ĠP ap
ĠJ oy
ĠG re
ĠE V
s ized
ri ke
r ace
osp el
ix el
im b
J an
AT ED
AS H
/ .
Ġp as
Ġn ick
Ġlight ing
Ġfr act
Ġform ally
Ġdon ation
Ġde le
Ġd ign
Ġcont am
Ġcondem ned
Ġbab ies
Ġb other
Ġamong st
ĠSc he
ĠS alt
ĠR ail
ĠK now
ĠD S
prof ile
p y
os a
l aim
il ia
erv ing
ard ed
air y
Ġtreat ments
Ġtr ace
Ġstart up
Ġmyster ious
Ġm ic
Ġlibr aries
Ġinc omp
Ġedit orial
Ġcom ics
Ġch ocolate
Ġan onym
ĠS U
ĠRe id
ĠFurther more
ĠD ale
ĠD VD
st an
k es
iv an
c itation
ail ing
Ġw ings
Ġvolunte er
Ġview ing
Ġthe ater
Ġspread ing
Ġsaf er
Ġrespect ed
Ġpo lling
Ġins ist
Ġimp ressed
Ġg ut
Ġdevast ating
Ġdeliver ing
Ġcompl ain
Ġbug s
Ġb ip
Ġb ass
Ġaw kward
ĠO cc
ĠMc M
ĠFor ces
ĠDak ota
ĠC C
ĠB ul
Ġ Ã©
Î Ń
un ct
tr ack
or ient
olog ically
im ents
ect or
Un fortunately
O ct
? )
ĠÂ «
Ġscen arios
Ġrespect ive
Ġre ign
Ġqu otes
Ġout standing
Ġor ange
Ġmod est
Ġmig ration
Ġlong est
Ġha z
Ġexpl oring
Ġexpl oration
Ġconflic ts
Ġbul k
Ġas semb
ĠRem embrance
ĠP ence
ĠF est
ĠB ears
w estern
r ained
oc us
oc ur
B et
.. ."
Ġv iable
Ġsust ained
Ġpublic ations
Ġprev al
Ġpat ent
Ġn u
Ġign or
Ġfunction ality
Ġdraft ed
Ġder ived
Ġch ap
Ġb ra
Ġb in
Ġappear ing
Ġacquis ition
ĠWay ne
ĠPark er
ĠN eed
ĠH end
ĠDe an
ĠD raft
ĠC orn
ĠAg ree
um m
sh ore
m ain
d ad
ch i
b urn
ate ur
ak u
ag u
U D
N et
Che ck
Ġwal ks
Ġt ent
Ġt empt
Ġsuggest ions
Ġsp otted
Ġshoot er
Ġsens or
Ġhelic op
Ġgraph ic
Ġgold en
Ġdr ones
Ġcrop s
ĠWall ace
ĠVict oria
ĠV enezuel
ĠS ound
ĠR ice
ĠPl ace
or i
leg es
as i
S ch
Cl inton
). [
Ġwitness ed
Ġsw ord
Ġrot ation
Ġrel atives
Ġr ice
Ġhum or
Ġcoordin ator
Ġact ed
ĠSte am
ĠSt re
ĠMcCon nell
ĠK erry
ĠG il
ĠFed eration
ĠF un
ĠF ro
ĠC old
ĠB u
ĠB JP
Ġ16 0
u ates
ra ham
oc ity
il st
ah l
VER TIS
H ar
B el
Ġu gly
Ġtr ucks
Ġtr ains
Ġthem es
Ġro cks
Ġreven ues
Ġre aches
Ġnewsp apers
Ġn ode
Ġgr ateful
Ġexist ed
Ġer u
Ġch urches
Ġbe ars
ĠSt ock
ĠP ython
ĠN CAA
ĠMar x
ĠL ie
ĠK a
og a
n ie
lim inary
for mer
and ed
Sh are
H P
Ġsubsid ies
Ġsc rap
Ġpar a
Ġoccup ation
Ġgener ous
Ġg reet
Ġdeliber ately
Ġcomplex ity
Ġamb assador
Ġab stract
ĠP ear
ĠNet anyahu
ĠGo ing
ĠAn ne
Ġ6 7
Ġ5 9
â Ķ
s uch
igh ters
ab e
T om
Sec ond
B re
Ġtr apped
Ġret ro
Ġreflect ed
Ġoff season
Ġnewslet ters
Ġhack ing
Ġend ors
Ġconver ted
Ġcontribut ing
Ġconcer t
ĠWe iss
ĠTy ler
ĠT otal
ĠSing h
ĠS el
ĠB P
ĠAr gent
z illa
su ccess
au er
May be
M ult
M C
B on
A Y
Ġw isdom
Ġtreat ing
Ġt ends
Ġst ir
Ġrespond ing
Ġproduct ivity
Ġplan ets
Ġped est
Ġpar ks
Ġp ending
Ġoff set
Ġhuman itarian
Ġfor b
Ġflex ible
Ġfl ip
Ġbre ach
ĠTh under
ĠTem ple
ĠTe xt
ĠE nt
ĠCh uck
st ring
m ic
m are
b ie
The ir
Ġto ll
Ġt ensions
Ġl ung
Ġhead lines
Ġfil ing
Ġdi abetes
Ġd irty
Ġcontro lling
Ġappro ve
ĠSupp ort
ĠO x
ĠN at
ĠN a
ĠF lynn
ĠEd it
ĠBuff y
ĠB os
Ġ196 8
ra it
ou p
oll ar
m art
le tt
ke es
it ate
i ors
found er
f irst
ern and
com ed
ac cept
ab ul
Ġt ar
Ġsupp orter
Ġser ial
Ġsc ared
Ġjur isd
Ġind ict
Ġhost ile
Ġg ene
Ġf ont
Ġexplos ive
Ġexpert ise
Ġeng ines
Ġearthqu ake
Ġdocument ed
Ġdis par
Ġcounterpart s
Ġcomment ary
Ġbr ains
Ġapproach ing
Ġagree ments
Ġad vertisement
ĠPart ners
ĠNor we
ĠL G
ĠJ ess
ĠBrus sels
ĠB h
re ck
r c
he ro
form ance
add y
A B
Ġver ify
Ġtransp arent
Ġsh ake
Ġres idence
Ġrel ie
Ġrece ives
Ġdec ks
Ġcirc uit
Ġch ips
Ġbatter ies
ĠRes p
ĠP ur
ĠHoll and
ĠH TC
ĠAr thur
ĠA G
pr ising
ore r
oc y
it ably
b en
S l
Ġtour ists
Ġto b
Ġrefuge e
Ġprevent ed
Ġperform ances
Ġmotor cy
Ġm asc
Ġm akers
Ġl yr
Ġj et
Ġen roll
Ġag ing
ĠW ake
ĠV ar
ĠTre asury
ĠTh ird
ĠM as
ĠL uke
ĠH IV
ĠCoal ition
Ġ6 8
n ik
c ode
al id
S y
H aving
D B
Ġsur ge
Ġscr atch
Ġprior ities
Ġp owered
Ġn aked
Ġint ensity
Ġfrust rated
Ġexcess ive
Ġex ports
Ġenter prise
Ġdisapp eared
Ġca ution
Ġanim ation
Ġagric ulture
Ġaccompl ished
ĠFriend s
ĠF erguson
ĠD J
ĠCh ild
n amed
ell o
P s
D own
B N
AD VERTIS
": {"
Ġunder min
Ġtrust ed
Ġsun asmine
Ġstr ain
Ġstatist ical
Ġlif estyle
Ġheart s
Ġfr ight
Ġem bed
Ġcy cl
Ġa uction
ĠK y
ĠHT ML
val id
spe ed
s ur
qu ire
ou st
ob i
o op
ke ley
k m
iv a
ent e
d ev
aren thood
ail able
T ake
Q L
20 11
Ġtow er
Ġsafe ly
Ġmeant ime
Ġmarg inal
Ġmand atory
Ġiniti atives
Ġfl ights
Ġep ic
Ġdam n
Ġburn ed
Ġback up
Ġathlet ic
Ġal ike
ĠP as
ĠMod el
ĠFil m
ĠF arm
ĠD al
st ick
idd ing
ed ed
are r
V R
Mich ael
Ġworth y
Ġthe ft
Ġtechn ological
Ġst arter
Ġshel ter
Ġs ends
Ġres olved
Ġpart ially
Ġo ught
Ġkn ocked
Ġinc oming
Ġfunction al
Ġemploy er
Ġelimin ated
Ġdist ant
Ġcross ed
Ġconfirm ation
Ġal ign
Ġadvoc acy
ĠW ade
ĠTr ue
ĠN atural
ĠMal ays
ĠExp ress
Ġ= =
st orm
ortun ate
oc he
m id
f il
ar o
Wh ich
S upp
M on
M en
Ġt anks
Ġsec ured
Ġpregn ancy
Ġmet h
Ġincor rect
Ġgrab bed
Ġfl avor
Ġatt ach
Ġann ually
ĠW ire
ĠN orm
ĠMedic are
ĠMay weather
ĠF a
ĠB B
ĠAn im
Ġ19 30
Ġ19 20
t est
s ize
r in
om ach
ke ys
h ist
am an
Th rough
F S
C ar
Ġtw ist
Ġreb el
Ġpain ted
Ġp osed
Ġp ione
Ġmand ate
Ġm ales
Ġlast ed
Ġkill s
Ġfr ank
Ġfl esh
Ġeth ics
Ġbr anches
Ġalt ogether
ĠStew art
ĠS oul
ĠS N
ĠPlay er
ĠN ap
ĠIn n
ĠF ind
g ence
augh ters
ag ine
Russ ian
Ob ama
M et
. ]
Ġtravel ed
Ġtheore t
Ġsec rets
Ġsc ary
Ġs heriff
Ġrepl acing
Ġrep osit
Ġhe aven
Ġd iver
ĠT able
ĠSh ah
ĠR ap
ĠNot hing
ĠMedic ine
ĠJim my
ĠAgain st
Ġ6 3
Ñ Ī
win ning
ut t
p ublic
is ive
all ow
a very
Ġunnecess ary
Ġswim ming
Ġsqu ee
Ġsn aps
Ġres ort
Ġrein for
Ġprocess or
Ġl iver
Ġinst antly
ĠiP ad
Ġh ier
Ġexperien cing
Ġexch anges
Ġed ited
Ġdis g
Ġcomp r
Ġc ooking
Ġbuild s
ĠUn iverse
ĠStud ents
ĠRed dit
ĠP interest
ĠMot or
ĠL ady
ĠFor mer
ĠD a
ĠCamp bell
w he
ra h
ol k
ia o
d rop
b et
T R
ĠÐ º
Ġtem plate
Ġtechn ically
Ġste ep
Ġre un
Ġor bit
Ġfrust ration
Ġfocus es
Ġdistur bing
Ġceleb ration
Ġaltern atives
ĠW rit
ĠT un
ĠStud y
ĠStan ley
ĠS ox
ĠQue bec
ĠIm p
ĠI V
ĠHis pan
ĠD NC
ver ning
u v
ro se
pl ing
im s
ic ut
ab l
( '
Ġsu its
Ġsl ower
Ġs izes
Ġremind ed
Ġrec y
Ġr ushed
Ġprov incial
Ġpress ed
Ġpre ference
Ġpl acing
Ġp ile
Ġmiss iles
Ġm ild
Ġinfect ed
Ġf ierce
Ġdefend ants
Ġdec iding
Ġcrowd s
Ġcontro ller
Ġcle ver
Ġc rown
ĠW inter
ĠV ik
ĠSal v
ĠQu est
ĠPhot os
ĠK al
ĠCommun ications
ĠBloom berg
ĠB C
ĠAnt i
ĠAn na
Ġ198 8
Ġ( -
Ð¸ Ð»
Î¿ Ïħ
v ious
th a
s ign
out heast
iz ations
it ative
es ity
b u
Ġwhe els
Ġsp y
Ġpure ly
Ġprov isions
Ġpat rol
Ġminor ities
Ġlapt op
Ġim aging
Ġf urn
Ġe arl
Ġbe ef
ĠRo ose
ĠR angers
ĠC ry
vel t
ple x
or ical
n or
lect ed
T HE
AT ION
Ġv ague
Ġtob acco
Ġrel ating
Ġprotect ions
Ġpresum ably
Ġlike lihood
Ġind ication
Ġinc ons
Ġdist inction
Ġconst rain
Ġbreat hing
Ġbel oved
ĠN ash
w au
sh ow
med ia
m aster
l ink
j an
ch arge
U sing
B ar
Ġst ressed
Ġrum ors
Ġrep ly
Ġre hab
Ġparam eters
Ġpan ic
Ġout right
Ġinv ented
Ġin mates
Ġhost ing
Ġfac ial
Ġdisappoint ing
Ġcrypt ocur
Ġcomm od
Ġact ress
ĠT ampa
ĠSum mer
ĠSpir it
ĠSpe aker
ĠGr iff
ĠF DA
Ġ) ;
Ġ ^
w en
th ouse
ol er
appropri ate
C O
Ġre wards
Ġpra ise
Ġjust ified
Ġdetect ed
Ġdesk top
Ġcry ing
Ġcolle ague
Ġbit ter
Ġarrest s
Ġaff air
ĠW ol
ĠVict or
ĠTai wan
ĠK it
ĠG ene
ĠCub a
ĠCro at
ĠColumb us
ĠB ah
w al
ur able
umbl r
uk i
out ing
d ale
P ress
N EW
2 000
Ġver dict
Ġthrow s
Ġsp ray
Ġres erve
Ġover d
Ġmod er
Ġlicens ed
Ġgr ants
Ġdec ides
Ġdark ness
Ġatt orneys
Ġass ured
Ġannoun cing
ĠOrgan ization
ĠJ en
ĠH app
ĠH ait
ĠG ill
ĠDe ep
ĠB und
Ġ198 1
vis or
ud ge
r ons
inc inn
in itely
fl ow
N ET
M edia
Ġvari ables
Ġsusp icious
Ġstruct ural
Ġlibert arian
Ġlect ure
Ġking dom
Ġinstru ments
Ġgener ating
Ġfund ament
Ġfire arms
Ġexp ed
Ġdisp os
Ġdemonst ration
Ġcon j
Ġcomput ing
Ġcolon ial
Ġche er
Ġattend ance
ĠT odd
ĠPatri ots
ĠH at
ĠGr ant
ĠFin ancial
ĠC u
ĠArk ansas
Ã º
ok er
it ivity
g ments
g iving
ac er
K K
Ex pl
D R
Ġvar iation
Ġun ity
Ġrespond ents
Ġprot otype
Ġplan es
Ġperm its
Ġin eff
Ġev ac
Ġemer ge
Ġcommission er
Ġcertific ate
Ġad ap
ĠSm art
ĠGl ass
ĠF OR
ĠCh and
ruct ive
rop olitan
re nder
m ie
incinn ati
cur rency
con nect
ation ally
B ig
ADVERTIS EMENT
Ġthere by
Ġspons ored
Ġsent ences
Ġs illy
Ġpsych ology
Ġprohib ited
Ġo h
Ġkn ife
Ġj ew
Ġinv ite
Ġinstall ation
Ġher itage
Ġfire f
Ġfast est
Ġfar ms
Ġf illing
Ġedit ors
Ġdeploy ment
Ġart if
ĠPol ish
ĠP el
ĠMer kel
ĠM C
ĠCh all
ĠC BC
ĠAir port
ĠA ve
Ġ198 4
wau kee
um i
uc le
se ud
run ner
own ers
o ven
ig inal
cont rolled
claim ed
c ount
b ach
atter y
arg et
St ation
S ometimes
P T
F ig
Ġsuit able
Ġpre st
Ġple aded
Ġmon sters
Ġhigh way
Ġgrow s
Ġgreen house
Ġd irt
Ġcompl iance
Ġcat ast
Ġas h
Ġapp lying
ĠSe ah
ĠRem ember
ĠK night
ĠGu ide
ĠF oster
ĠEff ect
ĠBuff alo
Î ®
z es
on i
ig hed
f old
er r
ay ing
Ur l
Ġwild life
Ġwel comed
Ġunderstand s
Ġtun nel
Ġsmart phones
Ġres igned
Ġrep ublic
Ġrec ession
Ġpray er
Ġpr icing
Ġpop ul
Ġinvest or
Ġindepend ently
Ġhack ers
Ġha bits
Ġglass es
Ġexc itement
Ġdiv ide
Ġdecl are
Ġconvers ion
Ġc ents
Ġbu zz
Ġaccount able
Ġa ide
ĠUnivers al
ĠK u
ĠBe ing
Ġ ).
âĶ Ģ
su its
pro duct
n ormal
l oe
it le
ig nt
b ot
E uro
E ng
Ġwhist le
Ġw ishes
Ġtong ue
Ġto y
Ġstun ning
Ġret reat
Ġparliament ary
Ġover sight
Ġide ological
Ġhe nce
Ġh ill
Ġg aining
Ġfin ancing
Ġexcept ions
Ġelder ly
Ġeconom ist
Ġdiagn osed
Ġcontact s
Ġbar riers
Ġadm its
Ġadm ission
ĠSer ge
ĠS O
ĠPro gress
ĠMad rid
ĠLiber ty
ĠCongress ional
ĠBut ler
op t
onom ic
not e
iz able
f ive
ch arg
Go ogle
ĠÂ ©
Ġt rop
Ġstrong est
Ġs ons
Ġmortg age
Ġlack ing
Ġf itness
Ġcount ies
Ġavo ided
ĠSaf ety
ĠS ide
ĠRoose velt
ĠPlan ned
ĠOl iver
ĠN DP
ĠL uck
ĠL ions
ĠL ad
ĠI ss
ĠDou g
Ġ198 2
Ġ14 0
Î¹ Îº
Ã £
} ,"
uss ion
s im
im age
S everal
Rep ublic
Ġur ging
Ġsl ip
Ġqu ery
Ġpurch ases
Ġlegisl ature
Ġdivor ce
Ġchemical s
Ġadequ ate
Ġadapt ation
ĠR aid
ĠMag azine
ĠK rist
ĠHawai i
ĠF at
ĠE th
ĠD est
ĠD E
ĠCirc uit
ĠBrad ley
Ġ7 9
wr itten
spec ific
re r
play ing
ow ell
op ard
ignt y
g ium
ess ional
ank ing
Wh ite
John son
G reen
Ġto ys
Ġsup rem
Ġst ab
Ġshif ted
Ġsh y
Ġscream ing
Ġref using
Ġparticip ated
Ġp ension
Ġimm ense
Ġgif ts
Ġesc aped
Ġemot ion
Ġdo se
Ġd ys
Ġclim b
Ġclean ing
Ġcap ability
Ġbl ess
Ġadvant ages
ĠU ntil
ĠS wit
ĠS H
ĠPort ug
ĠMem orial
ĠKir k
ĠEnvironment al
ĠCam bridge
ĠBet ter
ĠB uilding
w hen
f ly
act ory
F ord
ĠÐ ±
Ġt une
Ġroutine ly
Ġrepe al
Ġrec alls
Ġpros per
Ġpe ers
Ġpassion ate
Ġorganis ations
Ġle verage
Ġinter rupt
Ġhe aling
Ġgro cer
Ġens uring
Ġearn ings
Ġdem ol
Ġcy cling
Ġc ub
Ġa ired
ĠU I
ĠO scar
ĠNe il
ĠL ocal
ĠK am
ĠInt erest
ĠCow boys
ĠConnect icut
ĠChristian ity
ĠAtt ack
Ġ6 1
Ð¾Ð ²
uer to
st ock
ric ane
point s
pe red
m un
l ib
is ode
e ment
arm a
ank a
ab ling
K E
Ġwa ited
Ġur ge
Ġtra its
Ġtou ched
Ġten ure
Ġshould ers
Ġs our
Ġrub ber
Ġreal m
Ġf ond
Ġenfor ce
Ġenc ount
Ġen ables
Ġdiscipl ine
Ġd angers
Ġbreak down
Ġanim ated
ĠTit le
ĠSil icon
ĠShe l
ĠS i
ĠPr inc
ĠP arenthood
ĠM ind
ĠH BO
ĠD ate
ĠCh ron
ĠBar ry
Ġ7 00
Ġ3 000
Ġ198 5
}, {"
urn ed
oc ide
ne red
em et
e ast
att ed
ath on
as se
ard ing
W AR
F T
C le
AS T
Ġwid th
Ġun anim
Ġto oth
Ġter rain
Ġt urb
Ġsocial ist
Ġsh ar
Ġsatisf ied
Ġp ipe
Ġle ather
Ġisol ation
Ġhy brid
Ġhear ings
Ġflex ibility
Ġexp end
Ġencount ered
Ġelect rical
Ġdam aging
Ġcount ed
Ġcontain er
Ġclass room
Ġbutt ons
Ġbound aries
Ġaud iences
Ġaddress ing
ĠRod rig
ĠHol mes
ĠG O
ĠF ried
Ġ198 3
Ã Ĥ
w art
ull ivan
t ail
sh ot
roll er
ro t
resp ons
p ur
oph ren
op en
iz ophren
ier ra
ec hes
b ably
Ġtempor arily
Ġst omach
Ġspec ified
Ġsk et
Ġpur suit
Ġmanufacture r
Ġinvest ing
Ġhistor ically
Ġfro zen
Ġfle w
Ġdraw s
Ġbelie ving
ĠS M
ĠPe ace
ĠMc N
ĠM ission
ĠIslam ist
ĠFO X
ĠF if
ĠCorpor ation
Ð¾Ð ¼
writ er
ug s
ra pe
or ate
ol an
min ation
ll ers
be it
atic an
ab y
Gener al
AC K
? '
Ġwe aken
Ġsupp ose
Ġsp are
Ġp ays
Ġmon op
Ġment ally
Ġed ges
Ġdis pro
Ġcred ibility
Ġcomple tion
Ġcollect ing
Ġcitizens hip
Ġanticip ated
ĠProf ile
ĠMet hod
ĠLeg isl
ĠEv ans
ĠDougl as
ĠB ond
ĠAd vent
ĠA wards
âĢ¦ âĢĿ
ic he
ch air
H ist
B ron
A ug
Ġunve iled
Ġund ers
Ġtut orial
Ġtransform ation
Ġtable t
Ġpredict ions
Ġoverl ook
Ġnegoti ate
Ġimag ined
Ġh ij
Ġgar b
Ġf art
Ġentreprene urs
Ġdesc ript
Ġcult iv
Ġaw a
Ġalbum s
Ġab ol
ĠVer izon
ĠRob in
ĠG B
ĠF le
ĠAr ctic
ut o
st ep
keep er
it ic
h aul
ble m
W ar
T witter
N G
L O
I d
Ġunf ortunate
Ġunder mine
Ġtour ist
Ġst abil
Ġsovere ignty
Ġsl avery
Ġpre liminary
Ġmechan ical
Ġliter ary
Ġinst ruction
Ġident ification
Ġhead line
Ġhat red
Ġh ors
Ġfree ly
Ġer r
Ġdefend ers
Ġcross ing
Ġcast ing
Ġbreak fast
Ġadv ances
ĠT u
ĠSteven s
ĠRog er
ĠPet ers
ĠMor ning
ĠM ack
ĠL em
ĠG arden
ĠEb ola
ĠC incinnati
ĠBe at
ĠB aker
ĠB agh
Ġ197 9
sc he
g i
elt a
cont rol
c d
c al
b ul
av i
T ur
Rich ard
F igure
Ġtri umph
Ġtext s
Ġsequ el
Ġrom antic
Ġregul ators
Ġpursu ing
Ġpen alties
Ġhonest ly
Ġg ambling
Ġeconom ies
Ġdifficult ies
Ġdel ays
Ġcount ing
Ġconsist ency
Ġagric ultural
ĠPr in
ĠN O
ĠL oc
ĠHigh way
ĠCom merce
ĠCal gary
ĠC reek
ĠBer keley
ĠAbb ott
ĠAb d
ul ative
r ust
od a
emet ery
ell a
d am
G T
.... ....
Ġz omb
Ġw rapped
Ġvill ages
Ġsty les
Ġspect acular
Ġpre view
Ġnon profit
Ġliber ty
Ġl aser
Ġinter rog
Ġins ult
Ġgo verning
Ġdecre ased
Ġcons ervation
Ġcirc les
Ġch ampions
Ġc auc
Ġafter math
ĠSen ior
ĠSC O
ĠL l
ut ical
pro t
oll ah
l ocal
il ateral
iff erent
est one
ck er
b row
RE L
D I
A ust
20 17
Ġtw elve
Ġrif le
Ġprint ing
Ġmake up
Ġmagn etic
Ġle aks
Ġfle et
Ġcreat ors
Ġcre ep
Ġcor ners
Ġconclud e
Ġarrange ment
Ġapp eals
ĠT s
ĠT reat
ĠSeah awks
ĠSc ar
ĠR ah
ĠPhilipp ines
ĠPal mer
ĠNorwe gian
ĠM orm
ĠL iving
ĠJ a
ĠH R
ĠE rd
ĠChe m
we alth
sp ace
mind ed
ernand ez
aw s
are z
an ia
T ype
S ur
O A
N ever
N T
G iven
Ġun h
Ġt ang
Ġout er
Ġmut ual
Ġm ph
Ġlist ing
Ġfe ared
Ġenjoy ing
Ġcomp os
Ġb ust
Ġabs ent
Ġa est
ĠWar riors
ĠS ong
ĠS EC
ĠPl at
ĠLyn ch
ĠLaw rence
ĠF el
ĠBr and
umb ling
ser ver
p in
ov ie
go vernment
ect ed
ch a
b art
Ġwor ship
Ġwarn ings
Ġmathemat ics
Ġinst itutional
Ġins ane
Ġin du
Ġf ru
Ġf iber
Ġearl iest
Ġdep ict
Ġcr ude
Ġcons iders
Ġachieve ment
ĠT oy
ĠT ig
ĠT her
ĠStud io
ĠMil waukee
ĠL ives
ĠCo hen
ĠC rit
ĠC G
ĠAgree ment
Ġ Ñĩ
Ðµ ÑĤ
se lling
n ut
m outh
e u
d ec
az y
Ref erences
= âĢĿ
Ġprocess ed
Ġl au
Ġgr asp
Ġden ial
Ġdem on
Ġcorpor ation
Ġconsult ant
Ġcomp osed
Ġaccept ance
Ġ[ -
ĠWik ipedia
ĠWat son
ĠV atican
ĠTrib une
ĠPost s
ĠM ason
ĠK as
ĠI b
ĠFl ash
ĠEd itor
ĠDo ctor
ĠChance llor
ĠBro s
Ġ7 7
Ġ1 10
Ã© e
se arch
om er
od ge
k ind
ir able
bs ite
S et
D el
Ġtransl ation
Ġtr agic
Ġspark ed
Ġshoot ings
Ġscreen ing
Ġpow der
Ġobs ervation
Ġlin ear
Ġlicens ing
Ġinev itably
Ġfin an
Ġf ence
Ġex agger
Ġe ars
Ġd ash
Ġcomment ed
Ġclim bing
Ġcal endar
Ġbal anced
Ġb atch
Ġaccomp any
ĠZ immer
ĠT ory
ĠSp ider
ĠO d
ĠMedic aid
ĠGl enn
ĠDe al
ĠCh ile
ĠCent ury
ĠC a
ĠA th
ter ior
her ic
f in
alk ing
ain er
D ec
!! !
Ġyour s
Ġwal let
Ġtack les
Ġt el
Ġsuspic ion
Ġrevel ations
Ġpath s
Ġp airs
Ġmeasure ments
Ġlack s
Ġharm ful
Ġfundra ising
Ġflo ating
Ġex empt
Ġd ated
Ġconv inc
Ġc am
Ġbre ed
Ġbed room
Ġatt ributed
ĠWith in
ĠM atter
ĠLe v
ĠJ oh
ĠHot el
ĠD iamond
ĠD M
ĠChrist ie
ĠC ut
ĠAl aska
ÃŃ a
un a
as m
T or
R O
AL L
A lex
ĠÃ ¾
Ġw ounds
Ġun re
Ġtri ple
Ġtr icks
Ġsh ore
Ġsac rific
Ġremind er
Ġref lection
Ġp ants
Ġoper ational
Ġobject ives
Ġinn ings
Ġhope ful
Ġh ike
Ġend less
Ġd aughters
Ġcollaps ed
Ġcart oon
Ġboy friend
Ġb rave
ĠPict ures
ĠMod ern
ĠK le
ĠI BM
ĠFrank lin
ĠE ss
Ġ 00
umb led
u u
t ics
p owered
lev ant
g ree
c at
ar c
N orth
Ġz ones
Ġveget ables
Ġtre asure
Ġsurviv ors
Ġst ocks
Ġreveal ing
Ġpit cher
Ġme als
Ġle af
Ġimplement ing
Ġgrand mother
Ġdis orders
Ġdecl aration
Ġcomp assion
Ġclick ing
Ġblood y
Ġbehavi ors
Ġarr anged
Ġappeal ing
Ġag greg
Ġadjust ed
ĠWal ter
ĠS elf
ĠR ou
ĠMc Donald
ĠLuc as
ĠL ess
ĠG onz
ĠDr ag
v ar
ro lling
rem lin
per ial
or ph
ne ath
n ia
h ak
ant o
ank ed
R T
Every one
Ġsupport ive
Ġspecial ist
Ġsl ave
Ġsh orter
Ġsh aped
Ġro d
Ġprec ious
Ġport fol
Ġne at
Ġn ons
Ġm erc
Ġfem ales
Ġdirect ory
Ġde ce
Ġcred ible
Ġcred ential
Ġcomm em
Ġcapital ist
ĠUr ban
ĠSwit zer
ĠS omething
ĠK yle
ĠBarb ara
ĠB ird
ĠB ash
ĠArt icle
Ġ7 4
ur ities
st r
l ash
ip her
he lp
f our
b uild
an ium
J ames
Ġw ip
Ġtransform ed
Ġrel ies
Ġrecru iting
Ġrec ount
Ġpract ically
Ġopp ression
Ġobs erve
Ġoblig ation
Ġlyr ics
Ġlobb ying
Ġless er
Ġfail ures
Ġexplo it
Ġeduc ated
Ġdetermin ation
Ġconduct ing
Ġb ite
Ġassum ing
Ġassass ination
ĠSoft ware
ĠP ok
ĠMS NBC
Ã£ o
ur se
ugg ed
ub Med
p se
p ot
it is
id ays
ed y
cul us
ch ron
c rat
aff e
St art
P ut
C S
A ng
Ġwor n
Ġun le
Ġtrig gered
Ġtouchdown s
Ġthreat en
Ġth irty
Ġtem ple
Ġshe er
Ġretail ers
Ġrank ings
Ġr iot
Ġp ist
Ġmass es
Ġins urg
Ġgenuine ly
Ġfound ing
Ġfin als
Ġdestro ying
Ġcelebr ating
Ġb icy
Ġavoid ing
Ġaut ism
Ġatt itudes
Ġaggress ion
ĠSh i
ĠP uerto
ĠJ u
ĠJ ets
ĠGr ay
ĠGl obe
ĠE arly
ĠCl oud
ĠBang l
ĠBM W
ĠB ased
ĠB Y
Î± Î¹
un ning
p it
oc ate
ios ity
in ate
head ed
ers ion
ad vant
U M
Ġwilling ness
Ġunder way
Ġtrans f
Ġse ct
Ġob esity
Ġn ost
Ġmag ical
Ġlength y
Ġins ure
Ġestabl ishing
Ġes p
Ġenh anced
Ġcult ures
Ġcl uster
Ġcasual ties
Ġcare ers
Ġbe ers
Ġarriv ing
ĠU RL
ĠSp ot
ĠSh ield
ĠP ast
ĠCapt ion
ĠC ass
z ech
rodu ction
p ing
m ons
h ave
f s
ere r
c ond
ace utical
T ex
P J
L ine
( "
ĠÏ ĥ
Ġtrad itionally
Ġsubsc ription
Ġstre ak
Ġsam mie
Ġsac red
Ġpres crib
Ġpen et
Ġp orts
Ġnegoti ating
Ġmagn itude
Ġinteract ive
Ġflu id
Ġeconom ists
Ġd ensity
Ġcomp aring
Ġch amber
Ġbet ray
Ġautonom ous
Ġautom ated
ĠTra il
ĠRub io
ĠPlan et
ĠPhot ograph
ĠMor ris
ĠM erc
ĠHud son
ĠBl u
Ġ18 0
ort heast
on ia
mar ks
l av
it ated
h ome
gg le
f ed
ent ry
c end
ard less
W H
Ġthorough ly
Ġtend ency
Ġswit ched
Ġre cept
Ġout break
Ġor g
Ġn ull
Ġm ock
Ġlim iting
Ġlabor atory
Ġlabel ed
Ġhighlight ed
Ġh alt
Ġgu ilt
Ġexha ust
Ġd iox
Ġcon cess
Ġcol leges
Ġchart s
Ġb oring
Ġb inding
Ġalph a
Ġaccur ately
ĠS as
ĠRog ers
ĠPri ze
ĠKe ith
ĠJenn ifer
ĠFest ival
ĠE mb
ĠDef ence
ĠBel gium
r ane
m n
lam m
j ira
bor ough
b ucks
W ork
C D
Art icle
Ġterrit ories
Ġst ays
Ġsoon er
Ġshif ts
Ġsch izophren
Ġsan ct
Ġres ur
Ġr am
Ġpe oples
Ġorgan izing
Ġn an
Ġline back
Ġlaw suits
Ġgr ace
Ġf u
Ġexhib it
Ġdisp ens
Ġdet ection
Ġdam ages
Ġc her
Ġb ikes
Ġath lete
ĠSub scribe
ĠSte in
ĠSt orm
ĠMad ison
ĠM ust
ĠM O
ĠLa ure
ĠBrazil ian
Ñģ ÑĤ
s chool
rib ly
ri ages
pl an
op es
ia h
az ines
Russ ia
IV E
F ree
F our
Ġwh ites
Ġtr ash
Ġshif ting
Ġsepar ation
Ġsammie pie
Ġsal v
Ġregul ate
Ġme g
Ġliber als
Ġindic ating
Ġimp ress
Ġident ifying
Ġevolution ary
Ġeval uate
Ġdoctr ine
Ġdesign ers
Ġd ancing
Ġassum ptions
Ġarrange ments
Ġab ort
ĠW ang
ĠS old
ĠS ay
ĠQ B
ĠPh one
ĠPal ace
ĠLeg end
ĠE X
ĠDep uty
ĠC arr
ĠBl air
ĠBe h
ĠA w
ãĢ Ĥ
Â »
ugg ing
s k
m ount
iss ues
h ole
h ol
ear chers
c ific
ag raph
OM E
******** ********
Ġv ibr
Ġtu ition
Ġtoler ance
Ġple a
Ġp seud
Ġli ability
Ġhapp iness
Ġgen et
Ġe ighth
Ġe go
Ġcost ly
Ġcomp osition
Ġcomp ly
Ġcat ches
Ġcap s
Ġarch ive
ĠS pect
ĠOper ation
ĠM agn
ĠI l
ĠH ills
ĠGib son
ĠFr an
ĠC M
Ġ6 9
Ġ19 40
Ð¾Ð ³
Ðµ ÑĢ
w id
st age
os ures
ll i
c ard
al an
ace y
S outh
Ġve gan
Ġtransl ated
Ġtour ism
Ġteen age
Ġproblem atic
Ġmisc onduct
Ġlif ted
Ġins ists
Ġfeed ing
Ġedit ing
Ġcr icket
Ġcr ashed
Ġcorrespond ing
Ġbr ush
Ġarriv es
Ġar che
ĠS emin
ĠN ex
ĠMil itary
ĠL ock
ĠBagh dad
Ġ9 11
Ġ3 60
st art
pe ople
ott om
m ant
c s
ac ious
ac ies
IT Y
I an
I E
H D
1 000
Ġvacc ine
Ġorgan ize
Ġnavig ate
Ġmeas uring
Ġl oving
Ġinf er
Ġh oly
Ġg ard
Ġflood ing
Ġfl owers
Ġdef ic
Ġd airy
Ġcomp ound
Ġcomp iled
Ġcoc aine
ĠW R
ĠUp date
ĠSh an
ĠSci ences
ĠS earch
ĠR ams
ĠM ort
ĠM itt
ĠM VP
ĠL isa
ĠL ED
ĠCast ro
ĠBl ues
x x
ung le
p es
or ity
ond e
m ap
icial s
i ology
dri ven
accept able
U E
Su per
S and
H L
Ġvir al
Ġtermin al
Ġsubject ed
Ġsevere ly
Ġse w
Ġrest ored
Ġpat ience
Ġp ound
Ġp izza
Ġoutl ined
Ġorganiz ers
Ġoptim istic
Ġmar ry
Ġimmig rant
Ġhel met
Ġgr ay
Ġdesper ately
Ġdefend ant
Ġbroad band
Ġatt ributes
Ġap ology
Ġaccommod ate
ĠMon th
ĠL td
ĠEm ily
ĠE S
ĠCommun ist
ĠBr ady
ous ing
ir ation
ib e
gu ard
Whe ther
F ile
ĠÎ ¼
Ġy ard
Ġsucceed ed
Ġsubstant ially
Ġstr ings
Ġspe eches
Ġskept ical
Ġse ctors
Ġse am
Ġprem ier
Ġpe pper
Ġl ately
Ġk ernel
Ġinter pre
Ġinf lic
Ġimag ination
Ġfin es
Ġess ay
Ġelabor ate
Ġcreat ivity
Ġcontinu ous
Ġb out
Ġair line
Ġadd iction
ĠTh or
ĠTO DAY
ĠSur v
ĠSud an
ĠS ex
ĠJ ar
ĠIce land
ĠI Q
ĠGall ery
ĠG reens
ĠF ac
Ġ7 8
Ġ197 3
ur i
un s
st at
rep resent
qu ality
op ular
ne ver
n esty
app ro
am o
ag ging
V al
OR K
G M
D oes
C ity
Ġsw ift
Ġsubscrib ers
Ġsub mar
Ġsp ur
Ġprop osition
Ġnight mare
Ġinter ference
Ġincl usion
Ġgrav ity
Ġgovern ance
Ġfan cy
Ġexam ination
Ġeval uation
Ġdiscl ose
Ġdem o
Ġconsequ ence
ĠY ah
ĠV ery
ĠT ill
ĠSw iss
ĠSt op
ĠN ancy
ĠLeban on
ĠIn valid
ĠB us
ĠArmen ia
Ħ ¢
oul os
ord able
ong o
iz ard
ist ani
i ary
i ability
ak y
S ign
Re illy
R ober
M ake
Ġwond ered
Ġwar fare
Ġvis a
Ġun limited
Ġshut down
Ġprotect ive
Ġoff shore
Ġoccur ring
Ġmis leading
Ġloc ally
Ġin ch
Ġgr am
Ġgl ob
Ġfrust rating
Ġext ends
Ġdoub led
Ġdon ate
Ġdiagn osis
Ġcat al
Ġc ord
Ġbe ats
Ġbankrupt cy
Ġac res
ĠTe a
ĠSt ars
ĠS essions
ĠNe g
ĠCoun ter
âĢ ĭ
ra e
r idge
qu iao
put ed
ov ic
ill o
cc a
ament o
ade qu
] ,"
Ex p
Euro pe
C ode
Ġwork force
Ġtroub led
Ġtoile t
Ġresign ation
Ġrender ing
Ġprob ability
Ġp ub
Ġnom inated
Ġmill enn
Ġjump ing
Ġintent ions
Ġincent ives
Ġhon our
Ġfil ming
Ġess ence
Ġdu o
Ġdirect ive
Ġcrowd ed
Ġback lash
ĠYan kees
ĠPlay Station
ĠNiger ia
ĠK ind
ĠHe zb
ĠGood man
ĠCh arg
ĠC ele
ĠBook s
ubl in
res pect
r int
inf o
imens ional
ig a
he w
ast ically
ag ged
RE AD
ING TON
G od
Ġup side
Ġunf old
Ġstrik er
Ġstrict ly
Ġspot light
Ġsound ed
Ġsn ap
Ġreg ards
Ġr ated
Ġmidfield er
Ġlaugh ing
Ġl oses
Ġl aug
Ġinter section
Ġeru pt
Ġdiox ide
Ġdele ted
Ġch ains
Ġbar rier
ĠW orks
ĠSuper man
ĠRel ations
ĠCh loe
ĠBenn ett
ĠA qu
ð Ł
ph is
p rom
ot ton
l ies
izz ard
ip h
i ological
i ar
em pl
cul es
be an
at on
al ph
C R
Bon us
Ġtraff icking
Ġrenew ed
Ġr ushing
Ġqual ities
Ġpro xy
Ġp sy
Ġout ta
Ġnovel s
Ġloyal ty
Ġhypot hesis
Ġhung ry
Ġgar age
Ġg i
Ġfresh man
Ġfar ming
Ġembr aced
Ġdiscl osed
Ġdep os
Ġconsult ing
Ġconcent ration
Ġcompar able
Ġclos ure
Ġalgorith ms
ĠZ h
ĠT ob
ĠSe ven
ĠR ain
ĠL oad
ĠH P
ĠG ear
Ġ7 3
Ġ1 30
Ñĥ Ð
ul ent
pp ers
pl ess
p ace
ount y
oub ted
op ing
let ter
is ers
am ation
ah a
S D
P ar
IL L
F I
E van
B E
Ġsp ends
Ġshort age
Ġrev ised
Ġpre y
Ġp ink
Ġinter medi
Ġign oring
Ġfil med
Ġemb assy
Ġd ivers
Ġclass ical
Ġcar riers
Ġbusiness man
Ġbus es
Ġbenef icial
Ġam end
Ġag rees
Ġafter wards
Ġacqu ire
ĠWW E
ĠR oom
ĠPal m
ĠN ixon
ĠLu is
ĠL en
ĠK arl
ĠIndones ia
ĠGer mans
ĠDou ble
ĠD in
ĠCh rome
ĠB ol
ĠB elt
Ġ7 1
Ġ197 8
van ced
ry ption
red ict
pr ises
ing ing
e or
b ad
ask et
ai res
ack er
U ntil
M in
C opyright
Ġve to
Ġun success
Ġste pping
Ġres erves
Ġred ist
Ġpurch asing
Ġperman ently
Ġn ob
Ġmod es
Ġmist aken
Ġmet a
Ġle ase
Ġlaug hed
Ġin ac
Ġgl ory
Ġfr action
Ġdesc end
Ġcan cel
Ġal arm
ĠSm all
ĠR t
ĠG ohan
ĠG ive
ĠCamp aign
ĠB ers
â Ĥ¬
Å ¡
s pr
r ams
ong es
arth y
are st
angel ical
ail and
O ST
Ġwh ilst
Ġvert ical
Ġt ribute
Ġsur render
Ġren ov
Ġrel ate
Ġredu ces
Ġreason ably
Ġmos que
Ġmag azines
Ġm aker
Ġlay out
Ġflaw ed
Ġdomin ate
Ġdis advant
Ġclar ity
Ġcatch ing
ĠZ ero
ĠR osen
ĠPl ant
ĠMarg aret
ĠL ic
ĠK or
ĠHom eland
ĠG az
ĠG ate
ĠFin ance
ĠC T
ĠAlp ha
ĠA y
Ġ( Â
Ã¶ r
y ang
ur ry
th irds
qu al
p d
on el
om es
ith ub
h um
en cer
at re
at ile
ane ous
S er
NA c
M icro
B R
200 8
Ġwhe at
Ġun ch
Ġult ra
Ġstraight forward
Ġpresident s
Ġpl ates
Ġlove ly
Ġle ap
Ġimport s
Ġfor ums
Ġem pire
Ġdign ity
Ġcon vey
Ġart ic
ĠJohn ny
ĠD or
ĠC rown
ĠC R
ul ates
t able
sh irt
oubted ly
ming ham
ion ed
ic ians
ias m
ent ions
d ig
const itutional
Will iam
Rem ember
OR T
L ooking
H ill
Ġvig il
Ġteen agers
Ġtaxpay er
Ġsolid arity
Ġshe d
Ġprem iere
Ġname ly
Ġlegisl ators
Ġl un
Ġl ake
Ġin appropriate
Ġfinan cially
Ġban ner
ĠT an
ĠSch olar
ĠN ame
ĠLiber als
ĠHar vey
ĠDen mark
ĠCarl os
ĠBrook s
Ġ197 7
z o
se mble
s ource
ron es
ri o
ott o
o ard
it bart
im er
eal ous
c ill
ap ache
ab a
W orld
B uy
Americ ans
Ġvend ors
Ġvac ation
Ġsovere ign
Ġrun ner
Ġpred omin
Ġp ale
Ġnot orious
Ġmatch ing
Ġmaintain s
Ġl ips
Ġintention ally
Ġinject ion
Ġind irect
Ġgr at
Ġforth coming
Ġfirm ly
Ġfemin ist
Ġfam ously
Ġdiff er
Ġdelic ious
Ġaccount ing
ĠSch umer
ĠM ob
ĠHall ow
ĠF CC
ĠD u
ĠCr ash
ĠBoy s
ĠA x
â Ħ¢
m os
m ile
itt ees
id ges
he alth
et ition
est a
clus ive
J ack
F eb
Ġwithdraw al
Ġunder neath
Ġun st
Ġt ub
Ġsurve ys
Ġsub t
Ġsp ill
Ġsl aves
Ġres ume
Ġregul ated
Ġpredec essor
Ġpre jud
Ġout door
Ġoblig ations
Ġnation ally
Ġm ixture
Ġm g
Ġh ind
Ġgall ery
Ġequ ation
Ġden ying
Ġdeal ers
Ġcelebr ity
Ġaffect ing
Ġachie ving
ĠT roy
ĠSus an
ĠSt ream
ĠSpe ed
ĠRes ources
ĠP ad
ĠN EW
ĠM all
ĠJ un
ĠHind u
ĠDub ai
ĠD awn
ĠD anny
ĠCle an
ĠBet ween
ĠA my
Ġ197 5
Ġ10 1
Ġ0 8
Î ³
p arent
miss ions
is cher
en abled
ed e
com pass
ab el
T able
OR G
H igh
G R
AF P
Ġsexual ity
Ġroll s
Ġred e
Ġreb ell
Ġre iter
Ġpro x
Ġpar ade
Ġlegend ary
Ġlack ed
Ġkill ings
Ġind ef
Ġinc umb
Ġgod s
Ġgam ers
Ġde er
Ġch ase
Ġbrief ing
Ġaud it
Ġanonym ity
Ġal tered
Ġa ug
Ġa qu
ĠVill age
ĠVenezuel a
ĠT ry
ĠOcc up
ĠN obody
ĠL ion
ĠK el
ĠH um
ĠH ans
ĠAl f
Ġ8 2
Ġ( +
ric ulum
ri pp
k h
j i
f alse
at ers
Q aeda
P ower
Can ada
Ġves sel
Ġst er
Ġspir its
Ġsh ipped
Ġsa ves
Ġres erv
Ġp el
Ġoffer ings
Ġneur ons
Ġmanip ulation
Ġhors es
Ġh ood
Ġfacilit ate
Ġdig it
Ġdep riv
Ġb er
Ġad vers
Ġaccident ally
ĠSqu ad
ĠNew ton
ĠMcC l
ĠFire fox
ĠCost a
ĠCh ap
ĠB uild
ĠAct s
Ġ: :
Ġ197 4
Ġ ÑĢ
ut ing
s al
r ide
ool s
n ames
j ar
ir med
ind ex
form ing
ess age
am ples
M arch
Ġwood en
Ġwind s
Ġtra uma
Ġse aled
Ġobser vers
Ġn it
Ġmet res
Ġle agues
Ġl ined
Ġhard est
Ġembed ded
Ġd umb
ĠW r
ĠSam uel
ĠPer l
ĠP ed
ĠM B
ĠK remlin
ĠJ ake
ĠG host
ĠD ri
ĠCast le
ĠC her
ĠBull s
Ġ8 7
Ġ8 1
âĢĿ âĢĶ
v ol
te am
que z
orient ed
d imensional
ced es
ather s
Sh ield
S ar
PD F
Mus lim
As ked
": [
ĠÐ¿ ÑĢ
ĠÂ »
Ġvulner ability
Ġun rest
Ġtrad itions
Ġte ens
Ġst ark
Ġr ivers
Ġqu ad
Ġor che
Ġmurd ers
Ġmid night
Ġlist ened
Ġl anes
Ġintrodu cing
Ġinf amous
Ġgarb age
Ġbattle field
Ġart work
Ġanalys es
ĠWork ers
ĠV irt
ĠR ush
ĠR io
ĠQ atar
ĠPolit ical
ĠOr thodox
ĠMichel le
ĠML B
ĠM IT
ĠIn iti
ĠI C
ĠEl sa
ĠE ight
ĠB uzz
ĠAM D
ĠA ur
Ã¡ s
th ree
mont on
i pt
h ran
ell ar
br is
bl ack
ap hor
al so
ai ro
________________ ________________
Un like
Ph il
D ata
200 9
Ġtrans cript
Ġte aches
Ġsubscrib ing
Ġreason ing
Ġqu o
Ġportfol io
Ġpart ial
Ġlock er
Ġl uc
Ġfriends hip
Ġfl ower
Ġf ib
Ġelectron ics
Ġdiss ent
Ġd uck
Ġd ive
Ġcous in
Ġcontin ent
Ġconsider ably
Ġaver aged
ĠT D
ĠS ad
ĠRaid ers
ĠR y
ĠN in
ĠLaur a
ĠIs a
ĠHallow een
ĠH orn
ĠD ublin
ĠC arson
ĠC ant
ĠAss ange
ĠAr c
ĠAl bert
Â Ķ
ĺ ħ
s un
olph ins
oc c
le m
j e
ie ve
ic ons
ap y
U s
G reat
9 00
Ġwrest ling
Ġwork place
Ġvill ain
Ġth umb
Ġsk illed
Ġres id
Ġrel ied
Ġpart isan
Ġorgan isms
Ġmod ules
Ġlegit im
Ġg rey
Ġfact ories
Ġdetermin ing
Ġdeter ior
Ġconnect ing
Ġco at
Ġca res
Ġc ups
Ġarch ae
Ġan k
Ġad verse
Ġab uses
ĠTr uth
ĠT i
ĠS ierra
ĠRe ading
ĠR ound
ĠR AM
ĠProt est
ĠP in
ĠP ick
ĠJam ie
ĠF inn
ĠCons ervatives
ĠCl ar
ĠBron cos
ĠBe yond
ĠAm b
Ġ8 4
work ing
g ue
ew ay
ah n
In ter
ASH INGTON
Ġun cle
Ġto ken
Ġtax i
Ġswitch ing
Ġsomet ime
Ġreposit ory
Ġproceed ings
Ġpriv ately
Ġp m
Ġn ucle
Ġmilit ant
Ġment ions
Ġmar ine
Ġlic ence
Ġjust ification
Ġhun ger
Ġfunction ing
Ġf ict
Ġe leg
Ġcommit ments
Ġbi ology
Ġbelong s
Ġauthor ized
Ġastron aut
Ġanch or
Ġac ute
Ġa ston
ĠWal mart
ĠSur vey
ĠS olar
ĠL ane
ĠL an
ĠInvest ig
ĠC amb
ĠBangl adesh
ĠAl t
ĠA gr
Ġ196 7
âĶĢ âĶĢ
per or
lement ary
l at
h is
enn a
c ock
bl og
ay er
art isan
R iver
ĠÎ µ
Ġunl ock
Ġtw in
Ġt ier
Ġsoc ieties
Ġrespond s
Ġrap ed
Ġportray ed
Ġphysic ian
Ġnecess ity
Ġmusic ians
Ġmob il
Ġint act
Ġincent ive
Ġfundament ally
Ġexcept ional
Ġemot ionally
Ġdomin ance
Ġdisp utes
Ġd rown
Ġchem istry
Ġanaly ze
ĠMem bers
ĠJul ian
ĠHug hes
ĠD ise
ĠD ad
ĠD I
ĠContin ued
Ġ197 6
Ð¾Ð ´
Ã ¢
ve t
v iol
te lling
st ore
rain e
out ed
man uel
l augh
iss a
igg s
er ie
atern al
ar ming
ap or
M obile
D irect
AN K
Ġst icks
Ġreven ge
Ġpret end
Ġopt ed
Ġn urse
Ġn er
Ġmicro sc
Ġm amm
Ġhe d
Ġhack ed
Ġform ing
Ġfe as
Ġembarrass ing
Ġem power
Ġdecl ining
Ġcor rid
Ġconsum e
Ġan ime
Ġab used
ĠW oman
ĠW ATCH
ĠV i
ĠRod gers
ĠRe in
ĠJ obs
ĠEd ge
ĠC zech
ĠC and
ĠArch itect
uff icient
te ch
sp oken
qu atch
ett a
are tt
alth ough
ad ows
S I
P H
M I
M E
Le vel
Ġyoung est
Ġunc overed
Ġsymb ols
Ġsub mission
Ġse iz
Ġra ids
Ġo l
Ġmin ers
Ġm ature
Ġlast ing
Ġinhab it
Ġin adequ
Ġf itting
Ġf ame
Ġexpress ions
Ġexp ose
Ġdr illing
Ġcontrad ict
Ġc ab
Ġbillion aire
ĠTig ers
ĠT E
ĠSoc cer
ĠS F
ĠPet e
ĠConf ed
ĠAr n
us ions
uls ion
ri en
ol o
m or
brow se
b us
b ps
am as
T im
M al
H ead
A K
200 7
Ġworry ing
Ġsign atures
Ġrend ered
Ġprov ing
Ġprov es
Ġpresent ing
Ġpitch ing
Ġp ockets
Ġorgan ised
Ġn odes
Ġmass acre
Ġinter im
Ġin ex
Ġh ilar
Ġenthus iasm
Ġent ries
Ġdub bed
Ġdoub ts
Ġdemonst rates
Ġdefin ing
Ġconvinc ing
Ġcharacter ized
Ġb ind
ĠStar bucks
ĠRodrig uez
ĠRE M
ĠPolit ics
ĠPac quiao
ĠOx ford
ĠK um
ĠIsrael is
ĠIn side
ĠG rey
ĠFin als
ĠErd ogan
ĠE RA
ĠCrime a
ĠCitiz ens
ĠBrother s
ĠA ry
Ġ196 6
Ġ ì
sh aring
s is
port ant
ourn als
mid t
es is
M em
C our
Ġw reck
Ġtourn aments
Ġtest ify
Ġtact ical
Ġstimul us
Ġs om
Ġroy al
Ġret rie
Ġp add
Ġnew er
Ġloc als
Ġlif ting
Ġinter cept
Ġindict ment
Ġin hib
Ġhier archy
Ġhas h
Ġf t
Ġdisappoint ment
Ġcl ashes
Ġblog s
ĠW inn
ĠTh ailand
ĠTh ai
ĠSwitzer land
ĠSim ple
ĠR ule
ĠP ubl
ĠO culus
ĠNash ville
ĠHispan ic
ĠH orse
ĠF ight
ĠCl ose
ĠBir mingham
Ġ196 5
Ð¼ Ð°Ð½
Ã© mon
ul u
u ity
ri el
pro v
p ired
op oulos
oot ing
ocrat s
ject s
it utes
it ches
irl ines
ig ma
icult ure
g el
ev ent
OC K
J une
IC K
G erman
D IRMINA
C r
B L
Ġwor ries
Ġu seless
Ġtrib e
Ġtable ts
Ġsurvey ed
Ġsu ed
Ġspell s
Ġremem bers
Ġre lying
Ġorig ins
Ġl bs
Ġim pe
Ġhaz ard
Ġgl ance
Ġfl ows
Ġfather s
Ġf isher
Ġexerc ises
Ġd ip
Ġcontract or
Ġconf using
Ġcompat ible
Ġche ss
Ġca ut
Ġbes ides
Ġaggress ively
ĠPresident ial
ĠPak istani
ĠMil an
ĠH az
ĠGr an
ĠF ish
ĠF ast
ĠF ame
ĠComput er
Ġ197 1
wid th
w ear
ul in
pro of
p i
ophob ia
in ho
g t
f a
epend ence
cer pt
ather ine
as is
anc ies
V ideo
E arly
Ġve ctor
Ġutter ly
Ġunder grad
Ġspons ors
Ġspons or
Ġse al
Ġreluct ant
Ġreb uild
Ġr age
Ġp ond
Ġor b
Ġmed ication
Ġmatch up
Ġm ate
Ġkn ees
Ġint end
Ġind igenous
Ġhe al
Ġgas oline
Ġfel ony
Ġeffect iveness
Ġdet ain
Ġcivil ization
Ġc yn
Ġbud gets
ĠVer mont
ĠSh adow
ĠR oute
ĠR ic
ĠR achel
ĠN umber
ĠL LC
ĠIn v
ĠH ope
ĠG PU
ĠEll is
ĠCommon wealth
ĠAngel a
raw l
pl ant
ous ands
our ge
oc aly
ing le
im on
greg ation
ear th
de gree
and ing
ad ata
S uch
S ON
L ink
.âĢĻ âĢĿ
Ġtroub les
Ġtr ap
Ġspec ify
Ġsk ip
Ġschizophren ia
Ġrecommend ation
Ġproject ions
Ġprofess ors
Ġpre season
Ġpray ers
Ġp y
Ġobst acles
Ġmon etary
Ġmole cules
Ġmid st
Ġm es
Ġm a
Ġinvestig ative
Ġfix es
Ġfin ale
Ġend e
Ġas pir
ĠX i
ĠW ii
ĠTr aining
ĠTo o
ĠPlay ers
ĠPal in
ĠNH S
ĠMorm on
ĠM aine
ĠK ills
ĠInc re
ĠGirl s
ĠG ay
ĠEd monton
z ah
u ced
p ound
n ational
k k
ipl ier
h h
br aska
W est
U PD
Rad ius
K ing
I O
Fr ank
Con f
Col or
0000 0000
Ġves sels
Ġun ited
Ġsur pass
Ġsum mar
Ġsocial ism
Ġpublisher s
Ġprof itable
Ġprev ention
Ġmob ility
Ġintegr ate
Ġhum ili
Ġfrank ly
Ġformer ly
Ġfart her
Ġelimin ating
Ġdynam ics
Ġdr ill
Ġdes ires
Ġconsum ed
Ġch ol
Ġc ure
Ġblack s
Ġbeh ave
Ġapart ments
Ġadj acent
ĠTurn bull
ĠPalest ine
ĠP ere
ĠMem phis
ĠMcC arthy
ĠLl oyd
ĠD og
ĠAC L
w ick
ust ers
supp orted
so ever
roll s
op ath
ol ics
ocu mented
o a
iv ia
in is
ch ildren
ac ial
US A
REL ATED
R ob
N E
M at
L ife
Ind eed
Ch ar
1 20
Ġund oubtedly
Ġtact ic
Ġt att
Ġsoc ially
Ġsepar ately
Ġout let
Ġnin th
Ġmount ed
Ġles bian
Ġjo ins
Ġis lands
Ġdistingu ish
Ġdim ension
Ġdecl aring
Ġcur rencies
Ġcredential s
Ġconstrain ts
ĠWell s
ĠT ak
ĠSun ni
ĠRepresent atives
ĠNY C
ĠM arl
ĠK l
ĠF ixed
ĠD ue
ĠArmen ian
ĠAl tern
ĠA ub
ur ring
row th
ps y
out ube
iv ic
iss ance
if iers
ec onomic
d ays
az ed
as ley
G O
D E
B ro
Ag ain
Ġweakness es
Ġviol ating
Ġup hold
Ġtoug her
Ġport ions
Ġplay back
Ġphilos opher
Ġover haul
Ġnew est
Ġn erve
Ġmat ched
Ġman ages
Ġhomosexual ity
Ġgrand father
Ġf oul
Ġext inction
Ġepid emic
Ġd ire
Ġconf erences
Ġcoast al
Ġblog ger
Ġble eding
Ġapplic able
Ġantib iot
Ġal beit
Ġachieve ments
ĠZ ach
ĠV ent
ĠSt arring
ĠSas quatch
ĠRom ero
ĠOb serv
ĠEx change
ĠD ennis
ĠBud get
ĠB E
vent ions
sp ons
ng th
iz ont
in formation
he nd
g ow
er ner
co ins
clus ion
cl osure
ant i
am bers
Ph ot
Ġunw illing
Ġun constitutional
Ġun acceptable
Ġtun ed
Ġsh ark
Ġru in
Ġoutf it
Ġmathemat ical
Ġmal ware
Ġlab els
Ġkilomet res
Ġhol idays
Ġh oney
Ġgr ain
Ġexpect ation
Ġd read
Ġcrit ique
Ġcontract ors
Ġcons olid
Ġam ateur
Ġal iens
ĠW ave
ĠQueens land
ĠMer cedes
ĠMan ning
ĠIndian apolis
ĠDown load
ĠCh amber
ĠC F
ĠBow ie
ĠApp lic
ĠAL L
Ġ196 9
ro ots
p ic
os ive
ie ge
er ting
aus ible
at ched
as a
OR D
L im
B erry
25 5
ĠÐ¿ Ð¾
Ġvary ing
Ġtrack ed
Ġthr illed
Ġt riv
Ġsu ited
Ġspace craft
Ġsan ction
Ġqu i
Ġpull s
Ġpost ers
Ġpos es
Ġpar agraph
Ġp uck
Ġne ural
Ġinfect ions
Ġimpl icit
Ġhand y
Ġfort un
Ġfl ies
Ġfix ing
Ġdef enses
Ġbroad c
Ġassign ment
Ġadminist rators
ĠSystem s
ĠR ico
ĠPok Ã©mon
ĠIs lands
ĠFor um
ĠBern ard
ĠAust ria
ĠA B
Ðµ Ð»
Ð°Ð ¼
ur as
terror ism
om i
olute ly
o ft
m etic
iff s
iber al
he tt
gr at
col m
bel iev
ar ious
agg ering
C arl
Aut hor
ĠÐ½ Ð°
ĠÃ Ĺ
Ġvict ories
Ġu b
Ġtw itter
Ġtrick y
Ġtrad em
Ġtouch ing
Ġtext ure
Ġsu ite
Ġst arring
Ġst akes
Ġref usal
Ġr ides
Ġpass ive
Ġo x
Ġmet aphor
Ġment ality
Ġmarket place
Ġm old
Ġk icks
Ġhelicop ter
Ġgen ius
Ġexpress ing
Ġenc rypt
Ġdemonst rations
Ġdel ivers
Ġcont ing
Ġconfident ial
Ġcl ash
Ġchar ter
Ġapp et
Ġancest ors
Ġanal og
ĠSim ilarly
ĠNex us
ĠFer r
ĠB obby
ĠAl ice
ĠA irlines
Ġ0 2
âĢĿ :
Ä į
un ks
re ach
oun cing
ograp hed
l as
et e
asc us
amp s
amp ed
a o
Is lam
F ox
Ġwhat soever
Ġw are
Ġw and
Ġvol umes
Ġunl aw
Ġtrave lling
Ġswe pt
Ġsport ing
Ġscript s
Ġreal ise
Ġrall ies
Ġr ings
Ġpriv at
Ġpers istent
Ġmotorcy cle
Ġinsp ire
Ġfoot print
Ġendors ed
Ġdiv isions
Ġdiscour se
Ġbreak through
Ġble w
Ġattract ion
Ġanaly zed
ĠT W
ĠR aw
ĠP ink
ĠNaz is
ĠH ockey
ĠC ond
ĠB ishop
Ġ8 8
Ġ ÑĤ
ys ical
wr ite
u um
st airs
pl ane
pe lled
le ased
i pper
i ots
he astern
g irl
ens en
ell ing
ch ant
ar ium
al in
Ke ep
E vent
Down load
A pril
. âĢľ
Ġwild ly
Ġtreat y
Ġtravel s
Ġt ube
Ġsecret ly
Ġrh yth
Ġpuzz le
Ġpres cription
Ġpat ches
Ġn od
Ġmon ument
Ġmission ary
Ġmin im
Ġl ighter
Ġir rit
Ġint u
Ġhistor ian
Ġhe ter
Ġflags hip
Ġentreprene ur
Ġdef ines
Ġd rought
Ġconfront ed
Ġb inary
Ġb ans
Ġarbit rary
Ġa ides
ĠSalv ador
ĠNever theless
ĠN PR
ĠM aur
ĠIm perial
ĠH alo
ĠCard inals
ĠBre nd
ĠB attery
ĠAn onymous
um my
sy stem
os i
or able
od er
ins ula
head s
group on
e ur
c ost
ah o
V ol
S an
L ater
B o
B ER
A c
Ġst iff
Ġsh apes
Ġrefere n
Ġprem ise
Ġmod ify
Ġmed al
Ġm im
Ġl ied
Ġkilomet ers
Ġhor rific
Ġencoun ters
Ġdispro portion
Ġcolumn s
Ġc ute
Ġc u
Ġbip artisan
Ġad min
ĠWeek ly
ĠTrans portation
ĠSo on
ĠEm ploy
ĠD EA
ĠCount ry
ĠBre ak
ĠA ld
yn n
us c
reg ular
pro du
p riv
ment ioned
ian ces
em ale
arett es
an ne
T er
P ort
O rig
Ġtr ump
Ġsteal ing
Ġst raw
Ġsol ving
Ġso ap
Ġsens itivity
Ġsell s
Ġsatell ites
Ġref und
Ġneighbor ing
Ġmis under
Ġmer it
Ġlad der
Ġl ap
Ġintern ationally
Ġgen ocide
Ġflo at
Ġeth ical
Ġentertain ing
Ġenc ryption
Ġde lete
Ġcomple ting
Ġbr acket
Ġatt ribute
Ġaffili ate
Ġab oard
ĠT ogether
ĠPet erson
ĠP il
ĠNe braska
ĠN A
ĠK ay
ĠIniti ative
ĠCom ics
ĠClass ic
ĠBoe ing
ĠBa iley
ĠAut o
s ite
ok u
min ster
ident ified
et c
che m
b uilding
ast rous
W ASHINGTON
V el
S O
M ike
IS T
E v
Ġun int
Ġt ires
Ġsk ate
Ġsatisf y
Ġrisk y
Ġover see
Ġm aj
Ġload ing
Ġinc on
Ġelement ary
Ġcool ing
Ġconven ience
Ġcontribut or
Ġbureau crat
Ġauthent ic
Ġattack er
Ġassault ed
Ġaccount ability
ĠS ug
ĠS r
ĠN iet
ĠMc L
ĠJ av
ĠInd ex
ĠG ore
ĠG PS
ĠF ly
ĠF ab
ĠDun can
ĠCor ps
ĠC it
ĠBry ant
ĠB ever
ĠAn alysis
Ġ197 2
Ġ icons
âĢĶâĢĶ âĢĶâĢĶ
Î ´
us cript
uff y
ue ller
pp y
pe ction
in ery
fr ame
cl osed
c u
b est
ar cer
S erv
P ER
Oct ober
L D
IG HT
H el
G A
F ire
C are
App le
Ġturn out
Ġtal ents
Ġsear ches
Ġrespons ibilities
Ġrece ivers
Ġreact or
Ġr ider
Ġpro c
Ġpl ag
Ġnetwork ing
Ġn uts
Ġlineback er
Ġl iv
Ġins pection
Ġgrad uated
Ġg reed
Ġflow ing
Ġequ ius
Ġd ivid
Ġd ent
Ġcook ed
Ġch ron
Ġcand y
Ġbe aring
Ġball oon
Ġapolog ize
ĠV eter
ĠSer ver
ĠS em
ĠRe ed
ĠMont ana
ĠM aj
ĠJeff rey
ĠH us
ĠFin land
ĠCol lect
ĠBr un
ĠArab ic
Ġ9 3
Ã ª
zah hak
velop ment
ul pt
u its
te chn
t w
sm ith
se en
s cience
rect ed
ra f
mb re
ish a
h ner
fund ed
conf ig
ate l
W ind
W ashington
Over all
Ġvar ied
Ġswe at
Ġsum mon
Ġstat ue
Ġsl ots
Ġshow er
Ġris en
Ġreview ing
Ġprop ri
Ġour s
Ġmal icious
Ġm ol
Ġm elt
Ġfl ames
Ġelev ated
Ġdem ographic
Ġdefin itive
Ġde bris
Ġcorrel ation
Ġcomm itting
Ġc odes
Ġc m
Ġc argo
Ġbl own
Ġbase ment
Ġban ning
Ġat e
Ġadminist rator
Ġacc using
ĠWhit ney
ĠScient ology
ĠPict ure
ĠLib by
ĠLeg al
ĠKurd s
ĠJo ined
ĠJ uan
ĠGM T
ĠG round
ĠD ays
ĠCh apter
ĠCan non
ĠC B
ĠBe er
Ïī Î½
Ã «
ult z
prising ly
ipe g
ich t
ens ed
c ision
ab i
ab h
U se
H ouse
D ep
D ay
A h
) (
Ġ} );
Ġvolunt ary
Ġun aware
Ġtra um
Ġsp ite
Ġsol ved
Ġsepar at
Ġre ct
Ġordin ance
Ġhe ated
Ġglob ally
Ġfree ze
Ġfol k
Ġen abling
Ġch unk
Ġb urg
ĠThe atre
ĠSn ap
ĠSchool s
ĠRich mond
ĠO m
ĠO k
ĠN ine
ĠMart ine
ĠMalays ia
ĠM es
ĠL anc
ĠK ids
ĠG as
ĠCl ay
ĠAl ong
ĠA N
Ġ8 3
Ð°Ð ·
oth y
on al
omet ry
ne ider
l iter
in ers
ester ol
ere k
e very
cast le
ay ed
al one
ac iÃ³n
U lt
L aw
ES S
ĠÐ ·
Ġwr ist
Ġvari ations
Ġur gent
Ġup s
Ġtim eline
Ġsurv iving
Ġsuper hero
Ġsimpl er
Ġsens ible
Ġse min
Ġsc attered
Ġs ocket
Ġref res
Ġrecon cil
Ġre ception
Ġprom in
Ġover head
Ġkick ing
Ġinv isible
Ġinac cur
Ġimport ed
Ġhead er
Ġfold er
Ġfemin ism
Ġdr ain
Ġdisc on
Ġdis gr
Ġcur riculum
Ġcomprom ised
ĠT ree
ĠSac r
ĠR ut
ĠR ivers
ĠP ierce
ĠO wn
ĠN ode
ĠN est
ĠJ oint
ĠDam ascus
ĠCur rently
ĠC ox
ĠBe ast
ĠA j
Ġ3 50
Ġ11 4
Î¹ Î±
Ĩ Ĵ
~~ ~~
t re
s v
p resident
ol utions
ock er
lick r
ir k
ir i
hold er
g reat
cont in
b ial
J ew
IN E
Americ a
A E
Ġwe aker
Ġtransl ate
Ġteam mate
Ġt ire
Ġswe eping
Ġsub way
Ġstro ke
Ġsp ying
Ġsl im
Ġsignature Radius
Ġretain ed
Ġremind s
Ġpl ural
Ġorder ing
Ġor al
Ġle thal
Ġl inem
Ġins ert
Ġinj ust
Ġhe y
Ġhabit at
Ġgrocer y
Ġflaw s
Ġexhib ition
Ġd ans
Ġcle aring
Ġal umin
Ġag g
ĠPant hers
ĠN ag
ĠLat ino
ĠJeff erson
ĠHezb ollah
ĠCry stal
ĠChall enge
ĠB le
ĠA ven
ãģ ®
Ã¡ n
ul ator
sh aped
om ore
off icial
ill on
id i
ick ets
ic ers
ch ief
at isf
as ive
as gow
V ID
O kay
M D
L ove
AT S
Ġv ag
Ġto ggle
Ġsuccess or
Ġstick ing
Ġst ones
Ġrevel ation
Ġprov in
Ġpract icing
Ġnon etheless
Ġnice ly
Ġnar c
Ġmor ality
Ġmed ian
Ġlit igation
Ġlay ing
Ġinterpret ed
Ġintegr al
Ġins ights
Ġg re
Ġe ternal
Ġdress ing
Ġdisc ont
Ġdis hes
Ġde ar
Ġcur s
Ġcomm ittees
Ġbul lets
Ġbox ing
ĠY ears
ĠU P
ĠTer ror
ĠTele graph
ĠT I
ĠSl oven
ĠSer b
ĠS ikh
ĠS AT
ĠOb viously
ĠLe vin
ĠJ unior
ĠCom ic
ĠBe aut
ĠAss istant
ĠAn imal
ĠAl b
ĠAbd ul
writ ing
t ier
rane an
p os
oy le
os ph
mun ition
m ember
less ness
iqu id
ific ant
for cement
el o
ed uc
c ity
c all
amer a
P ublic
M ax
IT H
G C
Cal if
Ġwr ap
Ġv owed
Ġupgr ades
Ġstud ios
Ġsh aking
Ġsear ched
Ġprof iles
Ġpreced ent
Ġpot ent
Ġp up
Ġp iv
Ġout field
Ġnational ist
Ġmerch and
Ġmem orial
Ġl enses
Ġint ens
Ġinc arcer
Ġfound ers
Ġfl uct
Ġexec ute
Ġenroll ment
Ġboy cott
Ġassert ion
Ġadap ted
Ġabort ions
ĠQu inn
ĠPr int
ĠNob el
ĠEnter prise
ĠCath olics
ĠC hen
ĠBre itbart
ĠB att
Â ©
w ould
v oc
th reat
on est
omet er
ld a
l ined
ir us
en z
co very
ch ar
b illion
Q UI
L ear
Ġtroub ling
Ġstr anger
Ġrob bery
Ġr ugby
Ġquant ity
Ġqu arters
Ġproject ion
Ġpl un
Ġp ets
Ġnavig ation
Ġlight ning
Ġinfring ement
Ġinf lamm
Ġincom es
Ġident ities
Ġhold ers
Ġgener ic
Ġexpl oded
Ġdon or
Ġcolumn ist
Ġbl end
Ġbes ide
Ġball ots
Ġbackground s
Ġadvis ers
Ġabund ance
ĠWake field
ĠTe hran
ĠSt age
ĠShe ll
ĠReg ional
ĠR ace
ĠPh D
ĠN E
ĠMac ron
ĠM urd
ĠM ath
ĠLeaf s
ĠKore ans
ĠK ate
ĠK an
ĠH E
ĠCo ach
ĠC ape
Ġ9 4
Ġ0 1
Ï į
y ar
ur an
the ning
t i
oth s
it as
ill ery
ibl ings
en berg
ah an
abb i
ab ad
S kill
G old
? !
ĠÂ Ń
Ġtri o
Ġte lev
Ġsu e
Ġshe ets
Ġprior it
Ġprim aries
Ġpil ots
Ġneg lig
Ġman eu
Ġin ability
Ġevent ual
Ġdis gu
Ġdest ructive
Ġcryptocur rency
Ġconfront ation
Ġc od
Ġboot s
Ġadjust ment
ĠPack ers
ĠNe ither
ĠM ul
ĠLight ning
ĠK lan
ĠK i
ĠHend erson
ĠD ian
ĠC ris
ĠC V
ĠBarn es
ĠB omb
ĠB esides
ĠArgent ina
Ġ8 9
â ĺħ
u cc
rest rial
rav is
r ising
ould er
om o
ipp ers
i ably
an ity
a ired
With out
U P
N one
M iss
D et
---------------- ----------------
Ġtransf ers
Ġtra ject
Ġsp at
Ġsk ull
Ġshar ply
Ġsec uring
Ġprovin ces
Ġpromot ions
Ġpro port
Ġple asant
Ġoption al
Ġmort ality
Ġmind set
Ġmet ric
Ġmar riages
Ġlog s
Ġlaun ches
Ġkidn apped
Ġirre levant
Ġinsect s
Ġin herent
Ġh orn
Ġgot ta
Ġgal axy
Ġg ates
Ġfre el
Ġfav ored
Ġextrem ists
Ġexc luded
Ġen compass
Ġdis astrous
Ġconv ictions
Ġcoll ision
Ġcance lled
Ġcance led
Ġbo ats
Ġbas eline
Ġback ers
Ġb ats
Ġamb ul
Ġaer ial
Ġa irst
ĠV illa
ĠSome one
ĠR ust
ĠP ew
ĠMajor ity
ĠK os
ĠI v
ĠHel en
ĠHe y
ĠG av
ĠEvent ually
ĠChron icle
ĠC raw
ĠBry an
ĠBr ig
ĠB iden
ĠAth let
worth y
rik es
re cy
ob a
ist ically
ik er
ie val
ie ce
end on
ed ge
T w
Spe ed
ORG AN
MENT S
Ġtrad es
Ġsuppl ied
Ġsum s
Ġstaff ers
Ġsc i
Ġsatisf action
Ġsa il
Ġs lic
Ġrespect s
Ġpo le
Ġplant ed
Ġorg ans
Ġn asty
Ġmusic ian
Ġmet ab
Ġint ends
Ġfulf ill
Ġexpl ored
Ġenact ed
Ġcor ps
Ġcommission ed
Ġcloud s
Ġbrew ery
Ġassemb led
Ġaltern ate
ĠVik ings
ĠR af
ĠMar co
ĠM ull
ĠM ode
ĠJ ared
Ñ İ
spr ing
r us
ok o
ik ed
ig o
g s
ertain ly
er als
ass es
and als
Sub scribe
Pr ice
Ob viously
L ong
Ch ris
AR K
A f
Ġw itch
Ġur anium
Ġun av
Ġtheat ers
Ġprot agon
Ġplaintiff s
Ġmemor able
Ġlad ies
Ġint imate
Ġhor izon
Ġflee ing
Ġencour ages
Ġcost ume
Ġcomb o
Ġc age
Ġbur ial
Ġbarrel s
ĠZ ion
ĠR az
ĠP le
ĠP irate
ĠMand ela
ĠHer itage
ĠG or
ĠE ither
ĠE arlier
ĠChand ler
ĠCal vin
ĠC elt
ĠC abinet
ĠC OM
ĠB ear
Ġ- --
âĢĿ ).
yl an
ud ed
sh irts
ph ies
omet own
om atic
leg al
l ation
h ots
es pecially
ang o
anche z
ale igh
act ic
Ste ve
Mac Ian
In tern
Evan MacIan
Cur rently
A v
Ġwho ever
Ġs acks
Ġrelig ions
Ġreject ion
Ġrecord ings
Ġpublic ity
Ġpers ist
Ġper ce
Ġp ine
Ġneed ing
Ġmanip ulate
Ġman uscript
Ġlic enses
Ġinterf ere
Ġhydro gen
Ġhas ht
Ġha un
Ġg ren
Ġg orge
Ġforeign ers
Ġexam ining
Ġden ies
Ġcoord ination
Ġcome back
Ġbr ick
Ġblow ing
Ġbehavior al
Ġbe ans
Ġat omic
Ġassoci ates
Ġabsor b
ĠVo ice
ĠT ier
ĠO ften
ĠN athan
ĠImm igration
ĠF L
ĠElect ric
ĠD w
ĠD elta
ĠCub an
ĠA bor
Ð ±
v ance
re b
p op
ort ex
id able
er k
do ing
b les
amp ire
am pton
ale y
ain ted
Th ink
QUI RE
N ational
J apan
Ed itor
B ay
B ased
Ġvo iced
Ġve t
Ġtrib al
Ġtrad ers
Ġsw ap
Ġshow case
Ġsc ulpt
Ġsad ly
Ġrun ners
Ġpur ple
Ġn ail
Ġmus cles
Ġjew el
Ġinv itation
Ġfavor able
Ġexplo itation
Ġent ers
Ġeduc ate
Ġcr ashes
Ġcl ues
Ġbelong ing
Ġassess ed
Ġartif acts
Ġaccord ance
Ġacc ent
ĠR ud
ĠR T
ĠMach ine
ĠM oney
ĠJul ia
ĠG ot
ĠFor bes
ĠF o
ĠEngine ering
ĠE arl
ĠCamb od
ĠB ed
ĠArm strong
ĠA gu
ÏĦ Î±
Î ¸
ro d
rit ies
p iring
ocu ment
it ives
in um
es ar
c f
atter ing
at al
aret te
V I
P ubMed
L ocal
B ill
Ġtal es
Ġsun light
Ġsubst itute
Ġstre ams
Ġstead ily
Ġsc al
Ġs add
Ġris es
Ġqu ot
Ġprison er
Ġpress ures
Ġprec ip
Ġphilosoph ical
Ġover th
Ġj ournals
Ġj ets
Ġj ack
Ġinv alid
Ġinstruct ed
Ġinf ilt
Ġhyp oc
Ġgun man
Ġgrab s
Ġev olve
Ġendorse ment
Ġdis mant
Ġdefic its
Ġcrit ically
Ġcompl aining
Ġcompan ion
Ġattack ers
Ġar ise
Ġappreci ated
Ġaim ing
ĠWork ing
ĠWh atever
ĠW onder
ĠStud ent
ĠSh aw
ĠSe lect
ĠSacr amento
ĠS outheast
ĠPro cess
ĠHe avy
ĠG ang
ĠF igure
ĠF ew
ĠComm ander
ĠAny one
Ġ(Â £
y our
stan bul
ret ion
ph ony
m ax
int age
ie u
h art
ful ness
b ane
asc ript
UPD ATE
U K
Tex as
T her
C all
C AR
B ob
Am ount
1 10
Ġwar ns
Ġval ued
Ġtrop ical
Ġrecru ited
Ġread ily
Ġpromot ional
Ġpit ched
Ġman a
Ġland mark
Ġland l
Ġignor ance
Ġhalf way
Ġg ospel
Ġext ending
Ġdo i
Ġdat as
Ġd ot
Ġcy cles
Ġcontinu ously
Ġclar ify
Ġbat ting
Ġb io
Ġb ay
Ġalleg es
Ġaffect ion
ĠX L
ĠWinn ipeg
ĠW ings
ĠTra vel
ĠT ru
ĠS ent
ĠRet urn
ĠNo ah
ĠLouis ville
ĠI R
ĠH ide
ĠG am
ĠD R
ĠC auc
ĠAh med
ĠA K
Ġ9 6
Ï ĩ
z ai
uten ant
s n
ri ans
or p
id av
f ix
ef e
commun ications
by e
Vel ocity
N AS
Ġunp redict
Ġsynd rome
Ġsymb olic
Ġstr angers
Ġste am
Ġsp onges
Ġs iblings
Ġrecre ational
Ġreal ised
Ġprec ision
Ġobst acle
Ġo un
Ġno on
Ġmart ial
Ġhor izont
Ġhe ating
Ġg au
Ġfu els
Ġfor k
Ġfict ional
Ġcat aly
Ġc af
Ġat roc
Ġappreci ation
Ġany time
Ġan om
Ġactiv ation
ĠS or
ĠS W
ĠPD F
ĠP H
ĠNov a
ĠN ep
ĠL t
ĠL ang
ĠK in
ĠHuff ington
ĠH ig
ĠH alf
ĠG and
ĠD ynam
ĠC ulture
ĠC row
ĠAff ordable
Ġ9 00
Ġ8 6
Ġ0 9
u art
rae us
p ose
ost ic
os c
oca ust
obb es
m itting
ling ton
j pg
he art
gh ai
f ile
esc ope
cl ub
am ina
als h
Qu est
P ass
P age
M ain
C ount
B ox
.' "
Ġwe ighed
Ġup ward
Ġunder go
Ġstrength s
Ġst airs
Ġsent encing
Ġrandom ly
Ġpharm aceutical
Ġpass words
Ġnost al
Ġl ump
Ġhy d
Ġhand les
Ġguarant ees
Ġfore sts
Ġex empl
Ġen vision
Ġdig ging
Ġcul p
Ġcrack down
Ġcontin ually
Ġcampaign ing
Ġbon uses
Ġbl unt
Ġassoci ations
ĠU ser
ĠRaven s
ĠR ules
ĠPrin cess
ĠPhill ips
ĠM itch
ĠLegisl ature
ĠL ore
ĠK ell
ĠJess ica
ĠHung ary
ĠD ot
ĠC urt
ĠApp arently
âĢĿ ),
x on
sh ine
s ky
os lav
on ies
om ers
k now
if ully
f o
ed In
c ulation
ane y
ag i
U ser
S w
S cient
R et
Micro soft
L L
J on
ER G
C re
Be ing
ĠÂ °
Ġvirt ue
Ġtrib es
Ġswe ep
Ġso y
Ġsett lements
Ġsche mes
Ġs ink
Ġrou ter
Ġreg istry
Ġrecover ing
Ġprotect s
Ġpit ches
Ġparam eter
Ġnons ense
Ġmat rix
Ġm ast
Ġlot tery
Ġjust ices
Ġiniti ated
Ġin k
Ġgr im
Ġfemin ists
Ġel ites
Ġdesign ing
Ġdemonst rators
Ġdeliber ate
Ġcred ited
Ġcon grat
Ġcompar isons
Ġch ick
Ġc it
Ġam munition
ĠUS C
ĠSh in
ĠRe x
ĠRe ally
ĠOs borne
ĠL ith
ĠJud y
ĠGold man
ĠG raph
ĠF ile
ĠCreat ive
ĠCh ip
ĠC art
ĠBen gh
ĠAn a
ĠA bs
Ġ12 5
raw ling
p ath
ortun e
ogen ic
ne x
l ast
ivid ual
et a
est on
d at
cific ally
add afi
K ey
In vest
Any one
ĠÐ ĺ
Ġw ield
Ġunder cover
Ġtheoret ical
Ġsynt hetic
Ġsubur bs
Ġstat ute
Ġst int
Ġst aggering
Ġshe ep
Ġscholars hip
Ġsal aries
Ġrel ent
Ġreb ounds
Ġr ats
Ġple as
Ġplace bo
Ġp iss
Ġp ad
Ġoutl ook
Ġh ref
Ġfif ty
Ġdownload ed
Ġdis ability
Ġcinem a
Ġa fore
ĠV ide
ĠV ern
ĠT ell
ĠStep han
ĠSocial ist
ĠRec ord
ĠP ath
ĠNich olas
ĠMove ment
ĠMin i
ĠL av
ĠHel p
ĠF it
ĠC aval
ä ¸
uu id
roph ic
or us
op ic
im g
id ad
ian g
ang led
T ION
N on
M ORGAN
IS A
E ric
E nd
E mail
Aust ral
Ġw ished
Ġviol ate
Ġthro at
Ġten ants
Ġsubject ive
Ġshout ed
Ġsh ook
Ġrevers ed
Ġprote ins
Ġper ipher
Ġparad ox
Ġnot ified
Ġnick name
Ġne o
Ġm m
Ġlegal ization
Ġj ealous
Ġhel m
Ġhar ness
Ġh obby
Ġh ated
Ġfurn iture
Ġefficient ly
Ġdispos al
Ġdispl aced
Ġdirect ing
Ġd ense
Ġcooper ate
Ġcontain ers
Ġconf isc
Ġbrow s
Ġan arch
Ġalt itude
ĠU g
ĠStr ateg
ĠS ter
ĠRe act
ĠM ets
ĠM E
ĠK enn
ĠChief s
ĠC ab
ĠB apt
ĠAbor iginal
Ð¸ Ð½
undred s
ss on
serv ice
s omething
l en
itness es
is se
id ity
hed ral
d esc
com b
c hens
b oth
ason able
acher s
ach ment
ab bit
Sar ah
S ports
RE E
P ac
C ong
Ġth y
Ġt ast
Ġsl ipped
Ġresist ant
Ġport able
Ġover ly
Ġnut rition
Ġmonit ored
Ġjud ged
Ġhot els
Ġgang s
Ġex cerpt
Ġenter prises
Ġdist ribute
Ġdist ress
Ġdescript ions
Ġcommer ce
Ġco pper
Ġc abin
Ġbet ting
Ġamb ig
Ġadvent ures
Ġadm ire
Ġacc laim
ĠZ ina
ĠV P
ĠRe y
ĠP ic
ĠOver all
ĠNY PD
ĠM az
ĠM I
ĠL uther
ĠJ ed
ĠG P
ĠF I
ĠEd die
ĠD aw
ĠCar roll
ĠC ash
ĠBrown s
ĠBor is
ĠBengh azi
ĠAcc ount
Ġ0 5
w ave
ust ain
s qu
os ion
ort ing
omet ric
oc used
l it
l arg
e h
atch ing
ar se
W in
M M
IM E
Ass ad
200 6
200 3
#### ####
Ġvar iant
Ġstart ups
Ġsmall est
Ġs id
Ġright ly
Ġrest rain
Ġres et
Ġpro sec
Ġpreval ence
Ġpr isons
Ġpack s
Ġoverwhel med
Ġoff ence
Ġo st
Ġmon keys
Ġmin imize
Ġmess aging
Ġmerchand ise
Ġm ant
Ġh urd
Ġgu ided
Ġexplos ions
Ġemphas ized
Ġdrag ged
Ġdim ensions
Ġcontam inated
Ġcomple ment
Ġcalcul ations
Ġbi ased
Ġass erted
Ġapplic ants
Ġank le
ĠWood s
ĠUn ity
ĠT umblr
ĠSch midt
ĠS hen
ĠPriv ate
ĠP ine
ĠO kay
ĠNove ll
ĠGl asgow
ĠG ross
ĠD ek
ĠD A
ĠCol omb
ĠC arm
ĠAri el
Ġ9 7
ul ed
ret ty
p ol
nd ra
l anguage
in os
es ley
ct ive
cl ip
ch ild
Wh atever
Rober t
RE S
M er
M ad
H as
D aniel
And rew
Ġwas h
Ġvac uum
Ġterr ifying
Ġrest oration
Ġrein force
Ġqual ifying
Ġproceed s
Ġprob ation
Ġpro l
Ġpr one
Ġoptim ism
Ġoff enders
Ġo k
Ġmeasure ment
Ġlo oph
Ġlink ing
Ġinter ventions
Ġint ake
Ġindivid ually
Ġin ning
Ġimag ery
Ġhorm ones
Ġhilar ious
Ġgu ides
Ġfavor ites
Ġdes erved
Ġcry stal
Ġcharacter istic
Ġc attle
ĠZ one
ĠTr ain
ĠSim p
ĠOrig inal
ĠOccup y
ĠMartine z
ĠJen kins
ĠIn g
ĠIm agine
ĠF an
ĠDise ase
ĠCl in
ĠCh ase
ĠC ool
ĠBers ih
ĠB ike
ĠAdvent ure
ĠA round
Ð°Ð º
op ia
k owski
h ad
g rown
et on
en ly
d eal
c ule
ball s
b ishop
Te am
S ix
M uch
F R
Aug ust
Ġwh oles
Ġto mat
Ġther mal
Ġsur plus
Ġremote ly
Ġr anges
Ġpl t
Ġnegoti ated
Ġman ga
Ġluc rative
Ġj am
Ġimpl ies
Ġhold er
Ġfru its
Ġfire arm
Ġext rad
Ġenthusi asts
Ġen v
Ġd orm
Ġcomp ile
Ġcar n
Ġal igned
Ġadv ancing
Ġab usive
Ġa pt
ĠU l
ĠTex ans
ĠP ist
ĠP etro
ĠMal colm
ĠL ost
ĠF ine
ĠF am
ĠEs pecially
ĠEmb assy
ĠCons ider
ĠBl izzard
ĠBash ar
ĠB erry
ĠB annon
ĠAl most
ĠA ber
Ġ9 8
Ġ0 7
Ġ ),
ys on
w ald
umb ai
ul ously
ul k
u ber
t ails
re ctions
oph ilia
on ut
ik ers
ig ate
ibl ical
he y
g reen
c lick
W ould
S um
R eal
OU R
K en
I AN
ĠÐ½ Ðµ
Ġunemploy ed
Ġst unt
Ġsle e
Ġsl ogan
Ġshout ing
Ġrow s
Ġr ans
Ġj aw
Ġinterven e
Ġinstall ing
Ġimm ers
Ġhost age
Ġgest ure
Ġelect ro
Ġdis puted
Ġcollect ively
Ġche es
Ġc ites
Ġbr on
Ġal erts
Ġaest hetic
ĠV iol
ĠS L
ĠL ooking
ĠK och
ĠK az
ĠD ust
ĠD ana
ĠCr iminal
ĠCh ad
ĠB order
ĠAr med
Ġ10 80
Ã ¯
to o
ore st
ograph ical
o os
if ting
id y
gg y
g em
el ines
ek ing
d istance
aw k
an ies
a ic
We b
WAR DS
Se pt
S ocial
J uly
I ES
F eed
Expl osive
........ ..
ĠâĢľ [
Ġ} ,
Ġun believ
Ġtrans mit
Ġto e
Ġtight ly
Ġse gments
Ġs oup
Ġpus hes
Ġpsychiat ric
Ġprop ose
Ġpref erences
Ġpat ron
Ġo ct
Ġneighbour hood
Ġn odd
Ġmulti player
Ġmonop oly
Ġmain land
Ġlo vers
Ġj acket
Ġint ensive
Ġinflu ences
Ġinf inite
Ġind ie
Ġhy pe
Ġhost ility
Ġhed ge
Ġgener ates
Ġfinger print
Ġeconom ically
Ġdep ressed
Ġd ug
Ġcomp act
Ġcommun ist
Ġcas ino
Ġcar ing
Ġcalcul ate
Ġcal ories
Ġc um
Ġc ows
Ġc emetery
Ġbuck et
Ġauthor itarian
ĠUS S
ĠSpr ings
ĠSh ar
ĠS ullivan
ĠR iley
ĠPr im
ĠPr ide
ĠPet raeus
ĠP ierre
ĠO GT
ĠMe ga
ĠM oss
ĠLear ning
ĠL iz
ĠKas ich
ĠK ash
ĠH erald
ĠCol umn
ĠCase y
ĠB io
ĠB ills
ĠAs k
v ised
ur u
ur l
ur ally
ris k
red ited
ra vel
oust ic
ong yang
mer cial
m ma
l isted
j son
ins ki
in ness
if le
ic ides
he rently
art icle
ange red
Up dated
Sc ott
S ources
G N
Every thing
An n
ĠÎ ´
Ġun related
Ġtriv ial
Ġsupp ress
Ġsn ake
Ġsm iling
Ġsince re
Ġshort ages
Ġr ust
Ġprev ents
Ġmod ifications
Ġmig rant
Ġl ing
Ġje opard
Ġinadequ ate
Ġhead set
Ġham mer
Ġhack er
Ġh ometown
Ġdri ed
Ġdep icted
Ġcur b
Ġchap ters
Ġcent res
Ġbl ade
Ġb ounce
Ġb ored
Ġar rog
Ġacc idents
ĠV I
ĠUp on
ĠT alk
ĠT S
ĠSc reen
ĠS QL
ĠR ank
ĠQ aeda
ĠPri or
ĠP un
ĠMus k
ĠMun ich
ĠKey stone
ĠH irs
ĠF ern
ĠCub s
ĠCar ib
ĠBr ight
ĠBill y
ĠB eth
ĠB ald
ĠAnt ar
ĠAb raham
Ġ' '
Ð°Ð» Ð°
st ad
s ens
m und
m em
m and
it ism
im ated
il itation
if a
ic ans
cons cious
U B
S ure
N ove
N or
N a
Gl c
C rit
Bl ue
B rit
AR D
. ).
Ġwond ers
Ġw ra
Ġtou ches
Ġsup reme
Ġsu cc
Ġsk i
Ġrev ision
Ġres on
Ġred irect
Ġpun ished
Ġpost p
Ġobs ession
Ġmor ally
Ġmet ro
Ġint oler
Ġinnov ations
Ġg ad
Ġf reed
Ġf oster
Ġeff ic
Ġdist ances
Ġd awn
Ġcr ap
Ġconclud es
Ġcompet itions
Ġcere mon
Ġbroad ly
Ġb rib
Ġart istic
Ġafter ward
Ġafore mentioned
ĠZ en
ĠYah oo
ĠW enger
ĠW T
ĠS ep
ĠR at
ĠPers ian
ĠP owell
ĠMu ham
ĠMos ul
ĠMon ster
ĠMoh ammed
ĠKurd istan
ĠHe x
ĠH ob
ĠGr ass
ĠGener ation
ĠG N
ĠF u
ĠCl int
ĠB ert
Ġ0 3
Ġ Å
Ñģ Ñı
Ð ·
su per
ro gen
r ise
lev ard
l ie
ik o
icult ural
ick er
f ull
ett le
b augh
] )
Sh ort
Pro v
Cont in
Cl ass
A W
-- -
ĠÎº Î±Î¹
Ġver b
Ġv on
Ġunp opular
Ġun equ
Ġto pped
Ġsuper f
Ġsp ont
Ġsec recy
Ġrelax ed
Ġrecogn ise
Ġque ue
Ġpron ounced
Ġprest igious
Ġpersu ade
Ġpack aging
Ġorche st
Ġmot ive
Ġmed i
Ġmarg ins
Ġmac ro
Ġloc ate
Ġlobby ists
Ġl azy
Ġinhabit ants
Ġgorge ous
Ġfant as
Ġdiplom ats
Ġcry st
Ġcou ch
Ġcoinc idence
Ġc ripp
Ġblank et
Ġathe ist
Ġaston ishing
Ġannoy ing
Ġab rupt
ĠWest minster
ĠVis it
ĠUC LA
ĠTrans it
ĠTra ff
ĠS ens
ĠS anchez
ĠReg ister
ĠR B
ĠPr ison
ĠP ract
ĠMarc us
ĠL ower
ĠH ernandez
ĠCol in
ĠA CC
Ġ196 2
uff le
t or
respons ible
pr ice
ov o
ov ich
ourn ament
is co
io let
du ll
aze era
at able
W omen
T ext
Hist ory
ĠÏĦ Î·
Ġwe ars
Ġwas ted
Ġw olves
Ġw ard
Ġsus cept
Ġsurf aced
Ġsubur ban
Ġspe ar
Ġrele g
Ġrece ipt
Ġquestion able
Ġprompt ing
Ġprob able
Ġpop e
Ġpat ents
Ġpass port
Ġp p
Ġp ars
Ġover view
Ġmark ing
Ġman ually
Ġle ver
Ġl ending
Ġir ony
Ġins ufficient
Ġhun ters
Ġgrad uates
Ġgl ue
Ġfortun ate
Ġfort une
Ġfor ty
Ġfool ish
Ġemer gence
Ġdial ect
Ġd war
Ġcorrespond ent
Ġcoord inated
Ġclass ification
Ġcig arette
Ġbull ying
Ġbe am
Ġb arr
Ġappeal ed
Ġamb itions
Ġadv ise
ĠT ravis
ĠShe p
ĠS aw
ĠR alph
ĠM ig
ĠIns ider
ĠHond a
ĠFerr ari
ĠEv il
ĠE t
ĠBroad way
ĠB ak
Â Ģ
ver ted
ul p
ud a
sh it
per ty
ok ia
ok a
k n
gener ation
c m
bro ok
at oes
art s
ant ing
Un ited
U MB
RE D
1 30
Ġtransport ed
Ġthe or
Ġter ribly
Ġst ap
Ġsim ulation
Ġrent al
Ġr ip
Ġport rait
Ġp ause
Ġo v
Ġmod ification
Ġm ush
Ġm all
Ġlog ged
Ġincons istent
Ġhero in
Ġgr ades
Ġfig uring
Ġexplan ations
Ġdu pl
Ġdistinct ive
Ġdis se
Ġdig its
Ġconsist ing
Ġcon form
Ġcompl iment
Ġcl ause
Ġb ru
Ġat op
Ġan throp
Ġadminist ered
ĠW alsh
ĠTun is
ĠT ories
ĠT ib
ĠSt ra
ĠSm ash
ĠSch neider
ĠS orry
ĠPan ama
ĠP or
ĠOther wise
ĠM ueller
ĠI stanbul
ĠCont ent
ĠClar ke
ĠAng ular
ĠAgr iculture
Ġ19 45
Ã ¸
yr r
ilit ary
fund ing
d ollar
ber ger
W r
P eter
Lim ited
Jan uary
H ub
F B
En large
D isc
C onst
,' '
ĠÂ ¶
ĠÂ ĵ
Ġz oom
Ġtour ing
Ġth rive
Ġstere otypes
Ġsc are
Ġsanct uary
Ġs ab
Ġprov oc
Ġparad ig
Ġmo ist
Ġlone ly
Ġfound ations
Ġdiscon nect
Ġdiplom a
Ġd Ã©
Ġconv entions
Ġcont ender
Ġcons cience
Ġcommod ity
Ġclim bed
Ġceleb rities
Ġby pass
Ġbo asts
Ġbatt ling
Ġb od
Ġattend ees
Ġappl aud
Ġantib odies
Ġadvis or
Ġadd ict
ĠVin cent
ĠTill erson
ĠProt ocol
ĠPriv acy
ĠM asters
ĠLim ited
ĠLe aders
ĠL ot
ĠK ath
ĠCon n
Ġ: )
Ġ10 2
Ġ ___
Ã¶ del
ut ton
uss ions
ur red
p aid
ov an
le en
iz ards
f eed
el ong
el ed
dep th
ant on
am iliar
ag le
ad ian
S il
S i
Christ ian
3 50
Ġz ip
Ġu pt
Ġtow ers
Ġstar ters
Ġst aring
Ġsequ ences
Ġsc am
Ġsatisf ying
Ġs ack
Ġres ent
Ġpurs ued
Ġpict ured
Ġpartners hips
Ġpark ed
Ġop ener
Ġl ingu
Ġinv ention
Ġintrig uing
Ġinsure rs
Ġincom plete
Ġill usion
Ġdemonst rating
Ġdelight ed
Ġdec isive
Ġcritic ised
Ġcraft ed
Ġcop e
Ġchol esterol
Ġbelong ed
Ġback wards
Ġb ounty
Ġadvis ory
Ġaccount ed
ĠU T
ĠTrans port
ĠSpr int
ĠS K
ĠRe form
ĠR ing
ĠP ain
ĠM ine
ĠL arge
ĠKn ights
ĠK aren
ĠJo in
ĠJ ong
ĠJ ama
ĠHapp en
ĠH em
ĠEuro pa
ĠDod gers
ĠD rop
ĠD erek
ĠCraw ford
ĠB uy
ĠB arr
ĠAct iv
uter te
ug oslav
uff ed
the m
qu is
ot ics
or um
or st
ine a
id ia
ib les
et z
ch t
ator ies
ar u
ad ays
V er
Not hing
M o
B it
AM E
Ġwel coming
Ġunlaw ful
Ġundergrad uate
Ġund ocumented
Ġtr ails
Ġs i
Ġref uses
Ġpred iction
Ġpract iced
Ġpolic ing
Ġp oured
Ġoverwhelming ly
Ġobsc ure
Ġo d
Ġjurisd iction
Ġiss uing
Ġinform al
Ġhom eland
Ġhapp ily
Ġh over
Ġgun fire
Ġgr ains
Ġflo ors
Ġfin ances
Ġfar mer
Ġextrem ist
Ġextensive ly
Ġexplo ited
Ġeuro s
Ġer ad
Ġd ining
Ġconfir ms
Ġcompet itor
Ġcomp ounds
Ġcolor ful
Ġcle arer
Ġcl ue
Ġbr idges
Ġbl oc
ĠYou th
ĠW ere
ĠSt rip
ĠSt ories
ĠSp encer
ĠShan ghai
ĠPoint s
ĠNew castle
ĠN are
ĠM t
ĠM is
ĠM aps
ĠLith uan
ĠL anguage
ĠHe brew
ĠHar bor
ĠH ence
ĠH ERE
ĠD h
ĠCarib bean
Ġ9 1
Ġ10 5
Ġ ðŁ
Ð´ Ð°
sc ript
ourge ois
os ity
oot ers
o qu
mal ink
m ill
ld en
is en
ick ers
gg ing
ell ed
ard i
ar us
ar an
an throp
ach t
US D
R est
QUIRE MENTS
Hill ary
H ello
G en
D ear
AF TA
) |
Ġwh it
Ġview er
Ġvend or
Ġup rising
Ġund erest
Ġtradem ark
Ġsystem atic
Ġstri pped
Ġsl ammed
Ġskept icism
Ġsens es
Ġro de
Ġremain der
Ġreact ed
Ġprosper ity
Ġprohib ition
Ġprem ature
Ġpost season
Ġpositive ly
Ġplug in
Ġpersonal ities
Ġout going
Ġorig inated
Ġoff enses
Ġliber ation
Ġint ro
Ġinstrument al
Ġinher it
Ġincumb ent
Ġillust rate
Ġgl oves
Ġdis abilities
Ġcro re
Ġcr ushed
Ġbench mark
Ġbar ber
Ġarch ives
Ġappet ite
Ġamb ush
Ġadjust ments
ĠWe instein
ĠTe levision
ĠSch ultz
ĠS au
ĠS add
ĠPortug al
ĠO z
ĠN am
ĠN ad
ĠMan it
ĠM ovie
ĠGl en
ĠG oth
ĠG it
ĠFal con
ĠF E
ĠD im
ĠD HS
ĠCre ate
ĠAn aly
Ð ¿
ÏĦ Î·
st ation
ph p
otten ham
ob ic
ny der
n is
laugh s
it ially
eter min
e pt
d est
at hetic
asp berry
an ed
ad itional
ab lish
With in
Le ague
J eff
IF A
" ).
Ġunsuccess ful
Ġtro phy
Ġtr im
Ġtour s
Ġthreat ens
Ġsubmar ine
Ġstreng thening
Ġsket ch
Ġsch olar
Ġrock ets
Ġprosecut ed
Ġposition ed
Ġpl ots
Ġperform s
Ġpa ired
Ġnurs es
Ġmount ing
Ġmet adata
Ġm i
Ġju ice
Ġj unk
Ġin herently
Ġhum ble
Ġhistor ians
Ġfiref ighters
Ġfin est
Ġend ured
Ġdisc retion
Ġdetect ive
Ġconcess ions
Ġch im
Ġch asing
Ġcent ered
Ġannounce ments
ĠStat istics
ĠRichard son
ĠRe b
ĠRE WARDS
ĠN av
ĠM ol
ĠK urt
ĠIsa ac
ĠHur ricane
ĠFl ight
ĠE arn
ĠC ord
ĠC av
ĠAll ah
Ïģ Î¿
Ã Ĺ
y en
w ife
s ocial
p ark
p aper
o ir
iter ranean
im ination
im an
f ood
f ax
f air
ens on
b one
b ast
ar in
Tur key
S am
O pen
Not es
M or
M el
M G
F il
- >
* .
Ġwe ed
Ġven ues
Ġunderstand able
Ġund is
Ġtheat re
Ġt ennis
Ġsubsid y
Ġrif les
Ġret ract
Ġresc ued
Ġprogress ion
Ġpo etry
Ġobtain ing
Ġn aval
Ġinvestig ator
Ġimpro per
Ġhom icide
Ġg aps
Ġfrequ encies
Ġdis ruption
Ġdes cent
Ġd are
Ġch uck
Ġch airs
Ġcaut ious
Ġcan on
Ġas leep
Ġanaly tics
Ġaccording ly
ĠWire less
ĠWild life
ĠTreat y
ĠSpring field
ĠS ask
ĠP L
ĠNS W
ĠNEW S
ĠMet ropolitan
ĠMa o
ĠM ills
ĠK iev
ĠHero es
ĠF ighter
ĠExp o
ĠD art
ĠC able
ĠBrother hood
ĠBlack Berry
ĠBeng als
ĠArn old
w ent
us ra
un al
s ix
ri um
ra ai
q a
opp y
iz ers
it ous
in ters
in burgh
ign ment
gg er
ean or
dull ah
cent er
author ized
aun ting
ans ing
S F
ON Y
Mult iplier
F ixed
Explosive DamageResonance
D ark
C ome
7 50
Ġwood s
Ġw oke
Ġw ives
Ġvari ants
Ġun b
Ġtort ured
Ġto mb
Ġterrit orial
Ġsuppl iers
Ġsubst ances
Ġspecific s
Ġshel ves
Ġshe lf
Ġreconst ruct
Ġquarterback s
Ġprotest ing
Ġpro long
Ġpr ag
Ġpick up
Ġo ven
Ġnot or
Ġneg lect
Ġmole cular
Ġjail ed
Ġinvent ory
Ġins ulin
Ġindic ator
Ġfert il
Ġexc av
Ġco vert
Ġc ra
Ġbre eding
Ġassist ed
Ġanx ious
Ġaffili ated
Ġaff irm
Ġadm itting
Ġactiv ated
Ġactiv ate
ĠY ellow
ĠTit ans
ĠT yp
ĠSand y
ĠRepresent ative
ĠProp het
ĠM aking
ĠLabor atory
ĠL aud
ĠKn icks
ĠK end
ĠK ant
ĠHop kins
ĠHait i
ĠH obbes
ĠGu ant
ĠG ut
ĠG ir
ĠFred er
ĠD uc
ĠCourt esy
ĠCo ff
ĠB anks
Ġ9 2
Ð¾ Ñģ
Ð½ Ð¸
y outube
work ers
re ne
r ational
pro ve
p al
oy s
olit ics
m el
if ax
iet h
het ical
ft y
em ail
edd y
ci um
c amp
akes pe
ag ain
ad os
Sm ith
Sand ers
P oint
Nove mber
List en
LE S
Glc NAc
EN D
AC T
200 5
% ),
Ġupgr aded
Ġunder water
Ġstret ched
Ġstere otype
Ġspecial ized
Ġsl og
Ġsh oe
Ġs way
Ġredu ctions
Ġpri ests
Ġpl ausible
Ġpist ol
Ġneuro log
Ġmy st
Ġmethod ology
Ġm arsh
Ġlegitim acy
Ġincorpor ated
Ġhuge ly
Ġfr ames
Ġdys function
Ġd oc
Ġconcent rated
Ġcomb inations
Ġcirc ulation
Ġbe ast
Ġat oms
Ġassault s
Ġanaly zing
Ġadequ ately
Ġ[- ]
ĠWin ston
ĠW id
ĠW ag
ĠU pper
ĠU m
ĠU FO
ĠS eth
ĠRock ets
ĠR oth
ĠQu ick
ĠP and
ĠOper ations
ĠM umbai
ĠM ons
ĠLe ave
ĠKen ya
ĠI CE
ĠHol ocaust
ĠEr n
ĠD olphins
ĠCru ise
ĠBurn s
ĠBrend an
ĠBab y
ĠAss ass
ĠAsh ley
Ġ18 00
Ġ vel
Ð¾Ð ¹
ro b
re x
ou x
ou ble
ll o
ish ops
imp se
heim er
g om
g mail
e i
connect ed
col or
ar oo
an os
Rec ently
J oe
E xt
E r
Con nect
> </
Ġvit amin
Ġvir uses
Ġv icious
Ġv ic
Ġuniform s
Ġunh appy
Ġtime ly
Ġt sun
Ġt ended
Ġstaff er
Ġsoph omore
Ġsl ated
Ġshow c
Ġs ore
Ġret ention
Ġrepe ating
Ġprotocol s
Ġporn ography
Ġpast or
Ġp ir
Ġp ap
Ġoverlook ed
Ġout line
Ġoff line
Ġnot ices
Ġmet eor
Ġmanufact ured
Ġl over
Ġk in
Ġimp osing
Ġim min
Ġhonest y
Ġgl impse
Ġgi ants
Ġg ru
Ġg rief
Ġfil ters
Ġfe ver
Ġf ren
Ġexclus ion
Ġerupt ed
Ġenjoy able
Ġen velop
Ġdis k
Ġdem ise
Ġd un
Ġd ice
Ġcou pled
Ġcontribut ors
Ġconnect ivity
Ġconfir ming
Ġbund le
Ġbicy cle
Ġback yard
Ġb ubb
Ġansw ering
Ġang les
Ġad oles
ĠW el
ĠVal ve
ĠThe resa
ĠRh ode
ĠRe ich
ĠPot ter
ĠP atel
ĠMot ors
ĠK o
ĠGreat er
ĠF ocus
ĠCom plete
ĠCan on
ĠB row
ĠApp eals
ĠAmeric as
Ġ20 30
z el
sh adow
qu ote
pp o
own er
occ up
fe it
ec d
charg ed
akespe are
Pl an
In c
F ive
B rown
AN N
A round
12 5
Ġwrit ings
Ġwip ed
Ġvast ly
Ġub iqu
Ġtrans mitted
Ġtheore m
Ġt ide
Ġt ender
Ġsoul s
Ġsol ic
Ġsmugg ling
Ġsex y
Ġrese mble
Ġres il
Ġreg ression
Ġr ipped
Ġquant ities
Ġop io
Ġo w
Ġmin us
Ġliber ties
Ġkid ney
Ġj azz
Ġin mate
Ġfin ishes
Ġfair ness
Ġex emption
Ġenthusi astic
Ġemb od
Ġem pir
Ġdr astically
Ġdiv ine
Ġdiscover ing
Ġdis reg
Ġdig est
Ġde af
Ġcriticism s
Ġcomed ian
Ġcha otic
Ġc ater
Ġbail out
Ġ[+ |
ĠY ugoslav
ĠWhe el
ĠTh rones
ĠR ugby
ĠPre vention
ĠP oly
ĠO ri
ĠMed iterranean
ĠM add
ĠJosh ua
ĠInd ependence
ĠHold er
ĠHaw ks
ĠFal cons
ĠC oca
ĠB og
âĢĿ ?
Ä Ł
y on
v ity
v ideo
us ers
umn i
s an
reat ing
m allow
ign ant
ig s
ic ates
ge ons
def ense
amm ad
ab ee
T urn
II I
He alth
F ull
B as
Al ong
AG E
Ġwho lly
Ġwat ches
Ġvulner abilities
Ġunpredict able
Ġsuccess es
Ġst ub
Ġsound track
Ġshot gun
Ġsens ing
Ġrecip es
Ġmonit ors
Ġmed ieval
Ġlow ered
Ġle aking
Ġl ag
Ġjud ging
Ġinher ited
Ġimprison ment
Ġhighlight ing
Ġhe m
Ġgrass roots
Ġgen ome
Ġforg ot
Ġf ox
Ġf lick
Ġenjoy s
Ġel imination
Ġeat en
Ġdies el
Ġd iamond
Ġcrew s
Ġcor rection
Ġconce aled
Ġcl ips
Ġcateg or
Ġboss es
Ġbo il
Ġb og
Ġb ent
Ġalleg ing
ĠW a
ĠSold ier
ĠS ri
ĠPy ongyang
ĠPhys ics
ĠPer formance
ĠN uclear
ĠMatthew s
ĠM end
ĠJohn ston
ĠInd igenous
ĠHe ights
ĠH im
ĠGr ace
ĠGT X
ĠF T
ĠE ston
ĠDem ocracy
ĠDek raai
ĠBever ly
ĠBase ball
ĠAd vanced
Ð¾ Ð»
Ð ¹
Ð ³
z i
v or
v als
uster ity
st eps
s ay
p ad
ot ive
oot s
it ial
int egr
ins pired
ind a
ie ves
g on
g ay
ey ed
el ia
d ogs
c ov
c oun
ant ity
achel or
XX X
Spe cial
J im
C BS
Ġvac ant
Ġsh ine
Ġse af
Ġro oted
Ġrhyth m
Ġreward ed
Ġrev is
Ġrecomm ends
Ġl od
Ġl ent
Ġl aughter
Ġinfer ior
Ġha w
Ġexp osing
Ġev angelical
Ġelect orate
Ġdown s
Ġdecent ral
Ġdeb ts
Ġdark er
Ġcompet ent
Ġcomment ators
Ġcell phone
Ġcauc us
Ġc otton
Ġc ared
Ġapp le
Ġantibiot ics
ĠV A
ĠSimp son
ĠSemin ole
ĠS weet
ĠS ave
ĠR PG
ĠO pt
ĠN AFTA
ĠMount ains
ĠMe chan
ĠLear n
ĠK ane
ĠJ os
ĠG ors
ĠF ischer
ĠD OM
ĠCele b
ĠBou levard
ĠAut om
} }
t ax
so ld
sh ould
opp ers
omm end
im edia
ff iti
et o
er ness
eng ine
d eb
cl ock
b usiness
V M
St ream
R d
O B
200 4
Ġup held
Ġtrave lled
Ġtrans cription
Ġtoss ed
Ġthr ust
Ġsurf aces
Ġsuff ers
Ġstory telling
Ġsens ation
Ġs ights
Ġrele vance
Ġpur ported
Ġpo et
Ġplace ment
Ġmet er
Ġmasc ul
Ġload s
Ġl ion
Ġhasht ag
Ġgreet ed
Ġgrab bing
Ġgall ons
Ġfaith ful
Ġfact ion
Ġexha usted
Ġecho ed
Ġeas iest
Ġcrack ed
Ġcorner back
Ġcon gest
Ġbr ass
Ġback ward
Ġb acon
Ġawa iting
Ġamb ition
Ġaccompany ing
ĠV ick
ĠS B
ĠPolit ico
ĠPear l
ĠObserv atory
ĠNare ndra
ĠMuham mad
ĠMap le
ĠL ag
ĠKum ar
ĠJ ob
ĠHop efully
ĠHe aven
ĠH erman
ĠF alls
ĠD ylan
ĠCons umer
ĠCol ts
ĠCharg ers
ĠC opyright
ĠBook er
ĠBer g
ĠB ody
ĠAz ure
ĠAD L
Ġ24 0
Ġ196 4
Ġ12 8
yrr ha
uff s
t c
s ic
raz y
quire r
play ed
pl anes
pat rick
p ict
os aur
oint ed
ocy tes
n ings
is ans
ir ies
id is
f ight
ent ric
duct ed
d ist
bor o
aw ed
acer b
S B
Read y
O H
" ),
Ġvan illa
Ġst ew
Ġshall ow
Ġseek ers
Ġs iege
Ġrem inis
Ġrecip ient
Ġprospect ive
Ġpopul ist
Ġpar as
Ġp und
Ġopt ical
Ġmar vel
Ġlit eral
Ġl ining
Ġjump s
Ġinsp iring
Ġins isting
Ġimm unity
Ġhor r
Ġhe els
Ġe ld
Ġdist urb
Ġded ication
Ġdebut ed
Ġcycl ists
Ġconj unction
Ġcertain ty
Ġc oding
Ġbrows ers
Ġbless ing
Ġb ast
Ġappoint ments
Ġad ul
Ġactiv ism
Ġa ster
ĠZ ucker
ĠW ait
ĠT ournament
ĠT PP
ĠSw ord
ĠSum mit
ĠSter ling
ĠSh ane
ĠS witch
ĠS kin
ĠMoh amed
ĠMill enn
ĠM ans
ĠLy ft
ĠL ogan
ĠL ay
ĠJoy ce
ĠJ ung
ĠInter ior
ĠGod zilla
ĠFl oyd
ĠE A
ĠDep ression
ĠCy ber
ĠComb at
ĠCo in
ĠA er
Ġ ..........
y d
ut ic
um ed
per m
oc o
ne ys
ne apolis
lu x
l ings
iv ated
ish ment
is le
in qu
if iable
gom ery
g ro
en es
do ors
d et
c led
b c
ark ed
Tr ack
St ring
R ub
OS E
H ome
E U
D an
16 8
":[ {"
" ?
Ġwrong doing
Ġvis ibility
Ġthere after
Ġsuper visor
Ġstatist ically
Ġsp here
Ġsh attered
Ġs or
Ġref ined
Ġrail way
Ġpred ators
Ġpig s
Ġopt imal
Ġn est
Ġmet aph
Ġm Ã¡s
Ġlight ly
Ġj ungle
Ġinc ap
Ġhy ster
Ġhon ored
Ġfrag ile
Ġfor wards
Ġfe ud
Ġex acerb
Ġeleg ant
Ġdistingu ished
Ġdetermin es
Ġdeal er
Ġde port
Ġcontem pl
Ġconstitu ents
Ġconsist ed
Ġcol ours
Ġche f
Ġcens orship
Ġcatast rophic
Ġcamp uses
Ġbuy er
Ġbr ines
Ġbot hered
Ġbl at
Ġbenef ited
Ġatmosp heric
Ġan ecd
Ġal arming
Ġaff idav
Ġa in
ĠV ince
ĠUS D
ĠT iger
ĠSw ift
ĠSpot ify
ĠSh akespeare
ĠN J
ĠM ember
ĠLoad ing
ĠLe x
ĠK on
ĠI de
ĠH outh
ĠD ow
ĠC I
ĠB in
ĠB asket
ĠAustral ians
ĠAct ually
ĠAb dullah
Ġ `
âĢ¦âĢ¦âĢ¦âĢ¦âĢ¦âĢ¦âĢ¦âĢ¦ âĢ¦âĢ¦âĢ¦âĢ¦âĢ¦âĢ¦âĢ¦âĢ¦
âĢ ²
Ð¾ ÑĢ
} ],"
view s
t ake
spons ored
rit z
pr im
ophob ic
o zy
ere rs
b led
aid a
ady rov
W rit
Read er
R P
Le g
Int erest
Add itionally
AS S
ĠÐ ¶
Ġware house
Ġto k
Ġt ense
Ġsyn c
Ġst ove
Ġslow ed
Ġsh ade
Ġrob otic
Ġreiter ated
Ġrecruit ment
Ġpropri etary
Ġprompt ly
Ġpour ing
Ġphot ographed
Ġph ases
Ġpath way
Ġpar an
Ġpaper work
Ġneighbour s
Ġmor ph
Ġlearn s
Ġlaugh s
Ġje ans
Ġinaug uration
Ġhe ck
Ġg em
Ġflav ors
Ġemphas ize
Ġele ph
Ġdeb ated
Ġd oses
Ġcustom s
Ġcru ise
Ġconstit utes
Ġchar ming
Ġch ill
Ġcapt ures
Ġback drop
Ġapolog ized
Ġagg rav
ĠWe ather
ĠT rip
ĠSt uart
ĠSh op
ĠSh a
ĠN ar
ĠK enny
ĠJ up
ĠJ azeera
ĠJ ays
ĠId aho
ĠGr imm
ĠFl ag
ĠEx xon
ĠE asy
ĠAd rian
Ġ2 15
Ġ17 0
Ġ __
ãĥ ¼
Î ²
Ã¨ re
sh ort
pt ic
on gh
names e
m ails
j er
intend ent
in ational
ill ions
ig ue
ig el
ger ald
f ired
es ville
c in
Te chn
R s
M essage
Ind ia
Don nell
Ġwor m
Ġvibr ant
Ġuncom mon
Ġu m
Ġtw isted
Ġtr aps
Ġthread s
Ġt ant
Ġstory line
Ġstorm s
Ġstake holders
Ġshort s
Ġshare holders
Ġsec urities
Ġse ated
Ġru ins
Ġrom ance
Ġreconst ruction
Ġreal izing
Ġre nown
Ġoutrage ous
Ġoff spring
Ġmos qu
Ġmin es
Ġment or
Ġmed ications
Ġkind a
Ġincl usive
Ġh ipp
Ġgl ow
Ġgif ted
Ġg ently
Ġfr acking
Ġfeas ible
Ġexp on
Ġenfor ced
Ġener g
Ġdifferent ial
Ġdelic ate
Ġcorrid or
Ġconsult ation
Ġcatal og
Ġcandid acy
Ġc ried
Ġc ite
Ġc ables
Ġb end
Ġar row
Ġamend ments
Ġacadem ics
ĠW A
ĠTh om
ĠT win
ĠSur face
ĠSt rong
ĠSen ators
ĠRock y
ĠRe lease
ĠPartners hip
ĠPC s
ĠP apers
ĠO w
ĠMon ica
ĠLe ad
ĠLGBT Q
ĠL P
ĠK er
ĠJohn s
ĠH ab
ĠGand hi
ĠF uk
ĠCh ry
ĠCh an
ĠC rew
ĠC ald
ĠC E
ĠBan ner
ĠAur ora
ĠAss ault
yn c
we b
viol ent
uck ed
st ud
other apy
oss ibly
oll o
g ithub
est ine
ci pl
ch anging
bour g
ator ial
at ility
an ic
act ly
ac ist
P erson
M att
ID S
Ge orge
F ind
Co in
AN T
======== ========
* ,
Ġver bal
Ġvar ies
Ġtax ation
Ġsymp athy
Ġst agn
Ġsp ike
Ġsne ak
Ġsimilar ities
Ġsh red
Ġsh irts
Ġrig id
Ġrest art
Ġrebell ion
Ġr ack
Ġpres erved
Ġpo orest
Ġpo ised
Ġpl um
Ġnic he
Ġnegative ly
Ġmir acle
Ġmarch ing
Ġins ider
Ġinjust ice
Ġingred ient
Ġincre ment
Ġfut ures
Ġfore ns
Ġfore most
Ġey eb
Ġexplos ives
Ġer ase
Ġele ven
Ġdict ators
Ġcur iosity
Ġcourt room
Ġcont ention
Ġcondition ing
Ġconced ed
Ġcompl ications
Ġcert ified
Ġbureau cr
Ġadd itions
ĠY am
ĠUn less
ĠTom my
ĠSerb ia
ĠR NA
ĠN iss
ĠMet al
ĠLam ar
ĠDan ish
ĠD rew
ĠBeng al
ĠB ent
ĠB ach
ĠAl ways
Ġ* /
Ðº Ð¸
Ã© d
p ers
ment ation
m us
ke eping
ist ical
h ou
f illed
asc ular
W as
W A
V is
Per malink
M ass
L ee
L ead
G S
Europe an
! ).
ĠÐ ³
Ġ{ {
Ġvol can
Ġver ge
Ġv ou
Ġv ivid
Ġsuper market
Ġstate wide
Ġsquee ze
Ġslow ing
Ġself ish
Ġsc andals
Ġreg ain
Ġrecip ients
Ġperform ers
Ġpaint ings
Ġo we
Ġnar rator
Ġmot ives
Ġlip stick
Ġint e
Ġincl ined
Ġimpl ied
Ġhint s
Ġgun men
Ġgra pp
Ġev olving
Ġdetect ives
Ġdes irable
Ġdep uties
Ġd ude
Ġbu cks
Ġaut umn
Ġat om
Ġastronaut s
Ġaffili ation
Ġa ven
ĠY e
ĠWe ap
ĠThanks giving
ĠSpe aking
ĠSC P
ĠR andy
ĠOr acle
ĠO t
ĠNev ille
ĠM our
ĠM ik
ĠLike wise
ĠK il
ĠJ in
ĠInn ov
ĠFl a
ĠEp isode
ĠAndre a
Îµ Î¹
z an
ut able
ul atory
se at
s end
run ning
r ays
ott est
le ague
k ar
in v
ic ian
g one
ess ors
end or
at ri
ale z
ab lo
Republic an
R yan
Pro t
Off icials
M ex
H i
COM MENT
Ġz oning
Ġw ary
Ġv ow
Ġun supported
Ġtyp ing
Ġtraject ory
Ġto pp
Ġthe sis
Ġst ole
Ġspr int
Ġsoc io
Ġsl ice
Ġsl aughter
Ġsimpl icity
Ġrel ates
Ġprohib it
Ġpredomin antly
Ġpr iced
Ġper secution
Ġpen is
Ġobs essed
Ġmult ip
Ġkn ot
Ġincomp et
Ġimper ative
Ġhand gun
Ġgrad uation
Ġgra ffiti
Ġgenet ically
Ġext ensions
Ġex terior
Ġengine ered
Ġembarrass ed
Ġdub ious
Ġdiscipl inary
Ġdimin ished
Ġdest ined
Ġdefin itions
Ġcr ashing
Ġcont race
Ġcompens ate
Ġcomb ining
Ġche ating
Ġcert ification
Ġcease fire
Ġc ad
Ġbud dy
Ġbook ed
Ġbl essed
Ġbed s
Ġbar red
Ġam nesty
ĠZe lda
ĠWe iner
ĠW ITH
ĠW E
ĠVeter ans
ĠVal ue
ĠUlt imate
ĠSask at
ĠRe pe
ĠPro duction
ĠN ord
ĠN early
ĠN X
ĠI F
ĠGriff in
ĠGreg ory
ĠFour th
ĠFitz gerald
ĠField s
ĠFe el
ĠFa ith
ĠEmer gency
ĠE sp
ĠCur rent
ĠCom ment
ĠC rist
ĠBro ck
ĠBr is
ĠAd vis
Ġ196 1
Ġ0 6
Ġ" [
Ð» Ð°
yl on
xt on
raft ed
r ina
pd f
k ers
iv able
in el
i work
d b
be h
b ling
W il
UMB ERG
N umber
Cl oud
C ru
B rien
B ern
AC E
,âĢĻ âĢĿ
Ġy a
Ġworks hop
Ġwhistle bl
Ġv ault
Ġut ilities
Ġsur g
Ġshel ters
Ġsh adows
Ġscar ce
Ġretail er
Ġque en
Ġpsych ologist
Ġprogram mes
Ġpro se
Ġpos ing
Ġpop ulated
Ġp unk
Ġnorm s
Ġmax imize
Ġlog ging
Ġlight weight
Ġlau nd
Ġl end
Ġl akh
Ġillust rates
Ġhorizont al
Ġfeed s
Ġexp ans
Ġen rolled
Ġen rich
Ġdesp air
Ġdece ased
Ġcr us
Ġcook ies
Ġconcent rate
Ġcomp uls
Ġcommem or
Ġcollect ions
Ġc ensus
Ġbron ze
Ġborrow ed
Ġbom ber
Ġbit ch
Ġbas ics
Ġbarg aining
Ġapp arat
Ġalumin um
Ġacknowled ging
ĠW ing
ĠTri ple
ĠSt ring
ĠSp urs
ĠSh ot
ĠS inger
ĠS ans
ĠS ach
ĠRun ner
ĠReds kins
ĠP V
ĠNov ak
ĠN ut
ĠL ance
ĠK adyrov
ĠJes se
ĠInvest igation
ĠI RA
ĠHay es
ĠH appy
ĠE le
ĠC obb
ĠBoe hner
ĠBL UMBERG
ĠB ark
ĠA FL
Ġ196 3
Ġ19 48
th s
t v
s ided
road s
ress es
res olution
ope z
n c
le ys
hem atic
f alls
et r
de ep
d an
cre ate
cour t
cour se
br and
bl ue
ay an
ass an
aph ore
ad h
S H
LE D
J S
I ts
G P
E ver
Con nor
16 0
Ġweek ends
Ġw ax
Ġtoler ate
Ġsurpr ises
Ġstruct ured
Ġstimul i
Ġsm ashed
Ġsen iors
Ġric hest
Ġrib bon
Ġreg ener
Ġreflect ing
Ġrain fall
Ġown ing
Ġover time
Ġoccur rence
Ġnotice able
Ġnot ifications
Ġneutral ity
Ġne p
Ġjurisd ictions
Ġjewel ry
Ġimpro ves
Ġimprison ed
Ġill icit
Ġhur ting
Ġhon ors
Ġgar lic
Ġg le
Ġfright ening
Ġfree zing
Ġencrypt ed
Ġdep osit
Ġconc ur
Ġcompr ised
Ġcig arettes
Ġcamp ing
Ġbuff er
Ġbo oth
Ġb ourgeois
Ġatroc ities
Ġang el
Ġanal ogy
Ġacknowled ges
Ġa rose
ĠUlt imately
ĠS nyder
ĠR aspberry
ĠPhil os
ĠPere z
ĠMurd och
ĠMin neapolis
ĠM i
ĠM aterial
ĠK id
ĠInt egr
ĠGet ting
ĠF ortunately
ĠF IFA
ĠEurope ans
ĠE sc
ĠCour thouse
ĠCent ers
ĠBl ade
ĠAmb assador
ĠA A
whe el
urch ase
pro cess
ot ine
oot er
n els
mo il
m oon
ise xual
iff erence
ic hel
he arted
h ouses
f amily
c iously
bal ance
at ics
all ah
ad vert
S AN
L in
Bet ween
ĠÑĩ ÑĤÐ¾
ĠÃ ¨
ĠÂ ±
Ġwell s
Ġwar rants
Ġunf amiliar
Ġtum or
Ġtr aces
Ġtr aced
Ġtele com
Ġtask ed
Ġsm iled
Ġsm arter
Ġshell s
Ġse ize
Ġsc iences
Ġrig orous
Ġrest ing
Ġquick er
Ġprop osing
Ġpromot es
Ġout spoken
Ġnot ification
Ġn aming
Ġliv est
Ġlin ux
Ġintrodu ces
Ġinput s
Ġincorpor ate
Ġinaccur ate
Ġillust ration
Ġgener ator
Ġf og
Ġemploy s
Ġe ch
Ġdisplay ing
Ġdisapp ro
Ġd iam
Ġcur tain
Ġcritic ize
Ġcomp iler
Ġcol ored
Ġcl iff
Ġc el
Ġbre asts
Ġback pack
Ġass ure
Ġall ocation
Ġaccept s
ĠWord Press
ĠV as
ĠTer min
ĠSom alia
ĠSh arks
ĠS A
ĠRe play
ĠO le
ĠNational s
ĠL TE
ĠKenn eth
ĠHun ting
ĠGene va
ĠFront ier
ĠEd inburgh
ĠD ame
ĠCore y
ĠCan ucks
ĠBet a
ĠBapt ist
ĠB ec
ĠAr s
ĠAh mad
Ġ4 50
udd enly
t em
ou g
ot ers
osh i
orth y
og yn
mod ern
man y
l on
k g
il ib
il ers
ib u
f ocused
en za
de velop
clip se
ched el
che t
bach ia
at z
an ut
ach i
W elcome
Th omas
S ad
R om
Pr ime
N ov
M a
Further more
C ent
Ġwh ale
Ġv in
Ġv est
Ġsp am
Ġsm ash
Ġs ir
Ġrenown ed
Ġrecogn ised
Ġpredict able
Ġpr inter
Ġplay ground
Ġp ork
Ġp ills
Ġobject ions
Ġnob le
Ġnever theless
Ġmis er
Ġm asters
Ġl ac
Ġinterrupt ed
Ġint ric
Ġinnoc ence
Ġimp ly
Ġimmin ent
Ġi od
Ġdis l
Ġd ile
Ġcontest ed
Ġcont ests
Ġcho oses
Ġax is
Ġassum es
ĠWh ats
ĠR ot
ĠR hod
ĠProf essional
ĠPen gu
ĠN aval
ĠMoh ammad
ĠMin ority
ĠL ac
ĠL AN
ĠIndust ry
ĠI van
ĠHy per
ĠG aming
ĠDrag ons
ĠCol lection
ĠC oy
ĠC ob
ĠC SS
ĠBe gin
ĠB rat
rec ord
p el
ort on
ook ie
m aid
j u
ion age
ic able
i ud
he res
a que
Res earchers
Pl us
O O
Mc C
IN K
H uman
F rench
Em DamageResonance
EL L
D er
C raft
Be yond
' '
ĠÂ §
Ġzomb ie
Ġun con
Ġthought ful
Ġteach ings
Ġs ang
Ġs aga
Ġrepl icate
Ġremember ing
Ġre jo
Ġpredict ing
Ġne arest
Ġmark er
Ġinst itute
Ġind o
Ġid iot
Ġheight ened
Ġh ills
Ġgr in
Ġgr ams
Ġfuel ed
Ġforb idden
Ġextract ed
Ġex otic
Ġemail ed
Ġdevast ated
Ġcontam ination
Ġcont empt
Ġcomb ines
Ġce ment
Ġcapt uring
Ġappropri ately
Ġairst rikes
Ġair ports
Ġabsor bed
Ġab st
Ġ\ (
ĠVide os
ĠV ision
ĠT arget
ĠRut gers
ĠPar ks
ĠPa vel
ĠP u
ĠP orter
ĠO val
ĠNe uro
ĠMcN am
ĠKit chen
ĠH ack
ĠG ri
ĠG E
ĠForm ula
ĠEll en
ĠE ST
ĠC lear
ĠC airo
Ġ11 60
Ġ ï¿½
y ers
the med
ownt own
ok ers
ig ion
ich i
i per
ela ide
at ivity
ash a
ang ular
William s
T est
Other s
I ran
Get ting
E nt
Add ed
. ;
,âĢĻ âĢĻ
ĠâĪĴ /
ĠÐĺ Ð¼Ð°Ð½
Ġyear ly
Ġv om
Ġundert aken
Ġun real
Ġun named
Ġtransl ates
Ġspin ning
Ġshut ting
Ġship Bonus
Ġreprodu ctive
Ġreferen ced
Ġreck less
Ġprocess ors
Ġphenomen a
Ġperfect ion
Ġnurs ing
Ġmult inational
Ġmet rics
Ġmed d
Ġmar ched
Ġm und
Ġm ud
Ġm apping
Ġl amb
Ġinspect or
Ġind ul
Ġfundra iser
Ġflood ed
Ġf oes
Ġend uring
Ġdistract ion
Ġdisrupt ive
Ġdev il
Ġcreep y
Ġcont ributes
Ġconst itute
Ġcon ceived
Ġcl utch
Ġbroadc aster
Ġbreat he
Ġbol ster
Ġb apt
Ġattract ing
Ġam ended
Ġ] ,
ĠW u
ĠW alt
ĠTre asure
ĠT ol
ĠT ar
ĠSat urn
ĠSadd am
ĠS HA
ĠR C
ĠR BI
ĠP ul
ĠN as
ĠN RA
ĠM ade
ĠHT TP
ĠH ousing
ĠFR OM
ĠF ur
ĠEn forcement
ĠEm irates
ĠD uck
ĠChurch ill
ĠC ory
ĠC inem
ĠArch ives
ĠAnd ers
Ġ19 39
Ġ urch
Ġ ion
uck abee
sp an
ro e
ri ad
pe z
on ial
oc hem
lic t
l ain
ke ll
im ity
im eter
il ight
igg ins
ick y
ex cept
est abl
els h
d riving
c ro
c ould
bl ood
b ank
am my
am el
ag in
In cre
Ch ief
C oun
B esides
ĠâĪĴ/ âĪĴ
Ġy east
Ġweigh ing
Ġw inger
Ġutil ize
Ġur ine
Ġupload ed
Ġtur moil
Ġtsun ami
Ġtr action
Ġter rific
Ġtatt oo
Ġselect ing
Ġse as
Ġs q
Ġretro spect
Ġrehab ilitation
Ġreb uilding
Ġre ef
Ġr apper
Ġprim itive
Ġprem ises
Ġph osph
Ġparticip ant
Ġpal ace
Ġon set
Ġoff ended
Ġobst ruct
Ġobs ess
Ġnep hew
Ġneed le
Ġmin ors
Ġmax im
Ġlength s
Ġkn ocking
Ġjudge ment
Ġjer sey
Ġintern ally
Ġinc arn
Ġident ifies
Ġhous ed
Ġhome owners
Ġha em
Ġgoal keeper
Ġfreedom s
Ġexped ition
Ġdest abil
Ġdefin ite
Ġconf ined
Ġconcept ion
Ġcommun icating
Ġclean er
Ġbroadcast ing
Ġautonom y
Ġapparat us
Ġambul ance
Ġalleg ation
Ġa rous
ĠY ale
ĠVern on
ĠToy ota
ĠTim othy
ĠThrough out
ĠT rou
ĠT ask
ĠSav age
ĠS id
ĠR ogue
ĠN okia
ĠInvest ment
ĠIM F
ĠHom er
ĠH od
ĠH aven
ĠG R
ĠDel aware
ĠD ance
ĠCons ervation
ĠCaval iers
ĠC U
ĠAnn ual
Ġ& &
Ã¼ r
Ã± a
ven ant
us p
r ue
r ab
p rop
p atch
ous se
ot er
ocaly pse
min em
le um
ld man
ip es
iat ric
ia z
f inal
com pet
bre aks
an ie
af ort
ad ia
V E
S ha
R un
Pro s
ON E
Al most
: [
00 1
Ġyield s
Ġv intage
Ġunder going
Ġund ec
Ġunanim ously
Ġtreat s
Ġt outed
Ġsuper b
Ġsufficient ly
Ġst al
Ġst aged
Ġsing les
Ġsh aping
Ġserv ants
Ġs atur
Ġpupp y
Ġpro claim
Ġpres erving
Ġpot atoes
Ġport al
Ġper t
Ġpath ways
Ġpast a
Ġout reach
Ġnodd ed
Ġmilit ar
Ġhop eless
Ġdom ains
Ġdatas et
Ġconcent rations
Ġcoc onut
Ġclos et
Ġcircum cision
Ġbre wing
Ġbrand ed
Ġborrow ing
Ġb ang
Ġacadem y
ĠViet namese
ĠVal ent
ĠU V
ĠTro phy
ĠRep orter
ĠRe yn
ĠM kk
ĠM ann
ĠL ate
ĠKat ie
ĠK oh
ĠK ob
ĠFil ip
ĠEm ma
ĠD ol
ĠD ash
ĠCroat ia
ĠC any
ĠC ad
ĠBra ves
ĠAud i
ĠAub urn
ĠAng lo
w ic
us k
t ar
ster dam
st ated
se in
sc ope
qu arter
ott a
na ire
l iv
l ance
in berg
gu ided
gu ards
g ie
ev al
ened ict
d in
d id
a verage
^ ^
] :
Ther mal
Th ings
LET TE
L ocation
IS S
H en
Com ments
ĠâĢ ķ
Ġupd ating
Ġunbeliev able
Ġt apes
Ġt ally
Ġsuscept ible
Ġsuccess ive
Ġsub urb
Ġspec ulate
Ġsp ies
Ġso ber
Ġsh am
Ġsh ale
Ġsh a
Ġs ulf
Ġrefres hing
Ġrefere e
Ġreal ities
Ġpreval ent
Ġpedest rian
Ġoff ences
Ġn ortheast
Ġmult ipl
Ġmilit ia
Ġla wn
Ġintention al
Ġimpact ed
Ġha ul
Ġfr amed
Ġforecast s
Ġfl own
Ġearn est
Ġd ur
Ġcorrect ed
Ġcook ie
Ġclin ics
Ġcal culation
Ġbas k
Ġbarg ain
Ġball istic
Ġadvoc ating
Ġadvoc ated
Ġac oustic
ĠTr an
ĠRay mond
ĠPod esta
ĠOb ject
ĠM UST
ĠK ur
ĠHirs i
ĠH ook
ĠGu inea
ĠFried man
ĠF iro
ĠE lder
ĠCole man
ĠCeleb ration
ĠCD C
ĠC hes
ĠB ren
ĠB ates
ĠA verage
ĠA V
Ġ19 2
âĢ¦ ]
Ø §
ÏĦ Î¿
ubb ard
s kin
ow itz
od ala
ix els
ins ky
gu odala
els en
com plete
at in
alk er
al ities
T otal
St at
Scient ists
Sc roll
S un
Re view
M W
J ul
J IL
F oot
D en
C ola
C ON
B uild
Ġver ified
Ġtw ent
Ġtok ens
Ġsupp lements
Ġstand point
Ġst ems
Ġsn iff
Ġsl am
Ġsem ester
Ġsect arian
Ġsand wich
Ġs ands
Ġru ined
Ġrev ival
Ġrequest ing
Ġrenew al
Ġref rig
Ġprop s
Ġprogress ives
Ġproceed ed
Ġprescrib ed
Ġphr ases
Ġperce ive
Ġp ave
Ġp ant
Ġorganiz er
Ġnational ism
Ġmir rors
Ġmeaning less
Ġl ament
Ġl acey
Ġju ven
Ġimm ort
Ġhealth ier
Ġha iled
Ġh ates
Ġground ed
Ġgl orious
Ġexceed ed
Ġep it
Ġens ures
Ġend ure
Ġdis asters
Ġdeleg ation
Ġcr ises
Ġcr acks
Ġconsum ing
Ġconf ession
Ġcomp ares
Ġchar ities
Ġcell ular
Ġcar ved
Ġav iation
Ġash amed
Ġall ied
ĠYork er
ĠT rent
ĠSt ay
ĠSim ply
ĠSU V
ĠResp ons
ĠNorth western
ĠN C
ĠMont gomery
ĠLad en
ĠImp act
ĠId ent
ĠIS BN
ĠG Ã¶del
ĠF M
ĠD ell
ĠC opy
ĠC ards
ĠBrew ing
ĠBas ically
ĠAlex and
âĺħ âĺħ
Ð° ÑĤÑĮ
Å į
y ll
w on
vas ive
v d
stat us
s um
s burg
r Ã©
r ine
r anking
qu in
pe ace
os er
it ime
ight y
iff e
ident ally
ic ularly
ex isting
d oc
d irection
ch at
au v
ant in
aj o
Rep ly
Fr iday
D i
/ -
Ġ} ;
Ġwas hed
Ġvis ually
Ġviol ates
Ġur gency
Ġthank ed
Ġsw orn
Ġstr ains
Ġspecial ty
Ġsle pt
Ġsl ides
Ġsl ap
Ġsim ulated
Ġscreens hot
Ġsc ales
Ġrespect ful
Ġremark ably
Ġprost itution
Ġpen cil
Ġpartic le
Ġnarrow ly
Ġmention ing
Ġlower ing
Ġlo oming
Ġliqu or
Ġinaug ural
Ġimm un
Ġhook ed
Ġhel pless
Ġhand ing
Ġgovern ors
Ġfont s
Ġeven ly
Ġeval uated
Ġe cc
Ġdivor ced
Ġdepth s
Ġcr ush
Ġcoordin ate
Ġcoll usion
Ġcl o
Ġbl u
Ġaccommod ation
ĠWol bachia
ĠThe ater
ĠSt alin
ĠS aid
ĠRoll ing
ĠR ift
ĠPel osi
ĠMart ian
ĠLeg ion
ĠKle in
ĠJud iciary
ĠJud a
ĠID F
ĠH off
ĠF ans
ĠEver ton
ĠEm peror
ĠCom cast
ĠCo ver
Ġ. \
Ġ Ñĥ
ÐµÐ ¹
Ä ĩ
yn asty
verse ly
ump ing
um bs
t z
secut ors
rit ical
ne eded
mm et
lif eration
iet al
ib al
form atted
ba um
aut h
ann ie
a unch
T Y
Sp ace
S aturday
Q ue
P ict
O per
JIL LETTE
B er
Ad am
19 90
10 5
.' '
":" $
Ġy e
Ġunl ocked
Ġthe rape
Ġterr ified
Ġtast es
Ġsystem atically
Ġsat ir
Ġsal ad
Ġs idelines
Ġrel iability
Ġrad ically
Ġrac ially
Ġproud ly
Ġprepar ations
Ġpoison ing
Ġplanet ary
Ġplag ued
Ġpen al
Ġpe as
Ġoverth row
Ġoccup y
Ġo ch
Ġmet als
Ġm as
Ġinv oked
Ġgen ital
Ġexagger ated
Ġeffic acy
Ġdem ons
Ġdeleg ate
Ġd ull
Ġconver ting
Ġcompe lled
Ġbl aming
Ġart illery
Ġarbit ration
Ġair plane
Ġa usterity
ĠWe bsite
ĠW TO
ĠVis ual
ĠThe ory
ĠTe resa
ĠT on
ĠSuper ior
ĠSu z
ĠSteel ers
ĠSe bast
ĠR ove
ĠPh arm
ĠP yrrha
ĠNorm an
ĠN ice
ĠMot ion
ĠFro st
ĠF ortune
ĠE gg
ĠD uterte
ĠD ry
ĠCl are
ĠCh ampion
ĠApp ro
Ġ( .
Ïĥ Î·
us hes
uls es
sec ure
rup al
rop he
op olitical
on so
me h
itch ing
i ott
hol m
h it
eff ect
e ous
cast ing
ash i
act ed
S und
D ist
! âĢĻ
Ġuns afe
Ġun authorized
Ġun armed
Ġthe ology
Ġstim ulation
Ġsmooth ly
Ġs od
Ġrev ive
Ġred es
Ġprox imity
Ġprogram mers
Ġpil gr
Ġphotographer s
Ġmer ged
Ġmaneu ver
Ġm td
Ġir responsible
Ġinstruct or
Ġillness es
Ġhur ts
Ġhorm one
Ġg ases
Ġfilm makers
Ġfav ors
Ġfantas ies
Ġemer ges
Ġemb ry
Ġdown ward
Ġdistract ed
Ġdevelop s
Ġdepend encies
Ġdeep est
Ġdecor ated
Ġcouncil s
Ġconnect s
Ġbureaucr acy
Ġbeaut ifully
Ġb idding
Ġam ass
Ġacqu iring
ĠV ive
ĠUN IX
ĠRes ults
ĠR d
ĠR apt
ĠPri x
ĠPat rol
ĠPar ad
ĠP v
ĠP red
ĠP ik
ĠP aper
ĠN y
ĠN olan
ĠMe et
ĠM ut
ĠM Hz
ĠList en
ĠHell o
ĠG ospel
ĠF ace
ĠE ug
ĠBris bane
ĠB irth
ĠAp ollo
Ġ195 8
Ġ19 18
Ġ13 5
Ġ10 4
Ð½ Ð°
Ã¶ n
Ã ´
Â ®
Â ¢
tain ing
t alk
s rc
requ ency
ren ched
r h
p res
p c
ox ic
osa urs
oci ated
l ate
iud ad
it ational
isp here
im ation
ep h
c ue
c ence
att led
ate mal
as ma
af ia
Ult imately
T en
Pac ific
M ORE
L P
Jo in
J udge
Ex per
Cong ress
Ġvin yl
Ġunanim ous
Ġtor rent
Ġtake over
Ġtack ling
Ġt apping
Ġt am
Ġswit ches
Ġst ellar
Ġsn apped
Ġresemb les
Ġrep ression
Ġrent s
Ġredu nd
Ġre he
Ġrat ios
Ġramp ant
Ġprop onents
Ġpract ition
Ġpo ols
Ġpo em
Ġphysic ians
Ġparadig m
Ġovert urned
Ġobject ed
Ġmis dem
Ġmil estone
Ġlog in
Ġl ure
Ġintermedi ate
Ġhit ter
Ġfre ak
Ġfl ame
Ġexc lude
Ġdoub les
Ġdil ig
Ġde portation
Ġd os
Ġcul min
Ġcost umes
Ġcomfort ably
Ġcol ony
Ġcan vas
Ġbound ary
Ġbell s
Ġaver aging
Ġan nex
Ġal lev
Ġadvert ised
Ġa u
ĠV ector
ĠT ottenham
ĠS R
ĠRep orts
ĠProduct ions
ĠPod cast
ĠPl aza
ĠN OW
ĠM illion
ĠL DS
ĠGu atemal
ĠGors uch
ĠGab riel
ĠFrank en
ĠElect ronic
ĠCoun sel
ĠCle arly
ĠA very
ĠA U
ãĢĤ ãĢĤ
ÐµÐ ¼
Ã± o
un i
so ver
s cient
rend ered
re z
q l
per cent
ol ation
ograph ics
l ide
l ia
k ov
iv or
iv o
ing ham
i ak
health y
h ops
et ooth
est e
ce ans
c uts
bu ilt
b as
ars ons
You ng
T I
St op
Sh ould
R ay
L ow
ID E
E lect
D om
D ate
C BC
Ġy oga
Ġvolunt arily
Ġun m
Ġtun nels
Ġthr one
Ġsyn chron
Ġsuprem acy
Ġstun ned
Ġst ip
Ġspe cially
Ġsm iles
Ġshr inking
Ġrival ry
Ġregul ator
Ġreconcil iation
Ġr im
Ġp ulse
Ġp iano
Ġo ath
Ġn urt
Ġn i
Ġmodel ing
Ġmis ogyn
Ġme ga
Ġinterrog ation
Ġillust rated
Ġhost ages
Ġfold ed
Ġexcept ionally
Ġdo omed
Ġdisg usting
Ġdest inations
Ġder iv
Ġcruel ty
Ġcom o
Ġcal cium
Ġbr ighter
Ġant agon
Ġa kin
ĠW orth
ĠW ant
ĠW CI
ĠT weet
ĠSw an
ĠSing le
ĠS oph
ĠRe vel
ĠR oc
ĠPrinc eton
ĠN um
ĠMor phy
ĠLib yan
ĠL iter
ĠJo el
ĠJ ak
ĠIs is
ĠHann ity
ĠH il
ĠH ag
ĠF ri
ĠChampionship s
ĠCh in
ĠCany on
ĠCambod ia
ĠBudd y
ĠBill board
ĠAr row
ĠAng els
ĠAm sterdam
ĠAm anda
ĠA zer
Ġ/ *
Ġ) :
Ġ) )
Ġ" "
ve red
ull ah
ues e
st rom
sc ill
rit ated
reat ment
re ra
rah im
osp here
ort ium
ord ered
man ned
lant ic
is i
ic idal
hen ko
f ar
f aced
es sel
c ats
b uster
att ack
as ures
arent s
aked own
a unt
T itle
L og
H and
F orm
F ore
F in
Every body
Any way
AS E
Ġwor s
Ġwire t
Ġwar mer
Ġveget able
Ġstick ers
Ġst yl
Ġsh iny
Ġremark ed
Ġreb oot
Ġr app
Ġpun ct
Ġprop oses
Ġpro claimed
Ġpit chers
Ġp arl
Ġnorth west
Ġn erves
Ġn ails
Ġmin eral
Ġmach inery
Ġiron ic
Ġincon ven
Ġgr ind
Ġfin ed
Ġdispens aries
Ġdet on
Ġcool er
Ġcontro llers
Ġcontent ious
Ġconcept ual
Ġcan s
Ġbu ys
Ġbrut ality
Ġbig ot
Ġb ore
Ġan ten
ĠWed ding
ĠWeb b
ĠT aking
ĠSant os
ĠS I
ĠR ise
ĠPro bably
ĠPr adesh
ĠPay Pal
ĠOb server
ĠMed ium
ĠMe g
ĠM oy
ĠM au
ĠLoc ke
ĠK are
ĠGun n
ĠF ix
ĠD ani
ĠCont act
ĠCom plex
ĠCan cer
ĠC rypt
ĠC ensus
ĠB rett
ĠAg ent
ĠACL U
Ġ19 49
Ġ19 42
ãģ Ĺ
Ã ĥ
ud s
threat ening
st ant
spe cial
sequ ently
se ys
re ngth
r ill
iz a
in ition
f un
f acebook
em er
ed u
cy cl
arl ing
an as
We ek
Up on
Thermal DamageResonance
S ize
M ap
H op
Exp onent
AR Y
A Z
ĠÎ± ÏĢ
Ġzomb ies
Ġw it
Ġw ipe
Ġvol atile
Ġvisit or
Ġunc ont
Ġturn over
Ġto dd
Ġsurround ings
Ġsuper vision
Ġste er
Ġsoc i
Ġsc roll
Ġsa us
Ġreinfor ced
Ġreg imes
Ġprin cess
Ġpo inter
Ġpedest rians
Ġp s
Ġp estic
Ġobject ion
Ġo u
Ġnot ions
Ġlat ency
Ġl ang
Ġjud iciary
Ġinto x
Ġins anity
ĠiP od
Ġhand held
Ġhal ted
Ġh ug
Ġgate way
Ġf ist
Ġembr acing
Ġdr ums
Ġdefe ating
Ġdef er
Ġd ess
Ġcontract ed
Ġcon qu
Ġcock tails
Ġco herent
Ġche ek
Ġchampionship s
Ġc ache
Ġbomb ings
Ġb ree
Ġanticip ate
Ġam put
Ġall ocated
Ġaggreg ate
Ġab normal
ĠV on
ĠV a
ĠS gt
ĠS ales
ĠR an
ĠQu ant
ĠProtest ant
ĠN an
ĠI RS
ĠFif th
ĠEqu ality
ĠEag le
ĠEC B
ĠE minem
ĠE M
ĠDes cription
ĠCurt is
ĠCarl ton
ĠBel gian
ĠB R
ĠA ce
Ġ19 47
âĢĿ ;
w s
ustain able
pl aced
p olitical
ood y
obi ography
ig ators
h ig
gg ie
g io
exp ensive
ex pl
ett i
earth stone
coh olic
b ons
ateg ory
at ured
ass er
af ka
Sec ret
S M
RE W
Mart in
M ont
J ones
D F
Can adian
ART IN
AC A
A k
A ir
Ġwe ights
Ġunw anted
Ġuns ur
Ġun ified
Ġtr unk
Ġtelev ised
Ġt read
Ġsymp athetic
Ġsam pling
Ġrout ing
Ġrational e
Ġr anged
Ġpun ched
Ġprotagon ist
Ġprivile ged
Ġpo pping
Ġpo ke
Ġopp oses
Ġo m
Ġnational s
Ġmix ing
Ġmag net
Ġk its
Ġj oked
Ġj ar
Ġinstall ment
Ġincomp at
Ġhypot hetical
Ġheav ier
Ġgr an
Ġgl oss
Ġform idable
Ġfact ions
Ġentire ty
Ġdr agon
Ġdisadvant age
Ġdiet ary
Ġdecre asing
Ġcoun cill
Ġcost ing
Ġconsult ants
Ġconsider ations
Ġcommun al
Ġchar itable
Ġburn s
Ġbl oom
Ġband width
Ġb isexual
Ġassess ments
ĠY u
ĠVirt ual
ĠV ersion
ĠTh ing
ĠSug ar
ĠSt rat
ĠSim ilar
ĠS ak
ĠRoberts on
ĠP it
ĠManit oba
ĠL opez
ĠGe off
ĠG ATS
ĠFre eman
ĠFood s
ĠF en
ĠED T
ĠCons ult
ĠCom ing
ĠClint ons
ĠBlock chain
ĠAust rian
ĠAt hens
Ġ19 55
Ġ19 36
â Ļ
Ñ Ĩ
Ð°Ð» Ð¸
uff er
uc ose
ru gu
rent ice
oph ys
oph y
oper ation
op us
of umi
me ga
lud es
ixt y
is ure
ind uced
in formed
im en
he id
g am
formatted Amount
d ue
currency Exponent
currency Code
appro ved
ant as
W ow
US E
Sept ember
Sen ate
More over
G H
E s
AT A
200 1
18 0
14 0
" ;
ĠÐ µ
Ġwithd rew
Ġv andal
Ġtrig gers
Ġtrain er
Ġtiss ues
Ġsymp ath
Ġsuper star
Ġstret ches
Ġsp onge
Ġsex ism
Ġsc outing
Ġreprodu ction
Ġren amed
Ġrecru its
Ġrans om
Ġr iots
Ġprogram mer
Ġpet ty
Ġpay roll
Ġpat rons
Ġob ese
Ġna ive
Ġn as
Ġmechan ic
Ġmamm als
Ġle aning
Ġl aps
Ġj ugg
Ġit eration
Ġins erted
Ġinf ants
Ġhigh s
Ġgri ev
Ġgrat itude
Ġg aze
Ġf ug
Ġf itted
Ġextrem ism
Ġembarrass ment
Ġdom ination
Ġdec omp
Ġd ental
Ġcy l
Ġcr ust
Ġcountry side
Ġcho pped
Ġbro ker
Ġbal con
Ġassess ing
Ġaffidav it
ĠZucker berg
ĠV oy
ĠSu ite
ĠStre ets
ĠSt rike
ĠQual ity
ĠPre p
ĠP am
ĠO UT
ĠMar iners
ĠLeg ends
ĠLe o
ĠL E
ĠIll ust
ĠHe b
ĠH ank
ĠGonz alez
ĠFr ame
ĠF actory
ĠF IA
ĠExper ience
ĠD j
ĠD at
ĠD B
ĠCroat ian
ĠChe ney
ĠC ind
ĠBuzz Feed
ĠA RE
ĠA FC
Ġ2 10
Ï İ
ul ip
rict ed
ra its
r ar
pro ject
ple asant
ont Ã«
lling ton
let te
le aning
k ara
it ars
imb ab
if ty
iction ary
enh agen
cont ent
b ird
b ai
W ant
U RE
Tor onto
S kin
Reg ardless
Phot os
L oad
L ab
K evin
I AL
Feb ruary
D ev
Cont act
Bel ow
B Y
AR M
4 50
12 3
ĠÃ ¤
Ġvalid ity
Ġval ley
Ġun official
Ġun aff
Ġtro op
Ġth under
Ġtang ible
Ġsusp end
Ġstat istic
Ġslog ans
Ġsk ies
Ġrest ruct
Ġrecogn izing
Ġreal ization
Ġrad i
Ġpromot er
Ġpro w
Ġprint s
Ġobser ver
Ġnew com
Ġmy riad
Ġmon arch
Ġmicro phone
Ġmer cy
Ġmemo ir
Ġloc ks
Ġjihad ist
Ġhint ed
Ġh ottest
Ġfore front
Ġexpend iture
Ġdistribut ions
Ġculp rit
Ġcrypt o
Ġcross es
Ġcr ushing
Ġcl own
Ġcar b
Ġcann on
Ġbrow sing
Ġb ilateral
Ġan them
Ġam ple
Ġad am
ĠW on
ĠW izards
ĠW ine
ĠUs ers
ĠUlt ra
ĠTor res
ĠT ouch
ĠT B
ĠSh ore
ĠR SS
ĠQu arter
ĠPubl ishing
ĠPatri ot
ĠO P
ĠMarket ing
ĠLind a
ĠLe eds
ĠL ux
ĠKind le
ĠK em
ĠJup iter
ĠJ et
ĠH i
ĠGu j
ĠGold smith
ĠEvery body
ĠE R
ĠBas ic
ĠAsh ton
ĠAle ppo
Ġ0 4
æ ľ
t itle
ris y
port ing
ond o
o i
m itt
l ied
l ength
itz er
imbab we
im ental
gr id
ga e
com ings
cl air
c am
b ands
are a
ann ers
al ong
________________ ________
V ery
S al
R on
OU T
O pp
O k
M aking
L ynn
L ittle
F D
En ter
Ch inese
Calif ornia
Ġunp aid
Ġunique ly
Ġt il
Ġt enth
Ġsystem ic
Ġst ared
Ġst amina
Ġst alled
Ġst acked
Ġreward ing
Ġrelie ved
Ġrel iance
Ġref resh
Ġpsy chedel
Ġpremium s
Ġprejud ice
Ġposition ing
Ġpo pped
Ġperspect ives
Ġp ixel
Ġnomine es
Ġnic otine
Ġnegoti ation
Ġmiss es
Ġmax Velocity
Ġlo ops
Ġl id
Ġinstinct s
Ġindef initely
Ġignor ant
Ġide als
Ġg ly
Ġforg ive
Ġfor ged
Ġfif teen
Ġfe athers
Ġexhib its
Ġend angered
Ġemp athy
Ġdown side
Ġdiscrimin ate
Ġdiscont in
Ġden ounced
Ġcoun ters
Ġcons erv
Ġcock tail
Ġcirc ulating
Ġcelebr ations
Ġcart oons
Ġbod ily
Ġb ishops
Ġaccident al
Ġacc use
Ġabund ant
ĠWy oming
ĠWar rior
ĠWH O
ĠW ong
ĠV ista
ĠV M
ĠT BD
ĠShel by
ĠS pl
ĠS ite
ĠR idge
ĠPro du
ĠP os
ĠOff icial
ĠO mar
ĠNorth west
ĠMour inho
ĠMar ie
ĠM ongo
ĠL amb
ĠKn ox
ĠJul ie
ĠJack ie
ĠJa une
ĠJ eb
ĠIndust rial
ĠH uckabee
ĠH ubbard
ĠF act
ĠF AA
ĠEx cept
ĠEn quirer
ĠD up
ĠD LC
ĠCur ry
ĠCon way
ĠC ed
ĠAny thing
ĠAl v
Ġ7 50
Ġ19 17
with out
w ire
w ere
v idia
un n
rat ives
person al
par am
or ously
oc ations
nik ov
ld om
l ove
ket ch
ier i
ien cies
ie gel
id ian
gr and
g ot
f oo
f it
ex ter
enz ie
cr ime
com fort
c ulture
c irc
c ause
ber n
az or
anc ers
a an
W ater
W all
Tr ue
Sund ay
Pre vious
O ld
IT E
Eng lish
E p
D eb
19 99
" [
Ġwear able
Ġwas ting
Ġw aking
Ġveget arian
Ġtre k
Ġtravel ers
Ġtrail ing
Ġtot als
Ġtorn ado
Ġth riving
Ġswift ly
Ġstretch ing
Ġstap le
Ġsp ouse
Ġsimpl ify
Ġrum or
Ġround ed
Ġretain ing
Ġnight club
Ġneighbour ing
Ġmer its
Ġmad ness
Ġm esh
Ġlike wise
Ġl iable
Ġintr ins
Ġinst ability
Ġing en
Ġimp ending
Ġge ometry
Ġge ek
Ġfranch ises
Ġfoc al
Ġfalse ly
Ġf Ã¶r
Ġexp ired
Ġe igen
Ġdump ed
Ġdis respect
Ġdiplom acy
Ġdev ote
Ġdetain ees
Ġdepend ence
Ġdecl ines
Ġconstitu ency
Ġcomp ression
Ġcar pet
Ġbl ah
Ġb arn
Ġatt ain
Ġadvert isers
Ġacceler ate
ĠTechn ologies
ĠT ab
ĠSu ccess
ĠSp ark
ĠSol utions
ĠScient ists
ĠRhod es
ĠP irates
ĠNot es
ĠN ear
ĠN D
ĠMe yer
ĠMcG u
ĠM ead
ĠM ak
ĠLink edIn
ĠJ ump
ĠIns urance
ĠG ian
ĠFe atures
ĠExpl orer
ĠDet ective
ĠCelt ic
ĠCan n
ĠC el
ĠB rent
ĠAv iv
ĠArab s
ĠAd ult
Ã© t
Ã© n
vert ising
utter stock
u ilt
s ar
ron ics
res istant
qual ified
p x
ous ins
our ing
ot he
ordin arily
or o
onge vity
oll s
og rams
link ed
l ived
iv ities
it ating
int o
he ard
er os
educ ated
cho ice
anger ous
am ic
aff er
abul ary
W orks
W estern
N obody
N R
In f
D ead
Cur rent
Bron y
' )
% ).
ĠÐ± Ñĭ
Ġwatch dog
Ġwar riors
Ġwa ist
Ġunst able
Ġtherape utic
Ġsubsid iary
Ġstuff ed
Ġstub born
Ġstrateg ist
Ġscan ning
Ġresearch ing
Ġres h
Ġreminis cent
Ġref rain
Ġrec laim
Ġra ided
Ġr ude
Ġprivile ges
Ġprem ie
Ġor ph
Ġo wed
Ġmedic ines
Ġmar athon
Ġlear nt
Ġle mon
Ġlab s
Ġintu itive
Ġhand c
Ġeval uating
Ġempir ical
Ġdr ank
Ġdismiss al
Ġdiplom at
Ġdiam eter
Ġdefect s
Ġdatab ases
Ġconting ent
Ġconstruct ive
Ġcondem ning
Ġclar ified
Ġch amp
Ġcentral ized
Ġcan cell
Ġbus h
Ġbull shit
Ġbi ography
Ġbask ets
Ġag ua
Ġadop ting
Ġadm issions
ĠWrit ing
ĠW ald
ĠTe ams
ĠSp ike
ĠSouth west
ĠSoul s
ĠR um
ĠR oche
ĠP atch
ĠOper a
ĠO sw
ĠMotor ola
ĠMerc ury
ĠMan uel
ĠM atch
ĠL ed
ĠKash mir
ĠJuda ism
ĠHig her
ĠHe ather
ĠGre gg
ĠG ur
ĠF eed
ĠF X
ĠE y
ĠE aster
ĠE P
ĠDev il
ĠDO J
ĠCross Ref
ĠC ertainly
ĠBund es
ĠB our
ĠB end
ĠApplic ation
Ġ195 9
âĸ Ī
ustom ed
ul ators
s ch
op ened
nder ing
m ajor
it us
it led
it an
ind ust
ilib rium
ific ent
d ain
crib ed
aw ays
app a
a Ã¾
Val ue
Through out
Sh ow
Q U
P ublished
OR Y
O F
Ne il
NAS A
L ess
J ac
G ov
D ig
Ġunfair ly
Ġunder went
Ġund en
Ġun identified
Ġun cover
Ġubiqu itous
Ġtrans plant
Ġton nes
Ġsur geon
Ġstab bed
Ġspeed ing
Ġsp ider
Ġsever ity
Ġsell er
Ġsc out
Ġsc oop
Ġs perm
Ġrest oring
Ġrespons ive
Ġrec urring
Ġreb ound
Ġreal izes
Ġre per
Ġre im
Ġpump ing
Ġprot ester
Ġpost ure
Ġpol ished
Ġpip es
Ġn ore
Ġmod s
Ġmeth ane
Ġmass ively
Ġmaj ors
Ġlif es
Ġlean ed
Ġl ur
Ġl ou
Ġkiss ing
Ġinv iting
Ġinter ceptions
Ġind icted
Ġhard core
Ġform ats
Ġdr astic
Ġdiscover ies
Ġd od
Ġconce al
Ġcl oses
Ġchick ens
Ġbroadcast s
Ġbo o
Ġb ury
Ġarmor EmDamageResonance
Ġar senal
Ġaccus ation
Ġaccum ulated
Ġacclaim ed
Ġaccess ed
ĠZh ang
ĠV el
ĠT M
ĠStand ards
ĠSh annon
ĠServ ing
ĠRes olution
ĠRen o
ĠR ifle
ĠProv idence
ĠPl ame
ĠO wen
ĠNot re
ĠN L
ĠMethod s
ĠMe h
ĠL um
ĠL ars
ĠJ agu
ĠHouth i
ĠH ost
ĠGr ad
ĠEl ite
ĠDomin ican
ĠCustom s
ĠComp etition
ĠCitiz en
ĠCh arter
ĠBe lden
ĠBach mann
ĠB rief
ĠB har
ĠB enedict
ĠB alk
ĠAry a
ĠAct ive
ĠA AP
Ġ195 6
Ð½ Ð¾
Å Ł
z sche
z ak
ve ll
ut ory
ten ess
t otal
sp ot
ri que
re ci
r il
priv ate
ow orld
ors i
orn s
op athy
ons on
om ical
n ick
m ult
load ed
k it
ist ration
ir ritated
g rowing
f inals
e ight
count ry
c ry
c od
board ing
b ike
ant om
all owed
affe ine
a ude
Republic ans
N O
H am
E asley
C amp
B rian
An iwork
A I
99 99
Ġwith hold
Ġv oy
Ġup stream
Ġuns ure
Ġun im
Ġt ac
Ġsurg ical
Ġstress ful
Ġst umbled
Ġspl ash
Ġsoc ks
Ġsl iding
Ġsl ate
Ġsh arks
Ġsex ist
Ġsent iments
Ġsc rat
Ġreprodu ce
Ġrecy cled
Ġpret ending
Ġpol ite
Ġpo orer
Ġpl ague
Ġobserv ing
Ġmunicipal ities
Ġmon key
Ġm um
Ġlisten ers
Ġl oot
Ġinflu x
Ġind oor
Ġhum our
Ġgrant ing
Ġgrand children
Ġf ue
Ġen light
Ġdomin ating
Ġdile mma
Ġdescend ants
Ġdesc ended
Ġdepart ed
Ġd iving
Ġcritic izing
Ġcour thouse
Ġcontin uation
Ġcard i
Ġcard board
Ġcap ita
Ġcap ac
Ġca us
Ġbr ace
Ġboard ing
Ġb ully
Ġapplic ant
Ġanticip ation
Ġanom al
Ġair space
Ġaff inity
Ġabrupt ly
ĠZimmer man
ĠW olves
ĠV ers
ĠT ap
ĠStart ing
ĠSt ark
ĠSpe cifically
ĠSim mons
ĠRec ently
ĠRaf ael
ĠPlan ning
ĠPer iod
ĠN G
ĠMan afort
ĠM K
ĠK iss
ĠH BC
ĠFor ward
ĠFl int
ĠFern ando
ĠFe Si
ĠDest roy
ĠD rupal
ĠD odd
ĠD ifferent
ĠConfed erate
ĠC ultural
ĠBr ontÃ«
ĠBr itt
ĠAnn ie
ĠAdd itional
ĠA br
ĠA be
Ġ19 00
Ġ10 6
Â Ļ
w er
ud o
tt a
tes y
secut or
right s
reat h
pt ive
over ty
ott i
od us
m ot
ist as
in ian
ile aks
her d
f urt
f ires
f igure
d ies
av an
aur ant
ant ine
an amo
all ic
Y D
W D
Th us
T M
St r
R ather
Le ft
Jew ish
H ard
G roup
Dem ocrats
C redit
Ant i
And re
AT H
ĠÂ ·
Ġw olf
Ġundermin ing
Ġun used
Ġun just
Ġtweet ing
Ġtri angle
Ġtheoret ically
Ġtext books
Ġt in
Ġt apped
Ġswing ing
Ġsub po
Ġste als
Ġsit com
Ġside walk
Ġshort comings
Ġshield s
Ġseason al
Ġse ating
Ġrock y
Ġres urg
Ġrecogn izes
Ġpropos itions
Ġprohib its
Ġposs essed
Ġphenomen al
Ġopp ressed
Ġo ri
Ġmis ery
Ġl av
Ġjihad ists
Ġins ign
Ġindirect ly
Ġhop s
Ġho ax
Ġheter osexual
Ġgram mar
Ġgovernment al
Ġgood bye
Ġgig antic
Ġg odd
Ġfr aternity
Ġforens ic
Ġf ier
Ġextrad ition
Ġdownload ing
Ġdepos its
Ġd op
Ġcr unch
Ġcomp osite
Ġcomment ator
Ġc ues
Ġblog gers
Ġblast ed
Ġbelie vers
Ġbal ancing
Ġaw ake
Ġautom ation
Ġauthent icity
Ġarm ies
Ġal ley
Ġaccomplish ments
ĠWhere as
ĠT C
ĠSh awn
ĠS ett
ĠProgress ive
ĠP OL
ĠOpp osition
ĠO ption
ĠO g
ĠN FC
ĠMil k
ĠMcNam ara
ĠMar ijuana
ĠM anson
ĠM am
ĠLiber t
ĠLi u
ĠLeon ard
ĠL anka
ĠL akers
ĠK re
ĠJ SON
ĠInd ividual
ĠIS Ps
ĠH oney
ĠG ig
ĠG erald
ĠF ear
ĠDri ver
ĠDian e
ĠCop enhagen
ĠCh a
ĠC e
ĠC ats
ĠC J
ĠC BD
ĠC AP
ĠBr anch
ĠBr an
ĠB uc
Ġ11 5
âĢ¦ "
ÑĥÐ ¶
Ð¸ ÑĤ
w yn
v able
uk a
ters on
st ill
r aining
r age
place ment
omed ay
og ens
ob ject
m ass
lin er
iv ist
ir teen
ir is
ii i
iche ver
establ ished
at he
ant a
amp h
agn etic
ag ne
ad ay
ac l
Y esterday
Un iversity
T T
Ste ven
Sem itic
S cience
Ne ill
Na ofumi
In side
H C
G ar
For ce
Ch arl
C ell
C ase
A cc
10 3
Ġworth while
Ġwholes ale
Ġwho pping
Ġver se
Ġvar iance
Ġvacc ines
Ġup stairs
Ġunus ually
Ġundermin ed
Ġtruth s
Ġtend encies
Ġspec ulated
Ġsl ope
Ġsimpl est
Ġshoot ers
Ġserv ant
Ġseiz ure
Ġsc atter
Ġrun off
Ġreject ing
Ġrec ons
Ġrec ess
Ġr abb
Ġpun ches
Ġphil anthrop
Ġpar ach
Ġpal m
Ġpack ets
Ġp its
Ġp and
Ġoutl ines
Ġoper atives
Ġoper a
Ġno od
Ġmel ting
Ġland sc
Ġhypoc risy
Ġh ollow
Ġh ay
Ġfore see
Ġfest ivals
Ġextract ion
Ġexch anged
Ġdraft ing
Ġdiscount s
Ġdevelopment al
Ġcommand ers
Ġch alk
Ġcampaign ed
Ġburd ens
Ġbo ast
Ġbad ge
Ġacqu aint
ĠY ak
ĠW ah
ĠV ander
ĠU AE
ĠTH IS
ĠSh ap
ĠSe vent
ĠSe oul
ĠSN P
ĠS ed
ĠS ame
ĠRoy als
ĠR S
ĠQual comm
ĠPar ish
ĠN ate
ĠMig uel
ĠMan ufact
ĠM ental
ĠK au
ĠIr ving
ĠI guodala
ĠHans en
ĠCirc le
ĠCh i
ĠC AN
ĠBr ing
ĠBos nia
ĠBeh ind
ĠAud io
ĠAthlet ic
ĠA val
Ï Ĩ
wart z
w ild
ush ima
udd le
t urn
squ are
real Donald
realDonald Trump
l ov
it ures
isher s
ipp le
h n
en ame
emin ist
che wan
be y
av age
auv oo
at ism
and roid
al iation
Sm all
Short ly
S orry
Prof essor
L ondon
J ose
Israel i
Go ing
F it
De ath
Con clusion
Ġwas hing
Ġv ine
Ġutil izing
Ġun pleasant
Ġtop s
Ġter restrial
Ġsl ump
Ġshr ink
Ġse ldom
Ġro gue
Ġreserv ations
Ġrecy cling
Ġrecept or
Ġradio active
Ġrad ius
Ġprep ares
Ġpredec essors
Ġpray ing
Ġperson a
Ġoverl ap
Ġoutr aged
Ġoff ender
Ġo lig
Ġnar ratives
Ġmis guided
Ġinfant ry
Ġincarcer ation
Ġincap able
Ġgra ves
Ġfur ious
Ġfreel ance
Ġfl ank
Ġfact o
Ġexhib ited
Ġdom est
Ġdetail ing
Ġdead l
Ġd ough
Ġcub ic
Ġcooper ative
Ġcommun ism
Ġcollabor ative
Ġcl an
Ġch ambers
Ġcatast rophe
Ġal umni
ĠZ imbabwe
ĠZ erg
ĠW elcome
ĠUs ually
ĠUg anda
ĠT X
ĠSy l
ĠSe g
ĠRom a
ĠRevolution ary
ĠReg ion
ĠR ocket
ĠPortug uese
ĠP retty
ĠOut side
ĠNiet zsche
ĠMar ines
ĠM iles
ĠK ush
ĠHug o
ĠH av
ĠH ash
ĠGard ens
ĠG em
ĠG C
ĠFar rell
ĠF iber
ĠEconom y
ĠDun geon
ĠCon c
ĠComp anies
ĠC raft
ĠC atherine
ĠBut ter
ĠAven gers
ĠAd obe
ĠAd elaide
ë ĭ
ãĥ ³
Ñ ī
ucc i
th y
sc enes
sal utation
rav ity
ract ion
ph oto
ote ch
onel iness
og ram
o at
mond s
m atch
k ane
ist ries
in feld
ib urg
fol k
f ounded
ex per
ess im
enge ance
em a
e g
ak ia
U k
T W
RE QUIREMENTS
R ock
Ne ither
N early
M ur
L ight
K n
K at
G L
Ed ge
ER R
D ue
C oll
Austral ia
00 000
Ġâ ĨĴ
Ġweek day
Ġwas t
Ġw ires
Ġvill agers
Ġunre asonable
Ġund o
Ġunav ailable
Ġtransform ing
Ġtr il
Ġtele communications
Ġte asp
Ġstri ve
Ġst air
Ġsnaps hot
Ġske let
Ġsed iment
Ġru pt
Ġrep airs
Ġrent ed
Ġrall ied
Ġproc ure
Ġpri zes
Ġpredict s
Ġpod ium
Ġplay able
Ġpar se
Ġoverse es
Ġover c
Ġmig raine
Ġit er
Ġinv ites
Ġinterven ed
Ġinteract ing
Ġineff ective
Ġgad gets
Ġfam ed
Ġf uzz
Ġexpl ores
Ġende avor
Ġdiss atisf
Ġdis like
Ġdis able
Ġcyn ical
Ġcounsel ing
Ġconfisc ated
Ġcon quer
Ġclear ance
Ġchar ism
Ġc ivic
Ġbrew eries
Ġbe aches
Ġaut op
Ġacceler ated
Ġacc ustomed
ĠZ ika
ĠWin ner
ĠW is
ĠVictor ian
ĠU rugu
ĠTro phies
ĠTre vor
ĠTH AT
ĠT at
ĠSh ia
ĠSc ots
ĠS ig
ĠS end
ĠS ah
ĠRoman ia
ĠRem ove
ĠR aleigh
ĠP I
ĠNob le
ĠNiger ian
ĠNAS L
ĠN ortheast
ĠN ec
ĠMah m
ĠL SU
ĠIs n
ĠHaw kins
ĠHann ah
ĠH arm
ĠH S
ĠGuj arat
ĠGuant anamo
ĠG are
ĠEv olution
ĠCu omo
ĠCou pe
ĠCamp us
ĠCON T
ĠC ov
ĠC arn
ĠBur ton
ĠBl as
ĠBay lor
ĠB oss
ĠAny way
Ġ19 44
ÏĦ Î¹Îº
ver ts
um per
ue bl
uc ing
ub s
tr ade
ra ud
oper ative
opath ic
in th
in fect
ic ular
he cy
ha ven
f ill
cript ions
ass is
amin er
ab ase
[ /
W ait
S k
P rodu
P ay
M ade
H old
F inal
ER N
Cont ent
B LE
Ġwithd rawn
Ġvoc als
Ġur ges
Ġunt o
Ġun ite
Ġty r
Ġtur key
Ġtun ing
Ġtub es
Ġtrans cend
Ġtra it
Ġsustain ability
Ġstorm ed
Ġst are
Ġsk ating
Ġsad ness
Ġs ized
Ġroad side
Ġretrie ve
Ġresent ment
Ġqu eries
Ġprovoc ative
Ġprec inct
Ġpl ac
Ġphys iological
Ġp irate
Ġovert urn
Ġoun ces
Ġol ive
Ġmyth ology
Ġmunicip ality
Ġmet ropolitan
Ġmerch ants
Ġl akes
Ġjealous y
Ġj elly
Ġind ications
Ġin advert
Ġhero ic
Ġhell o
Ġh iking
Ġh ats
Ġguess ing
Ġgl ucose
Ġfat igue
Ġfair y
Ġf oe
Ġf aded
Ġexc uses
Ġener get
Ġdemol ished
Ġd urable
Ġd amp
Ġcontinu ity
Ġcont end
Ġconf essed
Ġch rom
Ġc ros
Ġbr ig
Ġbl ows
ĠWh is
ĠV ic
ĠT RA
ĠSt am
ĠSebast ian
ĠScient ific
ĠS it
ĠS ST
ĠRe ality
ĠProv ince
ĠPat ty
ĠPM C
ĠP unk
ĠP ONY
ĠP E
ĠNiss an
ĠN ak
ĠMid west
ĠM oses
ĠM bps
ĠM AN
ĠLe vi
ĠL CD
ĠGr ab
ĠGit Hub
ĠG ain
ĠF ISA
ĠElect oral
ĠE instein
ĠDes ert
ĠDem s
ĠDar win
ĠD ru
ĠCo ch
ĠCar p
ĠBeck er
ĠB ART
ĠArch bishop
ĠA pr
Ð¾ ÑĤ
Â ·
z ip
year s
writ ers
wh y
war z
ut z
um en
ult an
st own
re ally
r anked
ow ay
ot aku
or ically
oms ky
m ake
lo op
iv ism
ine ment
ij i
he avy
h u
f orth
f iction
es se
ck man
c us
at hing
V o
Step hen
Sem itism
Se ason
P riv
On line
N ick
N FL
Mem bers
Just ice
J osh
Ex ception
E lement
De velop
De cember
Ar thur
12 8
+ ,
!! !!
Ġwitness ing
Ġwild erness
Ġwhere by
Ġwheel chair
Ġw o
Ġv ind
Ġv ain
Ġunders c
Ġunch anged
Ġtraum atic
Ġt iles
Ġt ighter
Ġsynt ax
Ġsur rog
Ġsur rendered
Ġsupp ression
Ġstation ed
Ġstand alone
Ġst ature
Ġshoot s
Ġshield ExplosiveDamageResonance
Ġs ins
Ġrob bed
Ġret ali
Ġrestrict ion
Ġpromin ence
Ġpolar ization
Ġpir acy
Ġpe cul
Ġp ony
Ġmortg ages
Ġmetab ol
Ġle v
Ġlaund ry
Ġkidn apping
Ġir rational
Ġinterview ing
Ġhes it
Ġhead aches
Ġhe ights
Ġharass ed
Ġfrag ments
Ġf usion
Ġencour agement
Ġem ission
Ġe man
Ġdisag reed
Ġdepict ing
Ġd wind
Ġd well
Ġcrowd funding
Ġcor pse
Ġcoordin ates
Ġconced e
Ġconc ussion
Ġcompat ibility
Ġche ering
Ġb iblical
Ġastron omers
Ġas semble
Ġas c
Ġagree ing
ĠX ia
ĠW elsh
ĠTib et
ĠT ank
ĠT SA
ĠSt yle
ĠShe ikh
ĠSant i
ĠS afe
ĠRef uge
ĠR acing
ĠPri est
ĠPerson al
ĠOs lo
ĠNew man
ĠM ix
ĠLyn n
ĠK eral
ĠJed i
ĠH earthstone
ĠG ol
ĠFe ldman
ĠEm manuel
ĠE rik
ĠColomb ia
ĠCl aire
ĠCat al
ĠC ort
ĠC ities
ĠC er
ĠBlu etooth
ĠB ain
ĠAndrew s
ĠAn cient
ĠAl ready
Ġ> >>
Ġ19 46
ï¼ Ī
Â Ŀ
w ait
v ich
ush i
se xual
ors che
n ant
ina ural
in vest
il ot
hell o
h awks
f act
et ics
et ed
ep rint
elect ed
el ig
cu ador
cer t
cd n
av ior
av ia
abil istic
Re ally
R a
R ANK
O p
N ight
Japan ese
Cons ider
C ore
... ]
Ġword ing
Ġvar ieties
Ġsuper natural
Ġsu ing
Ġst oring
Ġst igma
Ġspecial ists
Ġsett lers
Ġs ou
Ġrelent less
Ġquestion naire
Ġpsych osis
Ġprosec ute
Ġprofess ionally
Ġproceed ing
Ġpol ish
Ġpe aks
Ġparent al
Ġp ixels
Ġp ier
Ġout we
Ġost ens
Ġnot ify
Ġneg lected
Ġn avy
Ġmyth s
Ġmut ually
Ġmult itude
Ġmit igate
Ġmis con
Ġmess y
Ġl ongevity
Ġj og
Ġir rig
Ġimpl ication
Ġhes itate
Ġfor c
Ġfo am
Ġf erv
Ġextra ordinarily
Ġexpl ode
Ġex h
Ġescal ation
Ġelev ator
Ġedit ions
Ġdoub ling
Ġdiv isible
Ġdepriv ation
Ġdecl ares
Ġcons oles
Ġcommer cially
Ġco hes
Ġcl oth
Ġchar m
Ġcat cher
Ġcand le
Ġburg l
Ġant iqu
Ġanim ations
Ġam en
ĠY un
ĠY ORK
ĠWe llington
ĠStar Craft
ĠSim s
ĠSh ak
ĠRE ST
ĠR oot
ĠPh ase
ĠPed ro
ĠP KK
ĠNep al
ĠMir ror
ĠM uk
ĠM ARTIN
ĠLeaders hip
ĠL ords
ĠH B
ĠG Hz
ĠFull er
ĠFel ix
ĠFA Q
ĠEll iott
ĠElect ions
ĠDet ails
ĠD owntown
ĠConst itutional
ĠChrist ine
ĠC ogn
ĠC oc
ĠBl vd
ĠBeaut y
ĠBasket ball
ĠAr ist
Ġ195 7
Ġ19 14
Ġ10 8
Ġ å
ï¼ ī
Å ¾
ym es
vention al
uther land
ur st
th ose
t xt
t ml
riv es
riv ed
per haps
per forming
ore sc
on o
n ite
lig a
ld on
itt e
ing es
ib li
ib il
hr man
hab i
f ig
b ag
att a
art en
ang ling
ad ic
U t
S ky
S ep
Qu antity
P rop
P osition
N eed
Mat thew
Ind ian
Cle arly
Ar ch
10 4
) ?
Ġyield ed
Ġx en
Ġvill ains
Ġun rel
Ġtrain ers
Ġtheir s
Ġteam ed
Ġt earing
Ġsun set
Ġsquad s
Ġspat ial
Ġsing ular
Ġs ung
Ġs omeday
Ġret aliation
Ġrequired Skill
Ġrem edy
Ġrem ake
Ġre written
Ġr uth
Ġpump ed
Ġprotest ed
Ġprolong ed
Ġprofound ly
Ġplum met
Ġpersu aded
Ġper il
Ġper ceptions
Ġof t
Ġnew born
Ġm ans
Ġled ger
Ġir regular
Ġintellectual s
Ġinfect ious
Ġhun ter
Ġhead phones
Ġhead ache
Ġh p
Ġghost s
Ġge opolitical
Ġg er
Ġfort unes
Ġfire works
Ġfemin ine
Ġfast ing
Ġf aint
Ġess ays
Ġenjoy ment
Ġem it
Ġdrag ging
Ġdisproportion ately
Ġdish onest
Ġdiscrimin atory
Ġdisappear ance
Ġd ens
Ġcontin ental
Ġcomp ilation
Ġchance llor
Ġch orus
Ġcare g
Ġbra ke
Ġbom bers
Ġbe ard
Ġbank ers
Ġair lines
ĠW or
ĠW ide
ĠW end
ĠTur ks
ĠTr ading
ĠStrateg ic
ĠS tern
ĠRel igious
ĠPro blem
ĠP ip
ĠP arsons
ĠP P
ĠNi elsen
ĠN u
ĠN ES
ĠMic key
ĠMa ver
ĠL one
ĠL iquid
ĠL az
ĠJo an
ĠJ ill
ĠGu er
ĠEn joy
ĠE mber
ĠCris is
ĠCard iff
ĠBudd hist
ĠB ie
ĠAs ked
ĠAdv oc
ĠAb stract
Ġ2 30
Ġ195 4
y les
y g
sec ret
s ler
rom a
re ated
rav o
qu ila
qu et
ody nam
oc ese
ob y
lu ent
just ed
j ab
in it
in ion
ill as
ey e
ew s
ens ing
cl ose
cl ays
cent ric
be cca
aun ted
ator ium
at form
ast ro
ann i
am on
ag her
Wind ows
Top ics
TS D
S omething
Rec ent
Pro ject
M ech
F iles
D und
D rive
Cre ate
C ould
App arently
13 5
00 2
) âĢĶ
! ),
Ġworks hops
Ġvisual s
Ġveget ation
Ġter med
Ġsw ear
Ġsuccess ion
Ġstim ulate
Ġspont aneous
Ġspecific ations
Ġspec ulative
Ġso aring
Ġsell ers
Ġsalv ation
Ġrep ay
Ġre play
Ġqu art
Ġpump s
Ġpresent ations
Ġp amph
Ġout dated
Ġo scill
Ġo min
Ġnum er
Ġnom inations
Ġn ove
Ġmanip ulated
Ġlung s
Ġloud ly
Ġlapt ops
Ġins iders
Ġinform ing
Ġinc idence
Ġhe x
Ġgest ures
Ġg imm
Ġfinal ized
Ġfilm maker
Ġfet al
Ġfall out
Ġey ew
Ġest e
Ġend urance
Ġe ve
Ġdiscour age
Ġdial og
Ġdest iny
Ġdepend ency
Ġcommercial s
Ġcom r
Ġcoll ar
Ġco erc
Ġbull pen
Ġble ak
Ġbell y
Ġbe verage
Ġb ash
Ġaw aken
Ġaspir ations
Ġar ith
ĠVict ory
ĠTw ins
ĠTer rit
ĠT yson
ĠSu arez
ĠSom ali
ĠSc and
ĠSach s
ĠS ketch
ĠS ax
ĠRep ly
ĠPort al
ĠPer cent
ĠOsw ald
ĠON E
ĠO H
ĠO C
ĠMin utes
ĠM ile
ĠL omb
ĠK ris
ĠK abul
ĠJ alan
ĠInd y
ĠI o
ĠI A
ĠHe in
ĠH our
ĠH ogan
ĠH ed
ĠFuk ushima
ĠFair fax
ĠF REE
ĠDe V
ĠD IRMINA
ĠCho ice
ĠC ousins
ĠC hern
ĠB oulder
Ġ11 1
Ġ10 7
Ġ à¤
w at
us ually
un ky
re view
ra red
r ans
p aste
ow ler
oun ge
ort heastern
ol ith
ograph s
od ore
o an
not hing
neg oti
le ader
j et
iss ue
help s
g age
ff ield
f acing
ext reme
ew ater
ett es
et itive
e a
ather ing
ak is
ad an
ablish ment
W ay
UC K
Stud ents
Sp awn
S ean
S QL
R edd
P o
P N
K ill
Go vernment
G ary
18 2
10 7
! '
ĠÐ ¡
Ġyell ing
Ġwork out
Ġvoc abulary
Ġup ro
Ġtoug hest
Ġtest ament
Ġtem po
Ġsummon ed
Ġstat utory
Ġspons orship
Ġsoc ietal
Ġsn ipp
Ġshut tle
Ġsh ining
Ġs rc
Ġs acked
Ġr av
Ġq aÃ¾
Ġp enny
Ġoversee ing
Ġo mn
Ġn ul
Ġn ud
Ġmed itation
Ġman kind
Ġm our
Ġlivest ock
Ġlim itation
Ġlibert arians
Ġk ings
Ġinter ception
Ġin expensive
Ġhur ry
Ġhelicop ters
Ġhand ler
Ġgood ness
Ġge ographic
Ġfirm ware
Ġext inct
Ġesp ionage
Ġec ological
Ġdump ing
Ġdownload s
Ġdiss olved
Ġdisp atched
Ġdef iciency
Ġcop ying
Ġconflic ting
Ġcomm ute
Ġcataly st
Ġc ant
Ġby tes
Ġbel ts
Ġbe es
Ġattract iveness
Ġattract ions
Ġappl ause
Ġaccess ories
Ġ[ âĢ¦]
ĠX P
ĠWat ers
ĠW AR
ĠV u
ĠV ault
ĠSp o
ĠSc out
ĠSaskat chewan
ĠS V
ĠRes earchers
ĠRe ce
ĠRE AL
ĠR ange
ĠOrig inally
ĠMon roe
ĠMo zilla
ĠMar riage
ĠM ash
ĠLet ter
ĠLa un
ĠL und
ĠJav ascript
ĠJac ques
ĠJ ail
ĠH os
ĠH ir
ĠH assan
ĠGu ards
ĠGoth am
ĠGl ad
ĠDar ren
ĠD ixon
ĠCom par
ĠCom ments
ĠCom edy
ĠChe v
ĠC ir
ĠC ave
ĠBren nan
ĠB ass
ĠAr lington
ĠAdd ed
Ġ5 000
Ġ12 3
Ġ+ /-
Ñĥ Ð»
Ã¤ r
Â ½
z heimer
uss en
th inking
st atic
spe aking
s ession
rist ol
product ive
pl ot
op ening
od s
me aning
m ith
l ang
k ick
j ug
ib a
he rence
g ren
f u
ern ame
d oes
b order
av our
at ra
all a
al ine
acc ount
Th ousands
Th ird
T B
Shield s
Serv ice
S ocket
Out side
OW N
H R
F riend
Cap acity
Ar mor
> <
11 5
.âĢĻ âĢĻ
Ġâ Ī
Ġyell ed
Ġwar p
Ġv i
Ġtel escope
Ġt ying
Ġt abs
Ġsur real
Ġsubject ivity
Ġstri ps
Ġstere otyp
Ġst aging
Ġsp rawling
Ġske leton
Ġsett ling
Ġseiz ures
Ġsc aling
Ġroll er
Ġrev ived
Ġrepl ies
Ġreject s
Ġpres ervation
Ġpra ising
Ġport raits
Ġplan ners
Ġpl ight
Ġpip elines
Ġperpet rators
Ġper vasive
Ġparan oid
Ġoverd ose
Ġn ap
Ġmoist ure
Ġmission aries
Ġmedd ling
Ġm og
Ġm ansion
Ġlif elong
Ġkind ness
Ġkill ers
Ġk idding
Ġimper fect
Ġimag in
Ġign ores
Ġhands ome
Ġgentle man
Ġgau ge
Ġext r
Ġe tern
Ġdr ills
Ġd aunting
Ġcongress man
Ġbureaucrat ic
Ġbit coins
Ġbath rooms
Ġattach ment
Ġarmor ThermalDamageResonance
Ġair ing
ĠZ oo
ĠWhats App
ĠWag ner
ĠU TC
ĠTele com
ĠStr ategy
ĠSt ef
ĠRec ent
ĠRam os
ĠRE AD
ĠPe pper
ĠPart icip
ĠP resent
ĠN auvoo
ĠMongo DB
ĠM ist
ĠM ansion
ĠL ar
ĠJac obs
ĠHung arian
ĠHer bert
ĠHal ifax
ĠGold berg
ĠF ury
ĠDav ies
ĠCl iff
ĠCauc as
ĠCard inal
ĠBl ocked
ĠBel arus
ĠBe au
ĠB U
ĠB O
ĠAfric ans
Ġ19 10
urs or
sw er
ri z
reg ulated
r one
pro duction
ple teness
pl aces
of en
n orm
m its
ink le
ih il
i Äĩ
h aw
greg ated
f est
ent on
end ant
em ade
ell i
c ross
b ra
av ier
at an
art a
\ -
V e
Sub ject
S oon
P ark
ON D
M rs
LE CT
L ive
K O
J UST
H a
Event ually
E st
C ost
B usiness
Ġweigh s
Ġvolcan ic
Ġvan ished
Ġv apor
Ġtar iffs
Ġsy rup
Ġsuck ed
Ġsub missions
Ġst ain
Ġsqu at
Ġsn akes
Ġscore r
Ġro pe
Ġric her
Ġrevers al
Ġreact ors
Ġr ays
Ġprev ail
Ġphysic ist
Ġphilosopher s
Ġperm itting
Ġper former
Ġpart nered
Ġp oker
Ġp essim
Ġover ride
Ġordin ances
Ġoblig ed
Ġo ceans
Ġmush rooms
Ġkind ly
Ġinqu iries
Ġimpress ions
Ġimpe achment
Ġhom age
Ġharm ony
Ġhands et
Ġguitar ist
Ġgall on
Ġg el
Ġfulf illed
Ġfraud ulent
Ġexpend itures
Ġexist ential
Ġex cel
Ġepid em
Ġenfor cing
Ġelev ation
Ġe ats
Ġdisp ers
Ġdisgu ise
Ġdisgr ace
Ġdev otion
Ġcor p
Ġcontrad iction
Ġcont enders
Ġcont amin
Ġclass ics
Ġcl usters
Ġceremon ies
Ġcauc uses
Ġc ough
Ġc ores
Ġbl ink
Ġbl ades
Ġb art
Ġassign ments
Ġalleg iance
Ġa ka
ĠWill ie
ĠW AS
ĠV C
ĠUK IP
ĠT ED
ĠSy nd
ĠSp awn
ĠSh aria
ĠScot ia
ĠRob ot
ĠReg ardless
ĠRe e
ĠR andom
ĠPen insula
ĠOr well
ĠN R
ĠMars h
ĠM iy
ĠLeg acy
ĠLeban ese
ĠKeral a
ĠI L
ĠHor izon
ĠH iro
ĠG TA
ĠF lickr
ĠE there
ĠE cho
ĠDur ham
ĠDeb bie
ĠBuck aroo
ĠBay ern
ĠBar on
ĠB ot
ĠB oot
ĠAzer bai
ĠAna heim
ĠAC T
ĠA WS
Ġ25 5
Ġ195 3
Ġ ik
ì Ŀ
â Ĺ
Î¼ Î±
z ero
y ch
ur ous
umb les
ud ic
te br
so lete
ract ed
ow ment
n atic
larg est
land er
l ining
l abel
iv as
it ched
it ations
i ating
f ind
ets k
ee le
d eter
d ependent
d ead
ce ph
c orn
ber man
ad in
Res p
R en
Orig inally
O bs
Islam ic
Intern ational
H I
F und
Ch icago
And roid
A uth
,' "
ĠÎ ¿
ĠÎ ³
Ġz oo
Ġyouth s
Ġwh ales
Ġvol t
Ġup hill
Ġuns ett
Ġtraff ickers
Ġtr act
Ġtoler ated
Ġthro tt
Ġthr iller
Ġsuperior ity
Ġsun ny
Ġsub mitting
Ġst all
Ġspecific ation
Ġsign aling
Ġselect ive
Ġres olutions
Ġres ett
Ġrepresent ations
Ġrem ed
Ġquant itative
Ġposs essions
Ġpodcast s
Ġpatri ot
Ġp es
Ġp ains
Ġouts iders
Ġout post
Ġout breaks
Ġodd ly
Ġnotor iously
Ġnostal gia
Ġmyster ies
Ġmin erals
Ġmerc en
Ġlong standing
Ġlau ndering
Ġinflamm atory
Ġimp air
Ġhome work
Ġhar med
Ġgu itars
Ġgrand son
Ġgo of
Ġg y
Ġfront s
Ġf ried
Ġeyeb rows
Ġexpress es
Ġexecut ing
Ġethnic ity
Ġerr one
Ġequ ilibrium
Ġens ured
Ġen large
Ġelig ibility
Ġdisg ust
Ġdisc rep
Ġdisagree ment
Ġdepriv ed
Ġdem ocrat
Ġcor related
Ġcor oner
Ġcondemn ation
Ġclean ed
Ġch unks
Ġch illing
Ġcan al
Ġboost ing
Ġbet s
Ġbalcon y
Ġb aking
Ġauthor ization
Ġass ail
Ġannoun ces
Ġadv ising
Ġa ust
ĠWh ole
ĠW C
ĠVe h
ĠSport ing
ĠS ue
ĠRun ning
ĠReyn olds
ĠR uth
ĠPro spect
ĠP orsche
ĠOff beat
ĠMe gan
ĠM unicip
ĠM aker
ĠL ots
ĠL iv
ĠK aw
ĠHond uras
ĠH z
ĠH ilton
ĠGen esis
ĠG ing
ĠEth i
ĠEll ison
ĠE z
ĠE ye
ĠE PS
ĠDur ant
ĠDisney land
ĠDe bian
ĠDay ton
ĠDI Y
ĠC ran
ĠC NBC
ĠBur ke
ĠBur ger
ĠAn kara
ĠAlf red
ĠAl ive
ĠAj ax
ĠAdvis ory
ĠAdv ance
ĠAbb as
ĠA part
Ġ15 00
Ñģ ÑĮ
Ð°Ð ²
Î¯ Î±
w agen
un ci
ul ic
t ical
t ag
ser ies
s aving
ro st
ric ks
ri ents
rel igious
r itional
pl er
pict ured
parent s
oss ip
ma C
m is
land ers
l und
int elligence
he ne
hard t
h ift
gu yen
grad ation
ess ler
ct ory
be ck
b il
ar ak
am ax
W ik
T ech
Res earch
Prof iles
O l
N PR
L ER
K in
Fr ance
Author ities
AN S
Ġwh ip
Ġwa iver
Ġw ired
Ġturn around
Ġtrib unal
Ġthank ful
Ġsuspic ions
Ġstr at
Ġsc aled
Ġsand wic
Ġs oda
Ġret iring
Ġregul ating
Ġre organ
Ġr Ã©
Ġpur se
Ġpup ils
Ġpund its
Ġord eal
Ġnow adays
Ġnore maC
Ġmiser able
Ġmet ast
Ġmark ers
Ġm orn
Ġlegal ized
Ġlaw maker
Ġlast s
Ġl ocking
Ġl ays
Ġindu ced
Ġindu ce
Ġimp over
Ġhold ings
Ġhar bor
Ġha voc
Ġgovern ed
Ġgenet ics
Ġgener ators
Ġg rie
Ġfr inge
Ġfear ful
Ġevac uated
Ġde ported
Ġcrack ing
Ġcl ay
Ġcheap est
Ġch anting
Ġc ube
Ġbuff alo
Ġb inaural
Ġaug mented
ĠWars aw
ĠUn block
ĠTh an
ĠSo chi
ĠSher man
ĠShep ard
ĠSh ir
ĠSer gio
ĠRich ards
ĠRes cue
ĠPr ices
ĠPer fect
ĠPar amount
ĠPan el
ĠN eal
ĠMil ton
ĠMel issa
ĠM ouse
ĠLuck ily
ĠLind sey
ĠLe Bron
ĠLaure n
ĠJoh ann
ĠJackson ville
ĠIs le
ĠI gn
ĠHoff man
ĠH ooters
ĠH ood
ĠGuatemal a
ĠGu ild
ĠGav in
ĠFitz patrick
ĠDo ing
ĠD oc
ĠCre ated
ĠCongress man
ĠCl aud
ĠChem ical
ĠCamer a
ĠC ec
ĠBel fast
ĠBad u
ĠB ott
Ġ ..
with standing
v s
unct ure
un ed
though t
t ank
s aw
quest ion
put er
p ocket
our cing
or ie
let ico
leg round
l ane
k t
it em
inter pret
ill es
if ts
iat us
g ic
f light
f ell
ener gy
eff icient
ed o
dis play
desc rib
com pl
as per
arre ll
ard on
ang a
and ro
am oto
al ion
al ie
ah on
ag ent
There fore
Some one
Sim ilarly
P rior
N usra
N OT
K h
Ford ism
F re
F ort
F OR
E ight
C reat
Bl ock
A bs
11 2
Ġvigil ant
Ġunreal istic
Ġun manned
Ġtr av
Ġto re
Ġtax ed
Ġt ilt
Ġsw ings
Ġsurviv or
Ġstress es
Ġstrateg ically
Ġstr ap
Ġstr anded
Ġsp oon
Ġsort ed
Ġsle w
Ġsil icon
Ġsens ory
Ġscreens hots
Ġsav vy
Ġrestruct uring
Ġresist ed
Ġresear ched
Ġrel iably
Ġrec ap
Ġre think
Ġrain bow
Ġpur ity
Ġprogress ed
Ġprogram med
Ġpro liferation
Ġpresum ed
Ġpersonal ized
Ġpen insula
Ġpay load
Ġpar ish
Ġp ul
Ġouts k
Ġmos ques
Ġmisdem eanor
Ġmight y
Ġmic row
Ġmed als
Ġm s
Ġm ourn
Ġloose ly
Ġlim bs
Ġlab elled
Ġk a
Ġintimid ation
Ġinflic ted
Ġindic ative
Ġinc ub
Ġher b
Ġhe fty
Ġhate ful
Ġgl or
Ġgar nered
Ġfract ured
Ġfl ipped
Ġfin anced
Ġfert ility
Ġf als
Ġenvision ed
Ġens l
Ġearn s
Ġdisreg ard
Ġdiscuss es
Ġdis may
Ġdiagn ostic
Ġdem ographics
Ġcyber security
Ġcons ulate
Ġconcer ts
Ġcolon ies
Ġco h
Ġcler k
Ġch assis
Ġce ased
[...]
